<unk>	0
<s>	0
</s>	0
<0x00>	0
<0x01>	0
<0x02>	0
<0x03>	0
<0x04>	0
<0x05>	0
<0x06>	0
<0x07>	0
<0x08>	0
<0x09>	0
<0x0A>	0
<0x0B>	0
<0x0C>	0
<0x0D>	0
<0x0E>	0
<0x0F>	0
<0x10>	0
<0x11>	0
<0x12>	0
<0x13>	0
<0x14>	0
<0x15>	0
<0x16>	0
<0x17>	0
<0x18>	0
<0x19>	0
<0x1A>	0
<0x1B>	0
<0x1C>	0
<0x1D>	0
<0x1E>	0
<0x1F>	0
<0x20>	0
<0x21>	0
<0x22>	0
<0x23>	0
<0x24>	0
<0x25>	0
<0x26>	0
<0x27>	0
<0x28>	0
<0x29>	0
<0x2A>	0
<0x2B>	0
<0x2C>	0
<0x2D>	0
<0x2E>	0
<0x2F>	0
<0x30>	0
<0x31>	0
<0x32>	0
<0x33>	0
<0x34>	0
<0x35>	0
<0x36>	0
<0x37>	0
<0x38>	0
<0x39>	0
<0x3A>	0
<0x3B>	0
<0x3C>	0
<0x3D>	0
<0x3E>	0
<0x3F>	0
<0x40>	0
<0x41>	0
<0x42>	0
<0x43>	0
<0x44>	0
<0x45>	0
<0x46>	0
<0x47>	0
<0x48>	0
<0x49>	0
<0x4A>	0
<0x4B>	0
<0x4C>	0
<0x4D>	0
<0x4E>	0
<0x4F>	0
<0x50>	0
<0x51>	0
<0x52>	0
<0x53>	0
<0x54>	0
<0x55>	0
<0x56>	0
<0x57>	0
<0x58>	0
<0x59>	0
<0x5A>	0
<0x5B>	0
<0x5C>	0
<0x5D>	0
<0x5E>	0
<0x5F>	0
<0x60>	0
<0x61>	0
<0x62>	0
<0x63>	0
<0x64>	0
<0x65>	0
<0x66>	0
<0x67>	0
<0x68>	0
<0x69>	0
<0x6A>	0
<0x6B>	0
<0x6C>	0
<0x6D>	0
<0x6E>	0
<0x6F>	0
<0x70>	0
<0x71>	0
<0x72>	0
<0x73>	0
<0x74>	0
<0x75>	0
<0x76>	0
<0x77>	0
<0x78>	0
<0x79>	0
<0x7A>	0
<0x7B>	0
<0x7C>	0
<0x7D>	0
<0x7E>	0
<0x7F>	0
<0x80>	0
<0x81>	0
<0x82>	0
<0x83>	0
<0x84>	0
<0x85>	0
<0x86>	0
<0x87>	0
<0x88>	0
<0x89>	0
<0x8A>	0
<0x8B>	0
<0x8C>	0
<0x8D>	0
<0x8E>	0
<0x8F>	0
<0x90>	0
<0x91>	0
<0x92>	0
<0x93>	0
<0x94>	0
<0x95>	0
<0x96>	0
<0x97>	0
<0x98>	0
<0x99>	0
<0x9A>	0
<0x9B>	0
<0x9C>	0
<0x9D>	0
<0x9E>	0
<0x9F>	0
<0xA0>	0
<0xA1>	0
<0xA2>	0
<0xA3>	0
<0xA4>	0
<0xA5>	0
<0xA6>	0
<0xA7>	0
<0xA8>	0
<0xA9>	0
<0xAA>	0
<0xAB>	0
<0xAC>	0
<0xAD>	0
<0xAE>	0
<0xAF>	0
<0xB0>	0
<0xB1>	0
<0xB2>	0
<0xB3>	0
<0xB4>	0
<0xB5>	0
<0xB6>	0
<0xB7>	0
<0xB8>	0
<0xB9>	0
<0xBA>	0
<0xBB>	0
<0xBC>	0
<0xBD>	0
<0xBE>	0
<0xBF>	0
<0xC0>	0
<0xC1>	0
<0xC2>	0
<0xC3>	0
<0xC4>	0
<0xC5>	0
<0xC6>	0
<0xC7>	0
<0xC8>	0
<0xC9>	0
<0xCA>	0
<0xCB>	0
<0xCC>	0
<0xCD>	0
<0xCE>	0
<0xCF>	0
<0xD0>	0
<0xD1>	0
<0xD2>	0
<0xD3>	0
<0xD4>	0
<0xD5>	0
<0xD6>	0
<0xD7>	0
<0xD8>	0
<0xD9>	0
<0xDA>	0
<0xDB>	0
<0xDC>	0
<0xDD>	0
<0xDE>	0
<0xDF>	0
<0xE0>	0
<0xE1>	0
<0xE2>	0
<0xE3>	0
<0xE4>	0
<0xE5>	0
<0xE6>	0
<0xE7>	0
<0xE8>	0
<0xE9>	0
<0xEA>	0
<0xEB>	0
<0xEC>	0
<0xED>	0
<0xEE>	0
<0xEF>	0
<0xF0>	0
<0xF1>	0
<0xF2>	0
<0xF3>	0
<0xF4>	0
<0xF5>	0
<0xF6>	0
<0xF7>	0
<0xF8>	0
<0xF9>	0
<0xFA>	0
<0xFB>	0
<0xFC>	0
<0xFD>	0
<0xFE>	0
<0xFF>	0
!!	0
!!!	0
!'	0
!(	0
!)	0
!--	0
!=	0
![	0
!\	0
!”	0
#	0
##	0
####	0
########	0
er	-0
en	-1
an	-2
▁s	-3
ar	-4
in	-5
▁.	-6
▁,	-7
▁o	-8
▁f	-9
▁t	-10
et	-11
or	-12
st	-13
▁d	-14
▁a	-15
▁i	-16
on	-17
ed	-18
▁h	-19
il	-20
▁m	-21
el	-22
▁b	-23
om	-24
▁1	-25
▁p	-26
al	-27
▁v	-28
es	-29
▁S	-30
▁og	-31
and	-32
sk	-33
at	-34
▁k	-35
re	-36
le	-37
ing	-38
▁2	-39
▁H	-40
am	-41
it	-42
un	-43
▁19	-44
ig	-45
ol	-46
he	-47
▁D	-48
▁20	-49
de	-50
ik	-51
▁A	-52
ch	-53
▁B	-54
▁g	-55
▁som	-56
▁M	-57
▁n	-58
is	-59
ra	-60
▁in	-61
▁til	-62
▁av	-63
▁l	-64
▁T	-65
as	-66
ter	-67
▁en	-68
id	-69
te	-70
▁for	-71
▁the	-72
▁F	-73
▁med	-74
ro	-75
▁I	-76
▁på	-77
▁var	-78
▁e	-79
▁N	-80
▁er	-81
ag	-82
▁st	-83
▁C	-84
▁P	-85
▁K	-86
▁L	-87
ist	-88
▁E	-89
us	-90
ver	-91
▁G	-92
▁and	-93
▁w	-94
ad	-95
▁den	-96
ut	-97
▁R	-98
ion	-99
der	-100
pp	-101
▁och	-102
ur	-103
ic	-104
ent	-105
em	-106
ør	-107
år	-108
est	-109
▁J	-110
▁of	-111
ot	-112
▁r	-113
ler	-114
▁han	-115
ul	-116
▁c	-117
▁de	-118
▁V	-119
av	-120
isk	-121
iv	-122
ne	-123
är	-124
ör	-125
▁sk	-126
▁har	-127
ber	-128
▁O	-129
ir	-130
▁at	-131
▁201	-132
▁ble	-133
ge	-134
▁fr	-135
▁af	-136
▁200	-137
ud	-138
▁re	-139
▁to	-140
eg	-141
▁W	-142
se	-143
kt	-144
▁j	-145
mer	-146
ning	-147
ru	-148
▁Han	-149
sen	-150
▁det	-151
land	-152
ck	-153
ia	-154
ste	-155
▁St	-156
art	-157
ann	-158
la	-159
▁et	-160
are	-161
ri	-162
og	-163
ød	-164
ens	-165
ord	-166
kk	-167
▁U	-168
ger	-169
ilm	-170
rin	-171
▁199	-172
od	-173
um	-174
lig	-175
▁sam	-176
ær	-177
▁al	-178
▁sp	-179
▁ut	-180
ade	-181
ov	-182
ng	-183
▁år	-184
ark	-185
▁om	-186
ak	-187
ere	-188
all	-189
ansk	-190
▁202	-191
ill	-192
ie	-193
▁för	-194
ong	-195
nd	-196
im	-197
if	-198
ien	-199
na	-200
ron	-201
▁sin	-202
und	-203
ard	-204
ell	-205
ok	-206
▁till	-207
▁an	-208
▁un	-209
ust	-210
ap	-211
enn	-212
os	-213
▁pro	-214
▁198	-215
tt	-216
▁kom	-217
▁blev	-218
ene	-219
ess	-220
rins	-221
▁by	-222
▁film	-223
▁el	-224
▁Ch	-225
▁se	-226
▁å	-227
son	-228
ort	-229
gr	-230
▁der	-231
▁197	-232
ven	-233
itt	-234
ab	-235
▁The	-236
ug	-237
▁ein	-238
ert	-239
je	-240
▁fra	-241
▁Fr	-242
ly	-243
▁är	-244
ct	-245
ett	-246
▁fød	-247
ation	-248
op	-249
ian	-250
▁3	-251
jon	-252
ant	-253
ang	-254
ede	-255
fter	-256
sp	-257
end	-258
ow	-259
ld	-260
▁frå	-261
org	-262
▁is	-263
▁was	-264
▁kon	-265
yr	-266
▁18	-267
▁Mar	-268
ikk	-269
ige	-270
att	-271
ce	-272
▁tid	-273
▁bl	-274
▁del	-275
▁Dan	-276
▁før	-277
iske	-278
▁as	-279
00	-280
rit	-281
orsk	-282
▁under	-283
amm	-284
▁196	-285
▁Det	-286
så	-287
oll	-288
eder	-289
▁over	-290
for	-291
rik	-292
▁Den	-293
▁on	-294
sl	-295
▁født	-296
▁ved	-297
old	-298
esp	-299
ke	-300
ater	-301
ember	-302
ks	-303
ars	-304
pr	-305
▁men	-306
ende	-307
▁opp	-308
ry	-309
mark	-310
▁ver	-311
ub	-312
uar	-313
ay	-314
ast	-315
▁be	-316
öd	-317
▁sl	-318
leg	-319
rist	-320
▁ar	-321
▁gr	-322
▁eller	-323
ass	-324
ith	-325
▁De	-326
▁land	-327
rå	-328
▁Jo	-329
▁ser	-330
ve	-331
th	-332
jer	-333
net	-334
▁att	-335
eb	-336
ob	-337
▁mus	-338
▁inn	-339
anuar	-340
up	-341
raf	-342
▁Nor	-343
øn	-344
▁Al	-345
del	-346
ire	-347
ip	-348
▁In	-349
▁th	-350
ans	-351
▁Danmark	-352
ner	-353
▁An	-354
ling	-355
ane	-356
▁Un	-357
øl	-358
arl	-359
orn	-360
▁wh	-361
rig	-362
▁norsk	-363
än	-364
øy	-365
ster	-366
▁with	-367
▁He	-368
▁5	-369
▁te	-370
ier	-371
▁4	-372
▁også	-373
▁dansk	-374
▁his	-375
yl	-376
▁194	-377
▁per	-378
ande	-379
▁195	-380
ock	-381
▁stor	-382
▁y	-383
lem	-384
olk	-385
▁he	-386
▁vart	-387
ets	-388
du	-389
ats	-390
▁prins	-391
men	-392
▁pr	-393
▁Sk	-394
▁reg	-395
ele	-396
yn	-397
▁u	-398
▁Y	-399
▁januar	-400
ske	-401
ive	-402
▁hun	-403
▁kj	-404
sh	-405
▁hv	-406
io	-407
▁efter	-408
ale	-409
mun	-410
▁Sver	-411
ten	-412
be	-413
▁op	-414
sta	-415
▁gj	-416
▁man	-417
ies	-418
ald	-419
arn	-420
kke	-421
amil	-422
▁etter	-423
▁ny	-424
igh	-425
ser	-426
▁ud	-427
min	-428
esse	-429
ind	-430
▁her	-431
vis	-432
iver	-433
▁dei	-434
▁første	-435
ich	-436
gen	-437
af	-438
▁sig	-439
skap	-440
iller	-441
rad	-442
▁Hun	-443
by	-444
ts	-445
▁2023	-446
▁;	-447
▁eit	-448
▁sj	-449
rem	-450
▁mot	-451
ift	-452
▁8	-453
▁föd	-454
▁seg	-455
ograf	-456
▁kun	-457
our	-458
▁had	-459
▁kan	-460
▁le	-461
▁så	-462
me	-463
äl	-464
hav	-465
borg	-466
ring	-467
ost	-468
alen	-469
alt	-470
▁må	-471
istor	-472
of	-473
var	-474
red	-475
ister	-476
ick	-477
▁verd	-478
her	-479
ine	-480
▁sid	-481
▁ä	-482
rop	-483
▁ind	-484
▁född	-485
▁Ar	-486
▁sy	-487
▁or	-488
bum	-489
▁Christ	-490
▁kl	-491
▁sven	-492
ss	-493
▁tre	-494
▁ann	-495
▁best	-496
▁6	-497
tem	-498
unn	-499
▁dag	-500
ta	-501
ker	-502
▁TV	-503
man	-504
eld	-505
▁hav	-506
ober	-507
▁beg	-508
▁hans	-509
eter	-510
ward	-511
▁Joh	-512
▁193	-513
ond	-514
vin	-515
ew	-516
▁9	-517
▁ma	-518
elt	-519
▁15	-520
asjon	-521
▁hon	-522
ysk	-523
▁17	-524
oun	-525
ue	-526
▁Ber	-527
amp	-528
rupp	-529
▁7	-530
▁pl	-531
ild	-532
hol	-533
ide	-534
opp	-535
arri	-536
▁tal	-537
ear	-538
▁Le	-539
▁nord	-540
▁Sverige	-541
▁vid	-542
ate	-543
olit	-544
▁fin	-545
▁mest	-546
▁El	-547
▁andre	-548
▁com	-549
ish	-550
berg	-551
iker	-552
▁Gr	-553
▁Har	-554
▁svensk	-555
ial	-556
ack	-557
iser	-558
▁hvor	-559
▁upp	-560
▁från	-561
ame	-562
ades	-563
▁br	-564
ns	-565
ille	-566
▁sen	-567
aren	-568
▁fler	-569
ina	-570
ografi	-571
▁Sp	-572
anger	-573
▁Amer	-574
▁from	-575
iet	-576
lay	-577
▁Th	-578
▁hadde	-579
ronning	-580
lag	-581
rev	-582
tal	-583
▁Re	-584
else	-585
▁16	-586
ott	-587
▁Stor	-588
▁kommun	-589
▁ro	-590
cc	-591
ma	-592
ebru	-593
ebruar	-594
ach	-595
ers	-596
▁For	-597
ult	-598
▁ett	-599
oc	-600
▁samt	-601
▁bru	-602
ou	-603
▁jul	-604
▁su	-605
els	-606
▁10	-607
▁tv	-608
åd	-609
age	-610
▁da	-611
ket	-612
▁14	-613
pril	-614
▁gen	-615
▁born	-616
▁Norge	-617
▁konge	-618
ican	-619
▁mell	-620
lige	-621
ga	-622
ingen	-623
ret	-624
▁art	-625
▁vær	-626
▁progr	-627
▁Sch	-628
▁Nord	-629
▁produ	-630
▁ei	-631
sten	-632
urop	-633
gt	-634
▁off	-635
▁Å	-636
▁con	-637
▁Prins	-638
atter	-639
▁Award	-640
▁dr	-641
▁Freder	-642
iz	-643
esk	-644
▁Christian	-645
▁album	-646
uni	-647
änd	-648
ah	-649
pl	-650
holm	-651
▁kong	-652
øb	-653
ity	-654
tern	-655
ore	-656
dag	-657
▁deb	-658
ings	-659
▁spel	-660
▁hov	-661
▁famil	-662
▁192	-663
▁lag	-664
jen	-665
▁bet	-666
yd	-667
▁nam	-668
▁juni	-669
ike	-670
▁Te	-671
▁tr	-672
anske	-673
▁fram	-674
▁gift	-675
▁då	-676
▁Frederik	-677
ivers	-678
ka	-679
stad	-680
▁American	-681
gel	-682
iss	-683
nes	-684
▁New	-685
▁ö	-686
▁Bi	-687
iska	-688
ester	-689
omin	-690
▁Ø	-691
råd	-692
▁fyl	-693
ugust	-694
les	-695
ull	-696
ære	-697
▁act	-698
▁lig	-699
ork	-700
▁13	-701
▁Se	-702
elle	-703
▁Som	-704
▁Ol	-705
uesp	-706
▁ch	-707
ikt	-708
ennes	-709
espel	-710
▁april	-711
▁fly	-712
▁amer	-713
▁februar	-714
▁sing	-715
▁sammen	-716
med	-717
▁tron	-718
▁amerik	-719
▁polit	-720
kl	-721
▁far	-722
▁stør	-723
▁Stock	-724
cer	-725
för	-726
▁lå	-727
▁barn	-728
▁En	-729
▁US	-730
ated	-731
▁død	-732
gg	-733
ise	-734
cember	-735
ovember	-736
ile	-737
ptem	-738
▁folk	-739
ptember	-740
▁Stockholm	-741
▁Ho	-742
uespiller	-743
ja	-744
hus	-745
▁11	-746
ict	-747
mar	-748
▁Film	-749
ank	-750
tter	-751
ib	-752
tr	-753
000	-754
ole	-755
uss	-756
elsen	-757
illion	-758
sc	-759
ål	-760
▁ø	-761
otb	-762
▁2018	-763
olle	-764
▁medlem	-765
au	-766
▁där	-767
ac	-768
▁Be	-769
▁Ge	-770
prins	-771
orld	-772
▁søn	-773
fer	-774
før	-775
▁Osl	-776
urg	-777
▁ad	-778
irst	-779
▁Eng	-780
bo	-781
qu	-782
led	-783
▁ex	-784
▁Hon	-785
▁kron	-786
▁Biografi	-787
cl	-788
mp	-789
str	-790
itet	-791
kon	-792
▁pop	-793
▁2022	-794
▁mellom	-795
eng	-796
▁2017	-797
▁dronning	-798
over	-799
▁bland	-800
▁des	-801
▁Sh	-802
▁band	-803
ningen	-804
▁191	-805
ollen	-806
▁danske	-807
▁X	-808
▁Hans	-809
ritann	-810
elv	-811
▁2008	-812
▁Gust	-813
wo	-814
▁12	-815
▁km	-816
▁blir	-817
▁II	-818
otter	-819
føl	-820
ton	-821
ph	-822
▁musik	-823
▁Z	-824
▁fe	-825
▁2020	-826
▁även	-827
▁Storb	-828
▁skuespiller	-829
▁talet	-830
▁Storbritann	-831
vik	-832
▁Pr	-833
▁2007	-834
▁Oslo	-835
▁delt	-836
▁Ad	-837
▁2019	-838
akt	-839
▁has	-840
▁sitt	-841
ubl	-842
▁Her	-843
▁son	-844
alist	-845
olog	-846
▁ikke	-847
▁play	-848
minister	-849
edan	-850
▁Hol	-851
▁Br	-852
abet	-853
beid	-854
▁2005	-855
▁juli	-856
ime	-857
▁Ro	-858
▁sc	-859
▁tit	-860
▁2004	-861
ix	-862
ite	-863
åde	-864
▁min	-865
▁vil	-866
ugh	-867
▁first	-868
▁siden	-869
øm	-870
kom	-871
▁ra	-872
▁Ale	-873
▁end	-874
val	-875
▁2009	-876
▁2011	-877
ool	-878
▁okt	-879
▁histor	-880
own	-881
▁Carl	-882
▁program	-883
ys	-884
▁kn	-885
▁2021	-886
▁Kong	-887
ath	-888
▁ha	-889
arna	-890
orde	-891
▁fle	-892
▁september	-893
get	-894
ska	-895
▁all	-896
enter	-897
▁2014	-898
▁Europ	-899
▁stats	-900
pt	-901
▁Ind	-902
▁USA	-903
otball	-904
ally	-905
▁gre	-906
▁John	-907
▁stud	-908
dom	-909
ount	-910
▁start	-911
arriere	-912
▁oktober	-913
fatt	-914
▁fem	-915
ff	-916
ral	-917
▁And	-918
atur	-919
▁liv	-920
▁nav	-921
▁norske	-922
rat	-923
▁Gl	-924
▁It	-925
elig	-926
vent	-927
▁form	-928
▁2012	-929
▁million	-930
▁amerikansk	-931
▁november	-932
az	-933
øg	-934
ition	-935
▁2010	-936
▁mon	-937
▁2006	-938
gar	-939
iste	-940
▁2015	-941
per	-942
▁Ed	-943
sson	-944
▁2013	-945
ådespel	-946
▁På	-947
ment	-948
ennom	-949
▁2000	-950
▁2016	-951
▁Alex	-952
hold	-953
▁flere	-954
tte	-955
▁30	-956
ken	-957
▁ho	-958
▁000	-959
ongen	-960
▁Bl	-961
▁Is	-962
▁190	-963
este	-964
▁tidlig	-965
▁sol	-966
▁dire	-967
▁engel	-968
▁which	-969
br	-970
ätt	-971
▁24	-972
øben	-973
▁hoved	-974
▁series	-975
▁største	-976
▁bas	-977
▁stad	-978
øbenhav	-979
so	-980
va	-981
vel	-982
burg	-983
ice	-984
ited	-985
▁Krist	-986
▁sh	-987
▁1990	-988
▁både	-989
yskland	-990
my	-991
▁Tr	-992
ical	-993
▁led	-994
▁Ma	-995
▁mor	-996
▁mange	-997
▁person	-998
aw	-999
ced	-1000
inga	-1001
▁Noreg	-1002
ama	-1003
▁Sl	-1004
▁Univers	-1005
▁Københav	-1006
kkje	-1007
▁Ste	-1008
ft	-1009
nad	-1010
▁incl	-1011
▁nomin	-1012
▁första	-1013
sam	-1014
oder	-1015
▁maj	-1016
eleas	-1017
▁that	-1018
▁skådespel	-1019
bet	-1020
▁august	-1021
▁senere	-1022
fess	-1023
▁sine	-1024
▁debut	-1025
aget	-1026
▁mil	-1027
sm	-1028
▁Ing	-1029
▁kvin	-1030
▁part	-1031
▁ber	-1032
▁she	-1033
▁blei	-1034
▁releas	-1035
alv	-1036
▁Ny	-1037
alla	-1038
▁mod	-1039
out	-1040
ette	-1041
▁1980	-1042
▁popul	-1043
ational	-1044
ilt	-1045
ika	-1046
ørn	-1047
ange	-1048
verk	-1049
▁frem	-1050
▁sør	-1051
▁also	-1052
▁Alexand	-1053
▁num	-1054
▁one	-1055
▁rom	-1056
olf	-1057
riv	-1058
▁21	-1059
pe	-1060
▁Q	-1061
anc	-1062
den	-1063
▁Pro	-1064
▁havde	-1065
▁gjennom	-1066
vær	-1067
▁hj	-1068
▁År	-1069
uder	-1070
uter	-1071
▁Mon	-1072
▁rol	-1073
▁fire	-1074
▁Under	-1075
äm	-1076
het	-1077
▁ty	-1078
▁Tyskland	-1079
ain	-1080
▁hand	-1081
len	-1082
ley	-1083
itar	-1084
liga	-1085
▁Mus	-1086
▁are	-1087
▁utg	-1088
▁who	-1089
▁bruk	-1090
▁grupp	-1091
▁VM	-1092
▁Med	-1093
▁She	-1094
▁vok	-1095
▁2024	-1096
▁fødd	-1097
▁lang	-1098
▁serien	-1099
▁få	-1100
▁alle	-1101
▁tidligere	-1102
fl	-1103
igt	-1104
inn	-1105
pro	-1106
ure	-1107
▁Kn	-1108
▁rec	-1109
rid	-1110
▁död	-1111
▁rad	-1112
▁kronprins	-1113
▁0	-1114
▁val	-1115
▁skrev	-1116
▁filmen	-1117
▁intern	-1118
kst	-1119
ølv	-1120
ammet	-1121
▁2002	-1122
kn	-1123
ipp	-1124
stru	-1125
ulle	-1126
▁Hen	-1127
▁2001	-1128
bl	-1129
isen	-1130
▁song	-1131
▁över	-1132
▁Histor	-1133
▁nor	-1134
▁Aust	-1135
▁hert	-1136
▁ikkje	-1137
ola	-1138
▁25	-1139
arly	-1140
esid	-1141
ions	-1142
▁rev	-1143
▁store	-1144
▁22	-1145
▁reger	-1146
▁1995	-1147
▁1999	-1148
▁Erik	-1149
▁Will	-1150
▁mars	-1151
▁Efter	-1152
▁includ	-1153
ors	-1154
uld	-1155
▁Ph	-1156
arar	-1157
rike	-1158
▁Gre	-1159
▁Jul	-1160
▁Fred	-1161
▁Sc	-1162
ager	-1163
band	-1164
endt	-1165
▁hade	-1166
▁teater	-1167
▁december	-1168
▁fo	-1169
▁sm	-1170
rott	-1171
elige	-1172
▁1997	-1173
▁brit	-1174
▁vann	-1175
film	-1176
jord	-1177
▁fik	-1178
▁fyr	-1179
ha	-1180
ons	-1181
par	-1182
tid	-1183
▁Am	-1184
form	-1185
areer	-1186
ilmer	-1187
ultur	-1188
▁fikk	-1189
ete	-1190
råk	-1191
örj	-1192
▁Wal	-1193
▁hel	-1194
▁vär	-1195
▁prinsesse	-1196
ym	-1197
öl	-1198
ham	-1199
ife	-1200
▁Or	-1201
▁gå	-1202
ight	-1203
ligt	-1204
▁stat	-1205
▁Ander	-1206
▁landet	-1207
▁verdens	-1208
als	-1209
▁sø	-1210
rett	-1211
▁1998	-1212
▁vest	-1213
rag	-1214
ras	-1215
elen	-1216
▁1982	-1217
▁slut	-1218
arts	-1219
we	-1220
▁26	-1221
▁Me	-1222
▁my	-1223
▁Lond	-1224
▁tysk	-1225
▁vært	-1226
òg	-1227
▁òg	-1228
▁Charl	-1229
▁andra	-1230
▁London	-1231
▁kommune	-1232
agn	-1233
ren	-1234
urn	-1235
▁no	-1236
ther	-1237
orges	-1238
æl	-1239
one	-1240
▁me	-1241
▁Ser	-1242
▁two	-1243
▁fick	-1244
vision	-1245
▁æ	-1246
ree	-1247
lege	-1248
▁Kon	-1249
▁tok	-1250
▁flytt	-1251
▁kjent	-1252
▁København	-1253
▁Bo	-1254
legg	-1255
▁Der	-1256
stein	-1257
▁sedan	-1258
yrk	-1259
▁Sam	-1260
▁ans	-1261
etter	-1262
▁1996	-1263
▁selv	-1264
jø	-1265
ung	-1266
äst	-1267
▁31	-1268
▁hø	-1269
ader	-1270
stem	-1271
▁skal	-1272
▁United	-1273
▁gjorde	-1274
lin	-1275
▁am	-1276
bert	-1277
samm	-1278
▁bar	-1279
▁bec	-1280
▁ned	-1281
allet	-1282
endes	-1283
▁2003	-1284
its	-1285
▁Bro	-1286
▁1970	-1287
▁1994	-1288
▁Vest	-1289
▁vert	-1290
fatter	-1291
▁Europa	-1292
▁Gustaf	-1293
▁profess	-1294
uv	-1295
ris	-1296
sel	-1297
▁23	-1298
▁Ha	-1299
▁län	-1300
▁börj	-1301
▁musikk	-1302
let	-1303
▁vin	-1304
▁kung	-1305
▁ofte	-1306
▁dette	-1307
alender	-1308
ake	-1309
dann	-1310
▁nok	-1311
▁vis	-1312
▁yng	-1313
▁1991	-1314
▁succ	-1315
▁grunn	-1316
lar	-1317
met	-1318
äng	-1319
ård	-1320
erne	-1321
▁värld	-1322
iar	-1323
ins	-1324
▁As	-1325
ingar	-1326
ollow	-1327
▁1973	-1328
▁Harry	-1329
▁denne	-1330
äx	-1331
atte	-1332
ather	-1333
▁Land	-1334
▁Mich	-1335
▁kort	-1336
▁known	-1337
▁Norges	-1338
▁januari	-1339
ash	-1340
iam	-1341
use	-1342
▁Em	-1343
▁nu	-1344
iden	-1345
▁tred	-1346
▁Andre	-1347
▁genom	-1348
▁hennes	-1349
▁skulle	-1350
uk	-1351
åg	-1352
▁VI	-1353
akgr	-1354
▁mid	-1355
ionen	-1356
▁Margr	-1357
rum	-1358
▁Bj	-1359
folk	-1360
▁Lou	-1361
▁app	-1362
▁blant	-1363
öm	-1364
ekt	-1365
øde	-1366
▁28	-1367
ilde	-1368
ourn	-1369
stit	-1370
▁Val	-1371
▁sit	-1372
▁rece	-1373
▁Teater	-1374
rest	-1375
undt	-1376
▁Bar	-1377
▁Par	-1378
▁count	-1379
▁kalla	-1380
▁skådespelare	-1381
ved	-1382
nings	-1383
▁have	-1384
▁prem	-1385
▁Peter	-1386
▁career	-1387
▁co	-1388
▁Osc	-1389
▁gam	-1390
▁York	-1391
▁nytt	-1392
▁annat	-1393
▁fylke	-1394
▁world	-1395
sammans	-1396
lands	-1397
uring	-1398
▁aust	-1399
▁kv	-1400
▁Stat	-1401
RK	-1402
▁Ö	-1403
byg	-1404
nen	-1405
oss	-1406
uvud	-1407
abeth	-1408
▁star	-1409
ations	-1410
▁Frank	-1411
▁Rober	-1412
▁monark	-1413
irk	-1414
▁ol	-1415
▁int	-1416
▁1972	-1417
▁repr	-1418
▁year	-1419
▁Wh	-1420
ague	-1421
ived	-1422
ship	-1423
▁1993	-1424
▁spill	-1425
iod	-1426
ubb	-1427
edia	-1428
▁NRK	-1429
▁Wik	-1430
▁bok	-1431
▁Marie	-1432
▁including	-1433
▁it	-1434
▁Per	-1435
▁Sør	-1436
▁Gold	-1437
▁rock	-1438
äv	-1439
ium	-1440
ius	-1441
pen	-1442
▁du	-1443
oria	-1444
▁100	-1445
▁Dei	-1446
▁1992	-1447
▁trad	-1448
▁grens	-1449
▁arbeid	-1450
da	-1451
▁29	-1452
mann	-1453
▁1989	-1454
▁most	-1455
▁Etter	-1456
▁Januar	-1457
iga	-1458
▁øy	-1459
agen	-1460
spel	-1461
▁går	-1462
▁van	-1463
▁time	-1464
▁gener	-1465
▁Awards	-1466
iel	-1467
kte	-1468
ator	-1469
▁fast	-1470
▁halv	-1471
▁after	-1472
▁films	-1473
elevision	-1474
▁desember	-1475
▁Storbritannia	-1476
äs	-1477
▁inv	-1478
essan	-1479
isjon	-1480
rådet	-1481
▁music	-1482
▁været	-1483
▁direct	-1484
▁tredje	-1485
ba	-1486
▁Rom	-1487
▁gje	-1488
▁par	-1489
ennem	-1490
▁utan	-1491
ninger	-1492
til	-1493
utt	-1494
▁sanger	-1495
▁released	-1496
gå	-1497
ala	-1498
mon	-1499
som	-1500
ethe	-1501
ensen	-1502
▁beste	-1503
▁grund	-1504
▁slott	-1505
▁rollen	-1506
▁received	-1507
ese	-1508
gan	-1509
ason	-1510
sted	-1511
▁Dav	-1512
inger	-1513
▁Brit	-1514
alm	-1515
hed	-1516
års	-1517
▁fl	-1518
▁ul	-1519
iges	-1520
▁Don	-1521
ampion	-1522
ournalist	-1523
ec	-1524
bej	-1525
det	-1526
ida	-1527
▁Af	-1528
▁ab	-1529
▁gu	-1530
eret	-1531
publ	-1532
▁gro	-1533
▁mer	-1534
grupp	-1535
▁sang	-1536
ningar	-1537
▁World	-1538
▁datter	-1539
▁fleire	-1540
▁studer	-1541
▁engelsk	-1542
ommun	-1543
▁Vict	-1544
▁mens	-1545
▁Dette	-1546
▁saman	-1547
▁England	-1548
ears	-1549
stat	-1550
▁Wil	-1551
▁sær	-1552
▁moder	-1553
øre	-1554
▁Da	-1555
▁Dr	-1556
▁ur	-1557
unkt	-1558
▁ses	-1559
rigin	-1560
▁krig	-1561
▁ligg	-1562
skapet	-1563
▁January	-1564
gte	-1565
▁Lu	-1566
olen	-1567
▁Jap	-1568
▁Man	-1569
▁Phil	-1570
▁offic	-1571
▁samme	-1572
▁their	-1573
samling	-1574
▁tillsammans	-1575
▁Pa	-1576
jell	-1577
▁Car	-1578
▁bro	-1579
▁två	-1580
river	-1581
skrig	-1582
▁1960	-1583
▁comp	-1584
▁artik	-1585
▁forsk	-1586
▁først	-1587
rog	-1588
▁27	-1589
▁bo	-1590
irke	-1591
▁Ein	-1592
▁års	-1593
▁same	-1594
▁kendt	-1595
▁Sveriges	-1596
ev	-1597
set	-1598
ynd	-1599
▁Ir	-1600
▁All	-1601
▁1987	-1602
▁gang	-1603
▁life	-1604
▁tilb	-1605
▁follow	-1606
▁namnet	-1607
▁Margrethe	-1608
sy	-1609
ned	-1610
▁Fl	-1611
▁Con	-1612
▁bror	-1613
▁mark	-1614
▁Georg	-1615
▁dotter	-1616
▁tidleg	-1617
bol	-1618
▁Fra	-1619
▁His	-1620
▁ock	-1621
▁ung	-1622
▁1981	-1623
▁1984	-1624
▁King	-1625
▁känd	-1626
▁være	-1627
esident	-1628
én	-1629
▁At	-1630
▁Gö	-1631
▁Mo	-1632
▁hen	-1633
havet	-1634
▁komp	-1635
▁were	-1636
▁begyn	-1637
▁huvud	-1638
▁ligger	-1639
far	-1640
alif	-1641
cent	-1642
ress	-1643
▁May	-1644
▁hus	-1645
▁fekk	-1646
▁Johan	-1647
▁nummer	-1648
▁period	-1649
▁tallet	-1650
lø	-1651
ney	-1652
vig	-1653
gere	-1654
illa	-1655
inde	-1656
kken	-1657
lagt	-1658
▁dem	-1659
▁eld	-1660
▁Karl	-1661
▁Japan	-1662
▁Oscar	-1663
▁drama	-1664
app	-1665
res	-1666
usk	-1667
cade	-1668
uper	-1669
▁eks	-1670
▁res	-1671
▁1964	-1672
▁forb	-1673
▁mind	-1674
▁Adolf	-1675
▁kultur	-1676
▁verden	-1677
▁Danmarks	-1678
▁December	-1679
▁Dronning	-1680
▁profession	-1681
ön	-1682
▁189	-1683
▁acc	-1684
▁Bakgr	-1685
▁tillegg	-1686
▁television	-1687
ael	-1688
dal	-1689
reg	-1690
▁My	-1691
gang	-1692
▁nær	-1693
▁ret	-1694
▁Fo	-1695
▁Com	-1696
▁Hel	-1697
▁Kar	-1698
▁dom	-1699
▁gav	-1700
▁rik	-1701
▁Eliz	-1702
▁Folk	-1703
▁vikt	-1704
▁began	-1705
▁rundt	-1706
▁League	-1707
▁Robert	-1708
▁kalender	-1709
▁journalist	-1710
ena	-1711
ica	-1712
mus	-1713
rav	-1714
▁ly	-1715
ames	-1716
▁sec	-1717
▁1985	-1718
▁Sven	-1719
▁sidan	-1720
▁artist	-1721
▁filmer	-1722
▁hertug	-1723
▁origin	-1724
▁debuter	-1725
▁Prinsesse	-1726
edy	-1727
lov	-1728
ført	-1729
ider	-1730
vars	-1731
▁1977	-1732
▁fors	-1733
▁sent	-1734
▁vant	-1735
▁years	-1736
oth	-1737
▁Ab	-1738
ella	-1739
igur	-1740
▁dis	-1741
▁mål	-1742
ksjon	-1743
▁dann	-1744
▁navn	-1745
landet	-1746
▁också	-1747
▁föddes	-1748
▁country	-1749
▁University	-1750
ous	-1751
ious	-1752
▁byg	-1753
▁god	-1754
▁hos	-1755
elser	-1756
kring	-1757
ocial	-1758
▁kont	-1759
▁namn	-1760
▁året	-1761
▁inter	-1762
▁fyrste	-1763
nas	-1764
▁By	-1765
▁Cl	-1766
asse	-1767
chen	-1768
stre	-1769
ament	-1770
▁1968	-1771
▁1986	-1772
minist	-1773
▁gennem	-1774
▁britiske	-1775
▁Liv	-1776
▁Tid	-1777
▁føl	-1778
▁mat	-1779
▁1947	-1780
▁1979	-1781
▁fjer	-1782
▁gamm	-1783
▁hver	-1784
ollege	-1785
▁organ	-1786
▁Michael	-1787
▁medverk	-1788
▁50	-1789
▁eg	-1790
▁but	-1791
▁ter	-1792
arane	-1793
▁kall	-1794
▁publ	-1795
▁event	-1796
▁August	-1797
▁Ingrid	-1798
▁producer	-1799
sn	-1800
rar	-1801
▁OL	-1802
iken	-1803
part	-1804
raft	-1805
rakt	-1806
▁när	-1807
▁1976	-1808
▁Russ	-1809
▁kunne	-1810
▁serie	-1811
▁tronen	-1812
▁Elizabeth	-1813
▁up	-1814
▁akt	-1815
▁bed	-1816
▁sch	-1817
ative	-1818
ikken	-1819
inget	-1820
▁1967	-1821
▁1975	-1822
▁1988	-1823
▁annet	-1824
▁statsminister	-1825
andt	-1826
▁tur	-1827
▁udg	-1828
ammer	-1829
▁Band	-1830
▁three	-1831
▁record	-1832
▁William	-1833
▁success	-1834
▁Victoria	-1835
ey	-1836
emp	-1837
hef	-1838
yra	-1839
▁Ly	-1840
▁po	-1841
erte	-1842
▁Jon	-1843
▁Opp	-1844
▁mai	-1845
▁Year	-1846
▁gull	-1847
▁port	-1848
talien	-1849
▁Early	-1850
▁ulike	-1851
▁Filmen	-1852
▁Gustav	-1853
▁Margar	-1854
▁senare	-1855
▁Fredrik	-1856
▁univers	-1857
▁football	-1858
ove	-1859
▁Sal	-1860
▁Vin	-1861
▁won	-1862
ement	-1863
skole	-1864
▁Bill	-1865
▁lead	-1866
▁show	-1867
arriär	-1868
ipedia	-1869
▁Acade	-1870
▁blitt	-1871
▁appear	-1872
▁kommer	-1873
▁musiker	-1874
▁Historie	-1875
fe	-1876
▁Co	-1877
▁Gu	-1878
▁di	-1879
▁ve	-1880
vest	-1881
▁ant	-1882
▁bes	-1883
▁lit	-1884
▁låt	-1885
▁äld	-1886
konom	-1887
▁1945	-1888
▁inte	-1889
▁deres	-1890
▁består	-1891
▁member	-1892
▁Academy	-1893
bro	-1894
fin	-1895
ful	-1896
aker	-1897
iana	-1898
lish	-1899
omas	-1900
orth	-1901
vard	-1902
ästa	-1903
▁Tor	-1904
▁Best	-1905
▁David	-1906
▁flera	-1907
▁premi	-1908
▁Golden	-1909
ederland	-1910
▁Austral	-1911
ån	-1912
ahl	-1913
rib	-1914
ölj	-1915
▁Ne	-1916
▁Ut	-1917
▁Mid	-1918
▁ham	-1919
▁its	-1920
▁red	-1921
assen	-1922
oller	-1923
▁dist	-1924
▁British	-1925
▁började	-1926
▁spelade	-1927
▁Kristian	-1928
des	-1929
ori	-1930
▁Eg	-1931
▁Ni	-1932
▁cl	-1933
fold	-1934
▁Ole	-1935
▁enn	-1936
▁rek	-1937
▁Hand	-1938
▁Jose	-1939
▁vore	-1940
mester	-1941
▁After	-1942
▁kjend	-1943
▁Margaret	-1944
▁Storbritannien	-1945
obb	-1946
off	-1947
sje	-1948
▁im	-1949
erna	-1950
orge	-1951
slag	-1952
upen	-1953
▁Act	-1954
▁Bow	-1955
▁Fin	-1956
▁You	-1957
▁nye	-1958
▁syn	-1959
▁tog	-1960
▁tra	-1961
▁School	-1962
▁became	-1963
äd	-1964
▁sn	-1965
amat	-1966
ance	-1967
▁Que	-1968
▁Lars	-1969
▁jord	-1970
▁Harald	-1971
▁Potter	-1972
rottning	-1973
▁karriere	-1974
▁Frankrike	-1975
nt	-1976
ånd	-1977
▁us	-1978
ence	-1979
▁186	-1980
▁bor	-1981
▁ord	-1982
atten	-1983
essen	-1984
▁1969	-1985
▁Lund	-1986
▁inne	-1987
▁seks	-1988
▁hovud	-1989
▁ingen	-1990
▁församling	-1991
øj	-1992
ely	-1993
ics	-1994
▁Er	-1995
▁Ke	-1996
▁Ul	-1997
▁1971	-1998
▁Kron	-1999
▁byen	-2000
▁role	-2001
aliforn	-2002
▁Fa	-2003
▁sv	-2004
ktør	-2005
outh	-2006
▁187	-2007
▁Jan	-2008
▁Mel	-2009
▁kat	-2010
▁sel	-2011
▁styr	-2012
▁work	-2013
▁roles	-2014
▁navnet	-2015
▁repres	-2016
▁omkring	-2017
oms	-2018
ule	-2019
ytt	-2020
▁Om	-2021
aste	-2022
eren	-2023
▁188	-2024
▁För	-2025
▁Ver	-2026
▁kor	-2027
▁sett	-2028
illing	-2029
▁europ	-2030
▁forts	-2031
▁klass	-2032
▁plass	-2033
▁siste	-2034
▁språk	-2035
▁Charles	-2036
ampionship	-2037
nam	-2038
ury	-2039
älv	-2040
▁fö	-2041
bygg	-2042
iens	-2043
ital	-2044
året	-2045
▁Ang	-2046
estiv	-2047
▁1974	-2048
▁1983	-2049
▁arbet	-2050
▁meter	-2051
▁Albert	-2052
▁Louise	-2053
▁second	-2054
▁Wikipedia	-2055
▁millioner	-2056
▁Stockholms	-2057
ög	-2058
ome	-2059
une	-2060
▁No	-2061
▁Sj	-2062
▁id	-2063
atin	-2064
gram	-2065
hand	-2066
▁Lar	-2067
▁Mer	-2068
▁bli	-2069
▁Mary	-2070
▁gikk	-2071
▁during	-2072
▁folket	-2073
▁mindre	-2074
▁nasjon	-2075
▁regjer	-2076
▁Karriere	-2077
sf	-2078
kur	-2079
nga	-2080
äll	-2081
olan	-2082
▁Gar	-2083
▁sex	-2084
▁små	-2085
▁tro	-2086
gaard	-2087
▁Olav	-2088
▁Prin	-2089
rollen	-2090
▁milit	-2091
▁George	-2092
▁season	-2093
▁singer	-2094
sj	-2095
▁ta	-2096
lymp	-2097
otte	-2098
▁Ann	-2099
▁Ger	-2100
▁rel	-2101
▁Øst	-2102
huset	-2103
sborg	-2104
▁1946	-2105
▁four	-2106
▁medv	-2107
▁actor	-2108
▁mellan	-2109
▁programmet	-2110
di	-2111
kj	-2112
ood	-2113
▁Sm	-2114
▁bi	-2115
▁ek	-2116
ativ	-2117
ielt	-2118
ilte	-2119
tain	-2120
▁Can	-2121
▁Dis	-2122
▁VII	-2123
ction	-2124
▁cent	-2125
▁president	-2126
ban	-2127
ode	-2128
essa	-2129
heim	-2130
mand	-2131
ogra	-2132
▁Mad	-2133
▁Rad	-2134
▁War	-2135
▁him	-2136
▁hum	-2137
▁pla	-2138
ellem	-2139
ioner	-2140
jerne	-2141
▁Jack	-2142
▁Queen	-2143
▁skriv	-2144
▁yngre	-2145
▁Kommun	-2146
▁former	-2147
▁svenska	-2148
æv	-2149
elm	-2150
upp	-2151
▁La	-2152
kten	-2153
▁Før	-2154
▁Reg	-2155
▁Str	-2156
▁Ved	-2157
itten	-2158
▁1963	-2159
▁1978	-2160
▁Anne	-2161
▁Mart	-2162
▁team	-2163
entlig	-2164
▁Olsen	-2165
▁sjølv	-2166
▁father	-2167
BC	-2168
ada	-2169
sak	-2170
ænd	-2171
▁Pl	-2172
▁Sv	-2173
▁ca	-2174
▁em	-2175
råde	-2176
uden	-2177
usin	-2178
▁Nil	-2179
▁Pri	-2180
▁bil	-2181
▁met	-2182
▁øst	-2183
board	-2184
okrat	-2185
▁Rich	-2186
▁been	-2187
▁stör	-2188
▁Music	-2189
▁berre	-2190
▁kunst	-2191
▁tiden	-2192
grammet	-2193
▁Thomas	-2194
fore	-2195
sjon	-2196
stid	-2197
▁Bel	-2198
▁Upp	-2199
▁dat	-2200
atret	-2201
▁Pres	-2202
▁brukt	-2203
▁gamle	-2204
▁utvik	-2205
▁Anders	-2206
▁States	-2207
▁guitar	-2208
▁roller	-2209
▁familie	-2210
▁tidlegare	-2211
ara	-2212
bor	-2213
igg	-2214
▁40	-2215
▁Kl	-2216
▁la	-2217
back	-2218
sens	-2219
▁Tom	-2220
▁anv	-2221
▁sym	-2222
▁ten	-2223
ering	-2224
▁West	-2225
▁stem	-2226
▁Wales	-2227
▁arbej	-2228
▁Henrik	-2229
▁played	-2230
▁Bakgrunn	-2231
▁Alexandra	-2232
▁forfatter	-2233
öt	-2234
øp	-2235
▁!	-2236
ays	-2237
orp	-2238
▁ed	-2239
▁ge	-2240
▁ke	-2241
oved	-2242
ække	-2243
▁Ben	-2244
▁Mor	-2245
▁Sol	-2246
▁win	-2247
inare	-2248
isten	-2249
▁1950	-2250
▁Part	-2251
▁døde	-2252
▁revy	-2253
▁tilh	-2254
▁Norsk	-2255
▁medan	-2256
▁befolk	-2257
▁begynd	-2258
▁fransk	-2259
▁instru	-2260
▁musikal	-2261
▁student	-2262
▁internasjon	-2263
aft	-2264
bru	-2265
dem	-2266
dus	-2267
ony	-2268
▁Mc	-2269
ista	-2270
kker	-2271
nger	-2272
svar	-2273
▁Tel	-2274
▁held	-2275
▁kjem	-2276
ograph	-2277
▁samar	-2278
▁själv	-2279
▁ville	-2280
▁comedy	-2281
▁skrevet	-2282
agt	-2283
ios	-2284
▁Kr	-2285
▁kr	-2286
▁lu	-2287
ifte	-2288
▁Far	-2289
▁dog	-2290
▁någ	-2291
▁pre	-2292
▁run	-2293
▁väx	-2294
ielle	-2295
ologi	-2296
rough	-2297
▁Magn	-2298
▁back	-2299
▁cont	-2300
▁made	-2301
▁sted	-2302
▁åter	-2303
▁other	-2304
▁eneste	-2305
▁English	-2306
kel	-2307
▁ky	-2308
▁Cla	-2309
▁Col	-2310
▁får	-2311
▁före	-2312
▁oper	-2313
teborg	-2314
▁marts	-2315
▁bandet	-2316
▁administ	-2317
ek	-2318
omb	-2319
vid	-2320
▁ig	-2321
▁Sim	-2322
▁arr	-2323
gende	-2324
äster	-2325
ørgen	-2326
▁1952	-2327
▁Sand	-2328
▁Span	-2329
▁pass	-2330
jorden	-2331
▁aktiv	-2332
▁britt	-2333
▁stort	-2334
▁mennes	-2335
▁Californ	-2336
▁National	-2337
▁Nederland	-2338
ij	-2339
obe	-2340
▁sub	-2341
ansen	-2342
eland	-2343
ström	-2344
▁Malm	-2345
▁vide	-2346
ington	-2347
staden	-2348
▁Grupp	-2349
▁bästa	-2350
▁delen	-2351
▁årene	-2352
FL	-2353
åk	-2354
ird	-2355
▁Po	-2356
▁We	-2357
▁so	-2358
▁ti	-2359
delt	-2360
ivat	-2361
ivet	-2362
spro	-2363
▁kar	-2364
▁rep	-2365
▁sju	-2366
▁ski	-2367
dagen	-2368
stand	-2369
unnet	-2370
▁Park	-2371
▁Wien	-2372
▁norr	-2373
▁topp	-2374
▁innan	-2375
▁kvinn	-2376
▁later	-2377
▁family	-2378
▁innbyg	-2379
▁single	-2380
▁Alexander	-2381
▁drottning	-2382
ase	-2383
atr	-2384
ave	-2385
ern	-2386
ude	-2387
amen	-2388
bild	-2389
▁Sil	-2390
album	-2391
▁1940	-2392
▁1962	-2393
▁besk	-2394
▁nett	-2395
▁rett	-2396
▁Philip	-2397
▁before	-2398
▁hendes	-2399
▁regiss	-2400
▁school	-2401
▁ungdom	-2402
▁vilket	-2403
han	-2404
kta	-2405
ont	-2406
spr	-2407
▁gl	-2408
blad	-2409
▁Ven	-2410
▁Vid	-2411
abler	-2412
empel	-2413
følge	-2414
riter	-2415
▁Paul	-2416
▁Tron	-2417
▁erne	-2418
▁sina	-2419
▁slik	-2420
▁olika	-2421
▁rekke	-2422
▁Serien	-2423
▁Februar	-2424
▁Presley	-2425
▁italien	-2426
▁Göteborg	-2427
▁produced	-2428
iew	-2429
oen	-2430
rer	-2431
udd	-2432
▁Et	-2433
▁Je	-2434
▁bø	-2435
gers	-2436
orts	-2437
wood	-2438
▁Dag	-2439
▁Min	-2440
▁kol	-2441
famil	-2442
usjon	-2443
▁1936	-2444
▁Hall	-2445
▁High	-2446
▁Lind	-2447
▁Rock	-2448
▁fylk	-2449
▁roll	-2450
▁scen	-2451
▁titt	-2452
▁Maria	-2453
▁titel	-2454
▁where	-2455
▁February	-2456
▁directed	-2457
▁California	-2458
▁programled	-2459
alk	-2460
yal	-2461
æld	-2462
▁Kj	-2463
▁ep	-2464
atal	-2465
kket	-2466
olke	-2467
oman	-2468
▁184	-2469
▁Bru	-2470
▁Nam	-2471
▁Ski	-2472
▁Van	-2473
▁byr	-2474
▁pol	-2475
▁sal	-2476
▁sty	-2477
alder	-2478
ammen	-2479
▁Tour	-2480
▁børn	-2481
▁full	-2482
▁post	-2483
▁aller	-2484
▁dagen	-2485
▁gjekk	-2486
▁stars	-2487
▁Magnus	-2488
▁opphav	-2489
▁februari	-2490
VI	-2491
ces	-2492
ias	-2493
lev	-2494
ogn	-2495
▁Hj	-2496
▁So	-2497
amer	-2498
gård	-2499
irig	-2500
rika	-2501
▁lok	-2502
▁når	-2503
▁tru	-2504
sberg	-2505
under	-2506
▁kvar	-2507
ellige	-2508
▁betyd	-2509
▁radio	-2510
▁stand	-2511
▁tidig	-2512
▁kompon	-2513
▁spiller	-2514
▁prinsessan	-2515
ll	-2516
alf	-2517
itz	-2518
rim	-2519
▁ph	-2520
akon	-2521
gång	-2522
lund	-2523
oung	-2524
▁181	-2525
▁Jer	-2526
▁bir	-2527
▁eng	-2528
anter	-2529
ighet	-2530
▁inkl	-2531
▁like	-2532
▁name	-2533
lingen	-2534
▁Angel	-2535
▁Globe	-2536
▁March	-2537
▁natur	-2538
▁since	-2539
▁tyske	-2540
▁växte	-2541
▁while	-2542
▁number	-2543
▁perfor	-2544
▁spilte	-2545
▁perioden	-2546
▁tradition	-2547
äg	-2548
▁Ag	-2549
▁Bu	-2550
▁Bod	-2551
▁Gra	-2552
▁Oct	-2553
▁Ras	-2554
▁San	-2555
▁Son	-2556
▁alt	-2557
▁len	-2558
▁säs	-2559
▁Berg	-2560
▁Knut	-2561
▁arve	-2562
▁gjort	-2563
▁samma	-2564
▁Joseph	-2565
try	-2566
urt	-2567
æst	-2568
▁On	-2569
▁Øy	-2570
aven	-2571
enny	-2572
ents	-2573
ford	-2574
vist	-2575
öder	-2576
▁Nik	-2577
▁Sof	-2578
▁lær	-2579
▁not	-2580
achim	-2581
avnet	-2582
▁1955	-2583
▁Play	-2584
▁Stud	-2585
▁Gramm	-2586
fattare	-2587
▁Bergen	-2588
▁Joachim	-2589
▁October	-2590
▁politiker	-2591
▁professional	-2592
gj	-2593
ny	-2594
ino	-2595
isc	-2596
ått	-2597
▁DR	-2598
▁Go	-2599
anch	-2600
rael	-2601
spir	-2602
▁Men	-2603
▁fun	-2604
▁meg	-2605
▁sle	-2606
▁æld	-2607
delse	-2608
plass	-2609
velop	-2610
ymnas	-2611
▁anna	-2612
▁mann	-2613
▁står	-2614
▁sølv	-2615
dannet	-2616
▁James	-2617
▁North	-2618
▁många	-2619
▁named	-2620
▁verda	-2621
odespel	-2622
▁Haakon	-2623
▁social	-2624
▁system	-2625
▁Championship	-2626
sv	-2627
int	-2628
isa	-2629
▁36	-2630
▁Du	-2631
▁dy	-2632
angr	-2633
gren	-2634
ised	-2635
ords	-2636
oven	-2637
▁Bon	-2638
▁Syd	-2639
▁lik	-2640
▁nyt	-2641
aland	-2642
▁norm	-2643
▁solo	-2644
▁stre	-2645
▁sång	-2646
refter	-2647
▁Denne	-2648
▁Franc	-2649
▁blandt	-2650
▁komiker	-2651
▁Football	-2652
▁regering	-2653
▁programledare	-2654
gre	-2655
irl	-2656
ora	-2657
sar	-2658
way	-2659
äld	-2660
▁Sa	-2661
▁Sel	-2662
▁Sve	-2663
▁kil	-2664
emark	-2665
ående	-2666
▁1957	-2667
▁Bowl	-2668
▁Love	-2669
▁Stra	-2670
▁both	-2671
▁bygg	-2672
▁kamp	-2673
▁sønn	-2674
▁voks	-2675
▁Paris	-2676
▁Troms	-2677
▁Trond	-2678
▁samtid	-2679
▁viktig	-2680
▁tradisjon	-2681
▁Universitet	-2682
any	-2683
høg	-2684
oph	-2685
▁Sw	-2686
▁si	-2687
lade	-2688
▁Fød	-2689
▁Jac	-2690
▁eig	-2691
▁top	-2692
ligen	-2693
undet	-2694
▁1953	-2695
▁crit	-2696
▁egen	-2697
▁hvil	-2698
▁inom	-2699
▁into	-2700
▁russ	-2701
▁Famil	-2702
▁Super	-2703
▁roman	-2704
erefter	-2705
▁Johann	-2706
▁Martin	-2707
▁eldste	-2708
▁seinare	-2709
▁familien	-2710
wn	-2711
ana	-2712
osp	-2713
väx	-2714
yld	-2715
▁vi	-2716
able	-2717
aden	-2718
aler	-2719
ente	-2720
reen	-2721
æren	-2722
▁nog	-2723
▁slä	-2724
ammar	-2725
isert	-2726
▁City	-2727
▁Miss	-2728
▁hopp	-2729
▁when	-2730
▁kraft	-2731
▁Daniel	-2732
▁Folket	-2733
▁Hendes	-2734
▁Intern	-2735
▁action	-2736
▁tilhør	-2737
▁Finland	-2738
▁actress	-2739
▁svenske	-2740
▁politisk	-2741
▁sesongen	-2742
▁Billboard	-2743
▁following	-2744
avn	-2745
uth	-2746
atri	-2747
ikar	-2748
vers	-2749
▁Kim	-2750
▁Sen	-2751
▁bid	-2752
▁døm	-2753
▁gra	-2754
▁hem	-2755
▁via	-2756
ating	-2757
elles	-2758
leder	-2759
ubben	-2760
ution	-2761
▁Aker	-2762
▁Bern	-2763
▁Ital	-2764
▁char	-2765
▁dess	-2766
▁skap	-2767
▁spes	-2768
▁based	-2769
▁finns	-2770
▁leder	-2771
▁offis	-2772
▁overt	-2773
▁rolle	-2774
▁række	-2775
▁Öster	-2776
skriver	-2777
▁dermed	-2778
▁vinter	-2779
arlament	-2780
dannelse	-2781
▁premiär	-2782
▁verdensc	-2783
▁debuterte	-2784
egn	-2785
ied	-2786
tre	-2787
▁Ry	-2788
▁åt	-2789
rich	-2790
▁Rob	-2791
▁Tur	-2792
▁leg	-2793
▁tot	-2794
▁vel	-2795
▁ven	-2796
▁Slot	-2797
▁dans	-2798
▁lång	-2799
▁plan	-2800
▁serv	-2801
▁skil	-2802
▁such	-2803
fattar	-2804
▁fader	-2805
▁fjell	-2806
▁gitar	-2807
▁manus	-2808
ärefter	-2809
▁europe	-2810
▁symbol	-2811
▁britisk	-2812
▁etabler	-2813
▁November	-2814
▁Telemark	-2815
▁z	-2816
ect	-2817
jär	-2818
ück	-2819
▁Ex	-2820
▁Op	-2821
▁To	-2822
▁än	-2823
imer	-2824
shus	-2825
skab	-2826
styr	-2827
▁Bir	-2828
▁Fel	-2829
▁Lin	-2830
▁hit	-2831
▁høg	-2832
▁pos	-2833
▁six	-2834
▁täv	-2835
førte	-2836
▁1939	-2837
▁cons	-2838
▁fant	-2839
▁fort	-2840
▁fyra	-2841
prisen	-2842
rasjon	-2843
▁finst	-2844
▁henne	-2845
▁kring	-2846
▁varit	-2847
angrenn	-2848
▁Andrew	-2849
▁Hennes	-2850
▁Jørgen	-2851
▁använd	-2852
▁blevet	-2853
▁original	-2854
▁tidigare	-2855
▁amerikanske	-2856
▁universitet	-2857
ai	-2858
æn	-2859
ary	-2860
deb	-2861
olv	-2862
rab	-2863
ror	-2864
tes	-2865
ypt	-2866
▁nå	-2867
ific	-2868
lant	-2869
ough	-2870
rift	-2871
ross	-2872
ssen	-2873
▁180	-2874
▁Cup	-2875
▁III	-2876
▁Net	-2877
▁Ron	-2878
▁von	-2879
entet	-2880
organ	-2881
ustri	-2882
ville	-2883
▁1965	-2884
▁hele	-2885
▁hjem	-2886
▁mand	-2887
▁samf	-2888
orting	-2889
▁Grand	-2890
▁India	-2891
▁Ivars	-2892
▁andet	-2893
▁sever	-2894
▁äldre	-2895
▁gruppen	-2896
azz	-2897
hål	-2898
skj	-2899
▁ne	-2900
▁nr	-2901
helm	-2902
omen	-2903
roll	-2904
▁Aar	-2905
▁Rec	-2906
▁abd	-2907
▁bos	-2908
▁mag	-2909
▁str	-2910
angen	-2911
ended	-2912
itter	-2913
skriv	-2914
▁1900	-2915
▁1934	-2916
▁1956	-2917
▁Knud	-2918
▁grad	-2919
▁Mette	-2920
▁along	-2921
ationer	-2922
spiller	-2923
▁Edvard	-2924
▁syster	-2925
▁spillede	-2926
▁Kongelige	-2927
▁innbyggere	-2928
ds	-2929
sa	-2930
ux	-2931
åt	-2932
akk	-2933
bok	-2934
dan	-2935
dde	-2936
ose	-2937
ära	-2938
▁Do	-2939
empl	-2940
quar	-2941
▁age	-2942
▁arv	-2943
▁vit	-2944
▁web	-2945
aster	-2946
▁1961	-2947
▁Grøn	-2948
▁eksp	-2949
▁igen	-2950
▁April	-2951
▁Count	-2952
▁Elvis	-2953
▁child	-2954
▁gifte	-2955
▁perio	-2956
▁Årets	-2957
▁Landet	-2958
▁Sommer	-2959
▁region	-2960
▁Russland	-2961
▁skodespel	-2962
bj	-2963
æd	-2964
øk	-2965
vok	-2966
ært	-2967
örn	-2968
▁pe	-2969
▁sä	-2970
▁ål	-2971
ellt	-2972
unde	-2973
▁Ant	-2974
▁Hot	-2975
▁Los	-2976
▁Mär	-2977
▁døy	-2978
▁kap	-2979
▁old	-2980
akter	-2981
anden	-2982
sburg	-2983
▁1966	-2984
▁fått	-2985
▁meir	-2986
▁modt	-2987
▁nest	-2988
▁well	-2989
▁South	-2990
▁Grammy	-2991
▁Republ	-2992
▁hertig	-2993
▁økonom	-2994
▁College	-2995
▁Richard	-2996
▁albumet	-2997
▁forhold	-2998
▁several	-2999
▁tildelt	-3000
▁langrenn	-3001
▁personer	-3002
▁Kronprins	-3003
▁medverkade	-3004
▁?	-3005
ata	-3006
iop	-3007
ism	-3008
pez	-3009
urs	-3010
van	-3011
æng	-3012
▁60	-3013
följ	-3014
ield	-3015
iket	-3016
iner	-3017
ines	-3018
slut	-3019
▁185	-3020
▁Ham	-3021
▁bod	-3022
▁gik	-3023
▁lev	-3024
▁opt	-3025
spill	-3026
ønder	-3027
▁Anna	-3028
▁June	-3029
▁Mark	-3030
▁Song	-3031
▁hust	-3032
▁mere	-3033
▁ofta	-3034
▁prin	-3035
▁spec	-3036
▁Glück	-3037
▁Siden	-3038
▁desse	-3039
▁early	-3040
▁augusti	-3041
▁grenser	-3042
▁området	-3043
▁kommunen	-3044
yrd	-3045
▁70	-3046
▁Id	-3047
▁Vi	-3048
azel	-3049
cted	-3050
gent	-3051
ient	-3052
imes	-3053
isch	-3054
ivid	-3055
play	-3056
rene	-3057
▁Mag	-3058
▁NFL	-3059
▁cre	-3060
▁fot	-3061
▁imp	-3062
atern	-3063
enfor	-3064
offer	-3065
orden	-3066
pezat	-3067
produ	-3068
strid	-3069
ument	-3070
▁1948	-3071
▁1954	-3072
▁Beck	-3073
▁Leon	-3074
▁bild	-3075
▁hold	-3076
▁more	-3077
▁areal	-3078
▁elekt	-3079
▁komed	-3080
▁livet	-3081
▁major	-3082
▁numer	-3083
▁stora	-3084
▁dramat	-3085
▁produs	-3086
▁spille	-3087
▁fotball	-3088
▁karriär	-3089
▁landets	-3090
▁popular	-3091
▁Handling	-3092
væ	-3093
æs	-3094
øs	-3095
kra	-3096
sty	-3097
unk	-3098
ush	-3099
▁Hå	-3100
▁Ju	-3101
▁Ra	-3102
▁én	-3103
ates	-3104
hest	-3105
sker	-3106
ures	-3107
▁Bla	-3108
▁Day	-3109
▁Ung	-3110
▁syd	-3111
aking	-3112
ening	-3113
stant	-3114
▁Jens	-3115
▁Prem	-3116
▁bron	-3117
▁dock	-3118
▁hund	-3119
▁mang	-3120
▁vera	-3121
roller	-3122
ynorsk	-3123
▁Bjørn	-3124
▁Lille	-3125
▁Märth	-3126
▁group	-3127
▁meste	-3128
▁tekst	-3129
gruppen	-3130
varande	-3131
▁Edward	-3132
▁studio	-3133
▁yngste	-3134
▁ældste	-3135
▁hvilket	-3136
▁arranger	-3137
sb	-3138
sd	-3139
iro	-3140
lor	-3141
mel	-3142
ona	-3143
▁Då	-3144
▁SV	-3145
▁do	-3146
gain	-3147
iger	-3148
pris	-3149
uset	-3150
växt	-3151
wide	-3152
▁Fri	-3153
▁Gud	-3154
▁Inn	-3155
▁Nap	-3156
▁bel	-3157
▁ben	-3158
▁job	-3159
▁lar	-3160
▁lov	-3161
anska	-3162
enner	-3163
orter	-3164
▁1958	-3165
▁Belg	-3166
▁July	-3167
▁guld	-3168
▁kald	-3169
▁side	-3170
▁staf	-3171
▁latin	-3172
▁rekna	-3173
▁Nikola	-3174
▁deltok	-3175
▁Monpezat	-3176
▁Vestfold	-3177
jar	-3178
▁jo	-3179
alle	-3180
chie	-3181
iven	-3182
ivil	-3183
side	-3184
▁Ele	-3185
▁Fyl	-3186
▁Mil	-3187
▁ass	-3188
▁bre	-3189
▁new	-3190
▁set	-3191
andin	-3192
istan	-3193
ittle	-3194
▁Hell	-3195
▁Roll	-3196
▁arab	-3197
▁bass	-3198
▁gain	-3199
▁resp	-3200
spunkt	-3201
▁delar	-3202
▁fordi	-3203
▁igjen	-3204
▁media	-3205
▁relig	-3206
usiness	-3207
▁Disney	-3208
▁Island	-3209
▁albums	-3210
▁hustru	-3211
▁medvir	-3212
▁mother	-3213
▁desuden	-3214
▁develop	-3215
▁singles	-3216
▁största	-3217
▁begyndte	-3218
▁populære	-3219
▁worldwide	-3220
▁kalenderen	-3221
pa	-3222
fon	-3223
ign	-3224
ima	-3225
ira	-3226
ory	-3227
sem	-3228
iskt	-3229
leis	-3230
orte	-3231
usen	-3232
▁Fær	-3233
▁Gro	-3234
▁Spr	-3235
▁Tre	-3236
▁out	-3237
demar	-3238
ynyrd	-3239
▁1959	-3240
▁five	-3241
▁gick	-3242
▁host	-3243
delige	-3244
ometer	-3245
riller	-3246
▁Carol	-3247
▁Jacob	-3248
▁Melod	-3249
▁Produ	-3250
▁Rosen	-3251
▁årets	-3252
andinav	-3253
▁Berlin	-3254
▁Israel	-3255
▁vanleg	-3256
▁grensar	-3257
▁stafett	-3258
▁September	-3259
▁parlament	-3260
liv	-3261
veg	-3262
ægt	-3263
øya	-3264
▁80	-3265
▁Lo	-3266
▁Od	-3267
▁Sy	-3268
arth	-3269
cket	-3270
erer	-3271
heng	-3272
hopp	-3273
ksam	-3274
rinn	-3275
sdel	-3276
åren	-3277
▁Mal	-3278
▁Mat	-3279
▁Til	-3280
▁fil	-3281
▁fys	-3282
▁tar	-3283
eller	-3284
orten	-3285
rådte	-3286
▁1944	-3287
▁Barb	-3288
▁Sund	-3289
▁främ	-3290
▁gång	-3291
▁hatt	-3292
▁kons	-3293
▁kyrk	-3294
▁than	-3295
▁verk	-3296
ounced	-3297
slaget	-3298
sprung	-3299
▁Malmö	-3300
▁faren	-3301
▁humor	-3302
▁kvart	-3303
▁laget	-3304
▁lille	-3305
▁title	-3306
▁vandt	-3307
azelina	-3308
quarter	-3309
▁Indian	-3310
▁Larsen	-3311
▁gammel	-3312
▁inspir	-3313
▁Angeles	-3314
▁college	-3315
▁delstat	-3316
▁produkt	-3317
▁release	-3318
▁flyttade	-3319
▁inkluder	-3320
▁Folketinget	-3321
▁representer	-3322
ho	-3323
lo	-3324
ée	-3325
ady	-3326
ags	-3327
har	-3328
jet	-3329
ues	-3330
ute	-3331
▁Av	-3332
gori	-3333
hald	-3334
jøen	-3335
rikt	-3336
▁182	-3337
▁Bil	-3338
▁exp	-3339
▁voc	-3340
▁øya	-3341
snitt	-3342
▁1943	-3343
▁Hert	-3344
▁Matt	-3345
▁Stre	-3346
▁krit	-3347
▁leng	-3348
▁noko	-3349
▁pres	-3350
kommer	-3351
ritten	-3352
▁Diana	-3353
▁Stats	-3354
▁detta	-3355
▁dømes	-3356
▁ålder	-3357
ospital	-3358
▁Aarhus	-3359
▁Rasmus	-3360
▁portra	-3361
▁utbild	-3362
▁begynte	-3363
▁tilbage	-3364
AF	-3365
æt	-3366
gje	-3367
izz	-3368
sey	-3369
▁Qu	-3370
▁ev	-3371
▁tj	-3372
▁øv	-3373
atet	-3374
bold	-3375
bror	-3376
erud	-3377
etta	-3378
inen	-3379
kurr	-3380
oper	-3381
▁500	-3382
▁SVT	-3383
▁Sin	-3384
▁bak	-3385
▁ork	-3386
▁tek	-3387
alend	-3388
ennet	-3389
figur	-3390
ially	-3391
ighed	-3392
isser	-3393
ividu	-3394
▁1930	-3395
▁Asia	-3396
▁Wash	-3397
▁gong	-3398
▁haft	-3399
▁menn	-3400
▁ster	-3401
▁they	-3402
▁Album	-3403
▁begge	-3404
▁Märtha	-3405
▁början	-3406
▁indtil	-3407
▁konger	-3408
▁sommer	-3409
▁Jackson	-3410
▁Records	-3411
▁tronføl	-3412
▁Akershus	-3413
▁Vazelina	-3414
▁därefter	-3415
▁Washington	-3416
uc	-3417
æg	-3418
ble	-3419
hem	-3420
hen	-3421
idd	-3422
mär	-3423
neb	-3424
▁Ak	-3425
▁Hø	-3426
▁mø	-3427
▁sæ	-3428
ctor	-3429
flix	-3430
serv	-3431
vært	-3432
▁Art	-3433
▁Del	-3434
▁Fer	-3435
▁Gen	-3436
▁Nic	-3437
▁Tob	-3438
▁ang	-3439
▁ark	-3440
▁est	-3441
acter	-3442
aller	-3443
erade	-3444
oppen	-3445
språk	-3446
▁Finn	-3447
▁eget	-3448
▁helt	-3449
▁läng	-3450
▁stil	-3451
▁tett	-3452
▁then	-3453
▁tida	-3454
▁uden	-3455
writer	-3456
ærende	-3457
▁gross	-3458
▁stift	-3459
▁third	-3460
ationen	-3461
▁deltog	-3462
▁fleste	-3463
▁større	-3464
familien	-3465
▁Leonard	-3466
▁Netflix	-3467
▁gregori	-3468
▁quarter	-3469
▁artikler	-3470
▁engelske	-3471
▁national	-3472
▁internasjonale	-3473
aga	-3474
enk	-3475
kje	-3476
mid	-3477
▁32	-3478
▁45	-3479
isme	-3480
itte	-3481
nsyn	-3482
ries	-3483
rige	-3484
stäl	-3485
utom	-3486
▁BBC	-3487
▁Cro	-3488
▁Frå	-3489
▁mar	-3490
▁sna	-3491
laget	-3492
rasil	-3493
▁Born	-3494
▁Elis	-3495
▁bety	-3496
▁high	-3497
▁slog	-3498
▁tjen	-3499
histor	-3500
skolan	-3501
▁Inter	-3502
▁Royal	-3503
▁havet	-3504
▁hvert	-3505
▁valgt	-3506
▁Øster	-3507
ienborg	-3508
meister	-3509
▁Europe	-3510
▁Irland	-3511
▁Väster	-3512
▁derfor	-3513
▁mellem	-3514
▁spelar	-3515
▁staden	-3516
▁turner	-3517
▁history	-3518
estivalen	-3519
▁ursprung	-3520
▁Københavns	-3521
▁forskellige	-3522
▁verdenskrig	-3523
cy	-3524
yp	-3525
ged	-3526
oft	-3527
uro	-3528
vet	-3529
▁Ek	-3530
▁Ka	-3531
▁Pe	-3532
▁Sn	-3533
▁dø	-3534
anse	-3535
cker	-3536
egor	-3537
feld	-3538
ired	-3539
iter	-3540
skon	-3541
▁One	-3542
▁dav	-3543
▁fri	-3544
▁høy	-3545
arden	-3546
byggj	-3547
rimin	-3548
skola	-3549
▁1800	-3550
▁pian	-3551
▁stod	-3552
▁supp	-3553
artist	-3554
filmen	-3555
▁Louis	-3556
▁again	-3557
▁dagar	-3558
▁figur	-3559
▁great	-3560
▁kilde	-3561
▁skild	-3562
▁viser	-3563
fjorden	-3564
▁Konger	-3565
▁altern	-3566
▁featur	-3567
▁republ	-3568
demokrat	-3569
▁Strauss	-3570
▁startet	-3571
▁versjon	-3572
▁written	-3573
▁brittisk	-3574
▁Australia	-3575
▁Trondheim	-3576
▁italiensk	-3577
TA	-3578
gs	-3579
ht	-3580
sø	-3581
yt	-3582
▁ˈ	-3583
kka	-3584
las	-3585
mor	-3586
uel	-3587
öll	-3588
▁Ba	-3589
▁Di	-3590
▁mo	-3591
adem	-3592
ards	-3593
aten	-3594
atra	-3595
ksom	-3596
rive	-3597
uten	-3598
▁Bay	-3599
▁Lud	-3600
▁Off	-3601
▁Red	-3602
▁tem	-3603
ander	-3604
ently	-3605
grund	-3606
holdt	-3607
ummer	-3608
▁1905	-3609
▁Cent	-3610
▁Just	-3611
▁Sing	-3612
▁Stav	-3613
▁cast	-3614
▁game	-3615
▁kval	-3616
▁laga	-3617
enskap	-3618
iserte	-3619
▁Holly	-3620
▁Robin	-3621
▁Sofia	-3622
▁eldre	-3623
▁honom	-3624
▁måtte	-3625
▁olymp	-3626
alderen	-3627
▁Bernad	-3628
▁gained	-3629
▁søster	-3630
▁moderne	-3631
▁through	-3632
▁Valdemar	-3633
▁säsongen	-3634
▁character	-3635
▁daværende	-3636
▁millionar	-3637
▁befolkning	-3638
▁quarterback	-3639
▁verdenscupen	-3640
apt	-3641
asy	-3642
bre	-3643
ico	-3644
mål	-3645
änn	-3646
▁Kö	-3647
▁sa	-3648
atar	-3649
inna	-3650
irka	-3651
olin	-3652
träd	-3653
uler	-3654
ween	-3655
ådde	-3656
▁Bra	-3657
▁Bry	-3658
▁Max	-3659
▁När	-3660
▁Pol	-3661
▁Ter	-3662
▁lyd	-3663
aktør	-3664
allen	-3665
anser	-3666
▁1910	-3667
▁1929	-3668
▁1933	-3669
▁Ball	-3670
▁Byen	-3671
▁Girl	-3672
▁Merc	-3673
▁gjer	-3674
▁only	-3675
▁rank	-3676
▁skot	-3677
serien	-3678
▁Olymp	-3679
▁anden	-3680
▁byrja	-3681
▁nokre	-3682
▁spela	-3683
▁spilt	-3684
irigent	-3685
▁Astrid	-3686
▁Hansen	-3687
▁Italia	-3688
▁døydde	-3689
▁gammal	-3690
▁giftet	-3691
▁kontin	-3692
▁miljon	-3693
▁område	-3694
▁Nilsson	-3695
▁general	-3696
▁samband	-3697
▁begynder	-3698
▁deretter	-3699
▁familjen	-3700
▁historie	-3701
▁Jørgensen	-3702
▁announced	-3703
▁fortsatte	-3704
▁internation	-3705
▁kronprinsesse	-3706
DC	-3707
uf	-3708
xt	-3709
fly	-3710
omp	-3711
orm	-3712
rip	-3713
▁90	-3714
▁ac	-3715
▁bu	-3716
anna	-3717
erad	-3718
hund	-3719
kter	-3720
lers	-3721
ople	-3722
oret	-3723
ower	-3724
satt	-3725
sett	-3726
unds	-3727
▁183	-3728
▁Ros	-3729
▁Vik	-3730
▁fer	-3731
▁gud	-3732
▁1920	-3733
▁1951	-3734
▁Emmy	-3735
▁Pict	-3736
▁Sles	-3737
▁chef	-3738
▁förs	-3739
▁main	-3740
▁tekn	-3741
▁this	-3742
▁åren	-3743
iation	-3744
iverse	-3745
▁Radio	-3746
▁Sedan	-3747
▁final	-3748
▁langu	-3749
▁meget	-3750
▁nytta	-3751
▁until	-3752
▁virke	-3753
▁young	-3754
asjoner	-3755
ography	-3756
▁Little	-3757
▁dannet	-3758
▁enligt	-3759
▁foreld	-3760
▁resten	-3761
▁særleg	-3762
▁Premier	-3763
▁Slesvig	-3764
▁billion	-3765
▁finalen	-3766
▁musical	-3767
▁Grønland	-3768
▁fjernsyn	-3769
▁individu	-3770
▁vokalist	-3771
▁Andersson	-3772
add	-3773
air	-3774
anz	-3775
fød	-3776
göt	-3777
næv	-3778
omm	-3779
orf	-3780
stå	-3781
ube	-3782
▁33	-3783
▁EM	-3784
▁IX	-3785
▁NM	-3786
▁ob	-3787
ages	-3788
alth	-3789
amma	-3790
edag	-3791
edes	-3792
ined	-3793
kast	-3794
ones	-3795
smål	-3796
thur	-3797
vert	-3798
ören	-3799
▁Arn	-3800
▁Cob	-3801
▁Cra	-3802
▁Fal	-3803
▁Fre	-3804
▁God	-3805
▁Got	-3806
▁Maj	-3807
▁Rog	-3808
▁XVI	-3809
▁dok	-3810
▁enk	-3811
▁fag	-3812
▁hol	-3813
▁hög	-3814
▁sik	-3815
▁åra	-3816
änder	-3817
▁1935	-3818
▁Amal	-3819
▁Busk	-3820
▁Jord	-3821
▁Kung	-3822
▁Rand	-3823
▁Salt	-3824
▁Ukra	-3825
▁anim	-3826
▁inde	-3827
▁infl	-3828
▁init	-3829
▁jazz	-3830
▁luft	-3831
▁mult	-3832
▁språ	-3833
▁Henry	-3834
▁Scott	-3835
▁being	-3836
▁coach	-3837
▁førte	-3838
▁krist	-3839
▁lande	-3840
▁skole	-3841
asjonen	-3842
▁Arthur	-3843
▁Holmen	-3844
▁Namnet	-3845
▁Turner	-3846
▁calend	-3847
▁screen	-3848
▁between	-3849
▁opprinn	-3850
▁starred	-3851
forfatter	-3852
▁arbeidet	-3853
▁innbyggj	-3854
▁låtskriv	-3855
▁komponist	-3856
▁medvirket	-3857
▁studerade	-3858
▁Bernadotte	-3859
▁songwriter	-3860
bu	-3861
kr	-3862
æk	-3863
ato	-3864
die	-3865
rif	-3866
rom	-3867
ual	-3868
ønt	-3869
▁qu	-3870
blem	-3871
bruk	-3872
fors	-3873
ktet	-3874
ktor	-3875
laim	-3876
øder	-3877
▁Cap	-3878
▁Old	-3879
▁ald	-3880
▁day	-3881
▁fru	-3882
▁här	-3883
▁kej	-3884
▁ste	-3885
▁veg	-3886
▁war	-3887
other	-3888
▁Bond	-3889
▁Mell	-3890
▁bare	-3891
▁hånd	-3892
▁pris	-3893
▁tolv	-3894
▁vind	-3895
ighest	-3896
▁Marit	-3897
▁Moder	-3898
▁Stein	-3899
▁found	-3900
▁huset	-3901
▁konst	-3902
▁wrest	-3903
▁Afrika	-3904
▁basert	-3905
▁junior	-3906
▁litter	-3907
▁player	-3908
▁priser	-3909
▁privat	-3910
▁stadig	-3911
▁periode	-3912
▁playing	-3913
▁spillet	-3914
▁engelska	-3915
▁nordvest	-3916
▁thriller	-3917
▁uddannet	-3918
▁professor	-3919
▁skodespelar	-3920
▁programleder	-3921
FA	-3922
ät	-3923
ail	-3924
ani	-3925
bar	-3926
cle	-3927
iff	-3928
ior	-3929
skt	-3930
uch	-3931
via	-3932
änt	-3933
øbt	-3934
▁Gj	-3935
▁Kv	-3936
▁NA	-3937
▁ga	-3938
emat	-3939
itch	-3940
ized	-3941
nade	-3942
rian	-3943
sats	-3944
sätt	-3945
test	-3946
øpet	-3947
▁Høj	-3948
▁Kan	-3949
▁Lab	-3950
▁PDC	-3951
▁Pre	-3952
▁Rev	-3953
▁nov	-3954
▁sem	-3955
▁skj	-3956
▁try	-3957
alled	-3958
utive	-3959
▁1937	-3960
▁Port	-3961
▁Rose	-3962
▁VIII	-3963
▁Wind	-3964
▁blod	-3965
▁fest	-3966
▁följ	-3967
▁noen	-3968
▁sjuk	-3969
abetet	-3970
elling	-3971
▁Simon	-3972
▁State	-3973
▁enter	-3974
aggrund	-3975
▁Harris	-3976
▁Napole	-3977
▁Street	-3978
▁bedste	-3979
▁bestem	-3980
▁främst	-3981
▁fylket	-3982
▁mycket	-3983
▁public	-3984
▁succes	-3985
▁kvinner	-3986
▁premier	-3987
▁Buskerud	-3988
▁regisser	-3989
▁starring	-3990
▁Hollywood	-3991
▁guitarist	-3992
▁offentlig	-3993
▁represent	-3994
▁författare	-3995
kv	-3996
yg	-3997
öp	-3998
öv	-3999
iki	-4000
nar	-4001
tak	-4002
▁00	-4003
alan	-4004
anny	-4005
eden	-4006
fred	-4007
hamn	-4008
ndel	-4009
ogen	-4010
quel	-4011
rote	-4012
▁Bur	-4013
▁Est	-4014
▁Rik	-4015
▁Tex	-4016
▁Vil	-4017
▁alf	-4018
▁ing	-4019
gtesk	-4020
idler	-4021
ience	-4022
ional	-4023
ledes	-4024
ockey	-4025
▁1938	-4026
▁Kina	-4027
▁Kore	-4028
▁Post	-4029
▁Star	-4030
▁This	-4031
▁kalt	-4032
▁prev	-4033
▁prof	-4034
▁took	-4035
▁vill	-4036
▁åtte	-4037
følgen	-4038
heimer	-4039
istisk	-4040
opphøg	-4041
skolen	-4042
▁Benny	-4043
▁Erich	-4044
▁Håkon	-4045
▁Köpen	-4046
▁Princ	-4047
▁Søren	-4048
▁bokst	-4049
▁cirka	-4050
▁innen	-4051
▁lever	-4052
▁månad	-4053
▁romer	-4054
▁sæson	-4055
værende	-4056
▁Jensen	-4057
▁acting	-4058
▁gjerne	-4059
▁gånger	-4060
▁kongen	-4061
▁prisen	-4062
▁result	-4063
▁songen	-4064
▁avsnitt	-4065
▁konstit	-4066
▁organis	-4067
▁slutten	-4068
▁calendar	-4069
▁menneske	-4070
▁medlemmer	-4071
▁nominations	-4072
co	-4073
to	-4074
ya	-4075
øv	-4076
zon	-4077
öst	-4078
▁IS	-4079
▁UK	-4080
ante	-4081
brud	-4082
emon	-4083
olls	-4084
pool	-4085
rale	-4086
sons	-4087
unst	-4088
▁Are	-4089
▁Ass	-4090
▁Bol	-4091
▁Gun	-4092
▁Lee	-4093
▁Out	-4094
▁Ren	-4095
▁Sid	-4096
▁can	-4097
▁col	-4098
▁jur	-4099
▁lav	-4100
▁rig	-4101
▁ått	-4102
brott	-4103
delig	-4104
endte	-4105
ismen	-4106
ities	-4107
opher	-4108
orgen	-4109
råder	-4110
▁Dies	-4111
▁Hard	-4112
▁Time	-4113
▁club	-4114
▁enda	-4115
▁head	-4116
▁last	-4117
▁long	-4118
▁sänd	-4119
▁vara	-4120
enborg	-4121
▁Actor	-4122
▁Chris	-4123
▁Darts	-4124
▁Egypt	-4125
▁White	-4126
▁death	-4127
▁defin	-4128
▁denna	-4129
▁femte	-4130
▁heile	-4131
▁lands	-4132
▁mykje	-4133
▁still	-4134
estival	-4135
▁Canada	-4136
▁Fødsel	-4137
▁Spring	-4138
▁fjerde	-4139
▁serier	-4140
▁served	-4141
▁vilken	-4142
ellemann	-4143
▁Kingdom	-4144
▁Mercury	-4145
▁company	-4146
▁handels	-4147
▁highest	-4148
▁kategor	-4149
▁leading	-4150
▁various	-4151
▁Kommunen	-4152
▁allerede	-4153
▁director	-4154
▁startede	-4155
▁performan	-4156
▁samarbeid	-4157
▁Spellemann	-4158
▁administrat	-4159
▁sangskriver	-4160
70	-4161
hj	-4162
ky	-4163
ty	-4164
ela	-4165
rio	-4166
skl	-4167
tet	-4168
øst	-4169
▁EP	-4170
▁Pu	-4171
▁Tw	-4172
▁ow	-4173
▁sö	-4174
amme	-4175
arte	-4176
atch	-4177
cast	-4178
cert	-4179
nast	-4180
▁Bor	-4181
▁Rig	-4182
▁dec	-4183
annen	-4184
arned	-4185
ature	-4186
field	-4187
heter	-4188
iffer	-4189
ommer	-4190
onger	-4191
stend	-4192
vækst	-4193
yttet	-4194
▁1912	-4195
▁1949	-4196
▁Patr	-4197
▁Soph	-4198
▁Till	-4199
▁educ	-4200
▁hjel	-4201
▁them	-4202
bladet	-4203
ically	-4204
område	-4205
▁Musik	-4206
▁Polit	-4207
▁Texas	-4208
▁achie	-4209
▁antal	-4210
▁domin	-4211
▁folke	-4212
▁ident	-4213
▁influ	-4214
▁sprin	-4215
unionen	-4216
▁danska	-4217
▁föräld	-4218
▁offent	-4219
▁publik	-4220
▁spelte	-4221
▁Johnson	-4222
▁artikel	-4223
▁franske	-4224
▁likevel	-4225
▁Nordland	-4226
▁appeared	-4227
▁direktør	-4228
▁industri	-4229
▁klassisk	-4230
▁premiere	-4231
▁samtidig	-4232
▁studerte	-4233
▁världens	-4234
▁Bilopphøg	-4235
▁Elisabeth	-4236
▁politiske	-4237
▁gregorianske	-4238
60	-4239
hy	-4240
li	-4241
ös	-4242
eds	-4243
giv	-4244
ivt	-4245
ivå	-4246
kan	-4247
urr	-4248
wig	-4249
øse	-4250
▁Fe	-4251
▁Ty	-4252
▁Up	-4253
▁XX	-4254
▁ak	-4255
▁ni	-4256
▁we	-4257
asin	-4258
ball	-4259
ders	-4260
ench	-4261
ject	-4262
rine	-4263
▁Bre	-4264
▁Kor	-4265
▁Rod	-4266
▁Tay	-4267
▁Tun	-4268
▁amb	-4269
▁amt	-4270
▁loc	-4271
elege	-4272
ights	-4273
ksess	-4274
medal	-4275
ovjet	-4276
teret	-4277
▁1901	-4278
▁1918	-4279
▁Schw	-4280
▁live	-4281
skapen	-4282
▁House	-4283
▁Liver	-4284
▁Oppen	-4285
▁arver	-4286
▁grand	-4287
▁greve	-4288
▁stage	-4289
▁svært	-4290
istiske	-4291
▁Arbeid	-4292
▁Prince	-4293
▁Social	-4294
▁Sveits	-4295
▁bliver	-4296
▁commer	-4297
▁forbin	-4298
▁sesong	-4299
▁sidste	-4300
▁Uppväxt	-4301
▁Venstre	-4302
▁flyttet	-4303
▁geograf	-4304
▁problem	-4305
▁sångare	-4306
▁världen	-4307
▁framgång	-4308
▁karakter	-4309
▁miljoner	-4310
▁Margareta	-4311
▁underhold	-4312
▁folketings	-4313
▁Oppenheimer	-4314
▁alternative	-4315
20	-4316
öj	-4317
act	-4318
che	-4319
ges	-4320
hov	-4321
iat	-4322
nie	-4323
okk	-4324
åne	-4325
ætt	-4326
▁35	-4327
▁go	-4328
anda	-4329
chef	-4330
inne	-4331
kont	-4332
länd	-4333
onym	-4334
ropp	-4335
sfor	-4336
stod	-4337
talt	-4338
ving	-4339
▁Bob	-4340
▁Nør	-4341
▁Sib	-4342
▁add	-4343
▁bør	-4344
▁fær	-4345
▁sur	-4346
▁syv	-4347
▁ton	-4348
ennar	-4349
ifter	-4350
leiar	-4351
▁1926	-4352
▁1942	-4353
▁Hels	-4354
▁Sach	-4355
▁Thor	-4356
▁bliv	-4357
▁dram	-4358
▁døbt	-4359
▁elev	-4360
▁epis	-4361
▁forl	-4362
▁gjen	-4363
▁hela	-4364
▁kyst	-4365
▁rapp	-4366
▁real	-4367
▁riks	-4368
▁webs	-4369
igaste	-4370
instru	-4371
irchen	-4372
olades	-4373
▁Bened	-4374
▁Kjell	-4375
▁Peder	-4376
▁Polen	-4377
▁class	-4378
▁inled	-4379
▁plats	-4380
▁posit	-4381
▁refer	-4382
▁revol	-4383
▁slekt	-4384
▁Dramat	-4385
▁During	-4386
▁Ludvig	-4387
▁ganger	-4388
▁instit	-4389
▁krigen	-4390
▁promin	-4391
▁radiop	-4392
▁regent	-4393
▁romant	-4394
▁signed	-4395
▁songar	-4396
▁starta	-4397
▁Japanese	-4398
▁arbetade	-4399
▁efterføl	-4400
▁accolades	-4401
▁kongelige	-4402
▁mennesker	-4403
▁europeiske	-4404
▁betydninger	-4405
po	-4406
på	-4407
hör	-4408
ody	-4409
spl	-4410
uka	-4411
vär	-4412
▁fj	-4413
▁øn	-4414
AFTA	-4415
aint	-4416
atre	-4417
eleb	-4418
iews	-4419
ists	-4420
ivis	-4421
kort	-4422
orer	-4423
shol	-4424
sida	-4425
▁300	-4426
▁Ala	-4427
▁Kro	-4428
▁Nob	-4429
▁Ott	-4430
▁Sec	-4431
▁Sug	-4432
▁Tro	-4433
▁Vol	-4434
▁jød	-4435
▁noe	-4436
▁occ	-4437
▁pri	-4438
▁ska	-4439
▁teg	-4440
atrix	-4441
bjørn	-4442
forsk	-4443
ikker	-4444
rolle	-4445
serie	-4446
slutt	-4447
ually	-4448
åring	-4449
▁1924	-4450
▁Anth	-4451
▁Bert	-4452
▁Over	-4453
▁Poul	-4454
▁Wahl	-4455
▁driv	-4456
▁godt	-4457
▁grav	-4458
▁renn	-4459
▁sold	-4460
skabet	-4461
▁BAFTA	-4462
▁Folke	-4463
▁Great	-4464
▁Smith	-4465
▁bodde	-4466
▁först	-4467
▁følge	-4468
▁kontr	-4469
▁ledde	-4470
▁løpet	-4471
▁match	-4472
▁month	-4473
▁riket	-4474
▁super	-4475
▁uttry	-4476
götland	-4477
▁Brasil	-4478
▁French	-4479
▁Gruppe	-4480
▁Instit	-4481
▁Nation	-4482
▁Privat	-4483
▁Sønder	-4484
▁Taylor	-4485
▁bestod	-4486
▁betegn	-4487
▁felles	-4488
▁gymnas	-4489
▁länder	-4490
▁modern	-4491
▁raised	-4492
▁vidare	-4493
arrieren	-4494
kalender	-4495
årsdagen	-4496
▁Nielsen	-4497
▁Partenk	-4498
▁exempel	-4499
▁filmene	-4500
▁service	-4501
▁tilbake	-4502
▁Napoleon	-4503
▁Pictures	-4504
▁business	-4505
▁flyttede	-4506
▁language	-4507
▁orkester	-4508
▁Köpenhamn	-4509
▁Liverpool	-4510
▁litteratur	-4511
▁regeringstid	-4512
ps	-4513
aks	-4514
amn	-4515
ita	-4516
kar	-4517
mig	-4518
pet	-4519
ric	-4520
sun	-4521
ula	-4522
una	-4523
▁FI	-4524
▁Rh	-4525
▁Ve	-4526
byen	-4527
cing	-4528
ikte	-4529
issa	-4530
kret	-4531
oden	-4532
ould	-4533
pend	-4534
ught	-4535
valg	-4536
vend	-4537
▁Haw	-4538
▁Mol	-4539
▁Ram	-4540
▁Tit	-4541
▁Way	-4542
▁Win	-4543
▁vir	-4544
ivate	-4545
still	-4546
▁1919	-4547
▁Frid	-4548
▁Lyng	-4549
▁Oden	-4550
▁fann	-4551
▁flag	-4552
▁fotb	-4553
▁lite	-4554
▁tatt	-4555
▁tran	-4556
▁utgj	-4557
▁vald	-4558
▁vedt	-4559
banden	-4560
ctions	-4561
emplar	-4562
gangen	-4563
▁Lasse	-4564
▁Mange	-4565
▁Stort	-4566
▁annan	-4567
▁award	-4568
▁deler	-4569
▁gange	-4570
▁heilt	-4571
▁kolon	-4572
▁langs	-4573
▁medal	-4574
▁områd	-4575
▁regel	-4576
▁skift	-4577
▁trans	-4578
▁tyska	-4579
▁udnæv	-4580
▁Atlant	-4581
▁bidrag	-4582
▁deltag	-4583
▁funger	-4584
▁gruppe	-4585
▁hennar	-4586
▁inform	-4587
▁kysten	-4588
▁midten	-4589
▁omfatt	-4590
▁recogn	-4591
▁regnes	-4592
▁territ	-4593
▁tittel	-4594
▁videre	-4595
▁vunnet	-4596
▁Beatrix	-4597
▁Holsten	-4598
▁grupper	-4599
▁klassen	-4600
▁mangler	-4601
▁militær	-4602
▁portray	-4603
▁således	-4604
▁numerous	-4605
▁previous	-4606
▁forbindelse	-4607
▁Bilopphøggers	-4608
▁International	-4609
▁Partenkirchen	-4610
ré	-4611
aka	-4612
bin	-4613
edd	-4614
esl	-4615
fyl	-4616
gor	-4617
mit	-4618
▁AB	-4619
▁Mr	-4620
▁ba	-4621
▁äg	-4622
drag	-4623
edal	-4624
hern	-4625
menn	-4626
ogle	-4627
rede	-4628
vand	-4629
øper	-4630
▁Ari	-4631
▁Big	-4632
▁Dre	-4633
▁How	-4634
▁Lor	-4635
▁dre	-4636
▁ext	-4637
▁ill	-4638
▁mån	-4639
▁såk	-4640
asons	-4641
bland	-4642
etten	-4643
ident	-4644
ining	-4645
itets	-4646
otten	-4647
punkt	-4648
▁1700	-4649
▁1921	-4650
▁1922	-4651
▁Birg	-4652
▁Från	-4653
▁Gran	-4654
▁Guld	-4655
▁Gull	-4656
▁Jean	-4657
▁Mikk	-4658
▁Prix	-4659
▁Ragn	-4660
▁bort	-4661
▁brød	-4662
▁bygd	-4663
▁dikt	-4664
▁eitt	-4665
▁gitt	-4666
▁list	-4667
▁sket	-4668
▁Roman	-4669
▁Skott	-4670
▁Steen	-4671
▁bøker	-4672
▁eight	-4673
▁inden	-4674
▁kirke	-4675
▁ledet	-4676
▁liten	-4677
▁plate	-4678
▁släpp	-4679
▁udgav	-4680
▁Parker	-4681
▁Wilson	-4682
▁avslut	-4683
▁bronse	-4684
▁compet	-4685
▁dommer	-4686
▁earned	-4687
▁forskj	-4688
▁gången	-4689
▁slutet	-4690
▁talent	-4691
▁vokste	-4692
▁worked	-4693
▁Freddie	-4694
▁Gruppen	-4695
▁Helsing	-4696
▁Sachsen	-4697
▁Studios	-4698
▁against	-4699
▁brother	-4700
▁commerc	-4701
▁russisk	-4702
▁sentrum	-4703
ospitalet	-4704
▁Bakgrund	-4705
▁Finnmark	-4706
▁dirigent	-4707
▁followed	-4708
▁nominert	-4709
▁personal	-4710
▁radiopro	-4711
▁tronfölj	-4712
▁Charlotte	-4713
▁medverkat	-4714
▁regjering	-4715
▁gennembrud	-4716
▁huvudrollen	-4717
▁international	-4718
bø	-4719
ök	-4720
▁Ä	-4721
aff	-4722
esh	-4723
ily	-4724
jef	-4725
que	-4726
▁58	-4727
▁IV	-4728
▁Og	-4729
▁Ox	-4730
▁fi	-4731
▁hö	-4732
alet	-4733
edom	-4734
hild	-4735
ison	-4736
skar	-4737
unch	-4738
weiz	-4739
äder	-4740
øver	-4741
▁Ama	-4742
▁Bul	-4743
▁Cas	-4744
▁Dee	-4745
▁Fil	-4746
▁Ker	-4747
▁Lov	-4748
▁McC	-4749
▁Mov	-4750
▁Pal	-4751
▁Sir	-4752
▁Sus	-4753
▁Wat	-4754
▁bry	-4755
▁bud	-4756
▁due	-4757
▁mød	-4758
▁råd	-4759
aften	-4760
eskap	-4761
fjord	-4762
iment	-4763
rebro	-4764
thers	-4765
▁1906	-4766
▁Back	-4767
▁Emma	-4768
▁Garm	-4769
▁Hill	-4770
▁Maud	-4771
▁Mess	-4772
▁Olof	-4773
▁Oper	-4774
▁Tenn	-4775
▁Tony	-4776
▁Wall	-4777
▁alla	-4778
▁fars	-4779
▁hvis	-4780
▁rang	-4781
▁regi	-4782
▁sign	-4783
▁some	-4784
▁tilt	-4785
▁vers	-4786
▁vist	-4787
bakken	-4788
lingar	-4789
ringer	-4790
scupen	-4791
▁Björn	-4792
▁Camil	-4793
▁Skars	-4794
▁gresk	-4795
▁lange	-4796
▁liste	-4797
▁låten	-4798
▁minst	-4799
▁några	-4800
▁prest	-4801
▁storm	-4802
▁tillb	-4803
▁åring	-4804
gteskab	-4805
igheter	-4806
▁Amazon	-4807
▁Hertug	-4808
▁Norske	-4809
▁Sammen	-4810
▁ansatt	-4811
▁foræld	-4812
▁grevin	-4813
▁kjente	-4814
▁klasse	-4815
▁middel	-4816
▁religi	-4817
▁Drammen	-4818
▁Wilhelm	-4819
▁klubben	-4820
▁monarki	-4821
▁populær	-4822
▁spanske	-4823
▁verksam	-4824
▁website	-4825
▁Baggrund	-4826
▁Holstein	-4827
▁monarken	-4828
▁Skarsgård	-4829
▁alfabetet	-4830
▁offisielt	-4831
▁skandinav	-4832
shospitalet	-4833
▁langrennsl	-4834
▁Olsenbanden	-4835
BA	-4836
CA	-4837
ræ	-4838
atn	-4839
erg	-4840
eth	-4841
ips	-4842
när	-4843
umb	-4844
ves	-4845
äns	-4846
▁38	-4847
▁Ei	-4848
▁Ky	-4849
▁Mü	-4850
▁Ze	-4851
▁dö	-4852
▁lä	-4853
bout	-4854
eleg	-4855
eman	-4856
eres	-4857
gest	-4858
iell	-4859
inge	-4860
lath	-4861
orna	-4862
osof	-4863
resp	-4864
ærer	-4865
▁Air	-4866
▁Mot	-4867
▁Sig	-4868
▁Tim	-4869
▁Tra	-4870
▁Trø	-4871
▁ger	-4872
▁mov	-4873
▁mul	-4874
▁sat	-4875
▁slo	-4876
▁stø	-4877
▁typ	-4878
ances	-4879
ativt	-4880
grens	-4881
heten	-4882
maren	-4883
ology	-4884
overn	-4885
sport	-4886
øyane	-4887
▁1928	-4888
▁Dahl	-4889
▁Disk	-4890
▁Fame	-4891
▁Flor	-4892
▁Gunn	-4893
▁Holm	-4894
▁Lady	-4895
▁Show	-4896
▁Stol	-4897
▁Väst	-4898
▁disk	-4899
▁hitt	-4900
▁høyr	-4901
▁jule	-4902
▁lagt	-4903
▁mill	-4904
▁plat	-4905
▁samm	-4906
▁sida	-4907
▁årig	-4908
bandet	-4909
estern	-4910
gruppe	-4911
hammer	-4912
irkede	-4913
ndelag	-4914
person	-4915
stater	-4916
▁Abies	-4917
▁André	-4918
▁Einar	-4919
▁Green	-4920
▁Hoved	-4921
▁Jones	-4922
▁Niels	-4923
▁disse	-4924
▁flert	-4925
▁intro	-4926
▁lokal	-4927
▁ordet	-4928
▁reach	-4929
▁seven	-4930
▁slægt	-4931
▁tilkn	-4932
ataljon	-4933
partiet	-4934
program	-4935
spelare	-4936
▁Diesen	-4937
▁Ronald	-4938
▁Sophie	-4939
▁farfar	-4940
▁mester	-4941
▁return	-4942
▁sequel	-4943
▁skrive	-4944
▁staten	-4945
▁truleg	-4946
▁central	-4947
▁direkte	-4948
▁include	-4949
▁members	-4950
▁partiet	-4951
▁samfunn	-4952
▁slottet	-4953
▁suksess	-4954
▁Garmisch	-4955
▁attended	-4956
▁critical	-4957
▁derefter	-4958
▁dokument	-4959
▁greatest	-4960
▁kommuner	-4961
▁regissör	-4962
▁Benedikte	-4963
▁Josephine	-4964
▁Trøndelag	-4965
▁Sommerlath	-4966
▁nomination	-4967
▁produksjon	-4968
▁successful	-4969
▁Frederiksen	-4970
40	-4971
HL	-4972
amb	-4973
ben	-4974
går	-4975
iør	-4976
kes	-4977
ots	-4978
ran	-4979
rek	-4980
rup	-4981
vor	-4982
zen	-4983
ång	-4984
▁Nr	-4985
▁Ud	-4986
▁ry	-4987
▁tw	-4988
abab	-4989
akob	-4990
asak	-4991
enta	-4992
ever	-4993
ible	-4994
ifor	-4995
ippe	-4996
krig	-4997
ndom	-4998
oice	-4999
orks	-5000
ript	-5001
skog	-5002
stud	-5003
årst	-5004
▁178	-5005
▁179	-5006
▁400	-5007
▁Bab	-5008
▁End	-5009
▁Imp	-5010
▁Let	-5011
▁Luc	-5012
▁Mem	-5013
▁Num	-5014
▁ast	-5015
▁aut	-5016
▁høj	-5017
▁lin	-5018
▁mix	-5019
anche	-5020
arten	-5021
ninga	-5022
ribut	-5023
strøm	-5024
øster	-5025
▁1941	-5026
▁Alan	-5027
▁East	-5028
▁Viet	-5029
▁With	-5030
▁føds	-5031
▁gren	-5032
▁grøn	-5033
▁make	-5034
▁rose	-5035
▁turn	-5036
▁uten	-5037
▁valg	-5038
arbeid	-5039
lanter	-5040
partem	-5041
sterne	-5042
ylland	-5043
▁Alice	-5044
▁Skåne	-5045
▁gradu	-5046
▁katol	-5047
▁nådde	-5048
▁scene	-5049
▁spelt	-5050
▁tider	-5051
▁trone	-5052
▁tyder	-5053
▁video	-5054
▁wrote	-5055
kteskap	-5056
skrigen	-5057
▁Donald	-5058
▁German	-5059
▁Google	-5060
▁Hellas	-5061
▁Navnet	-5062
▁Ungarn	-5063
▁Walter	-5064
▁Wiener	-5065
▁ansvar	-5066
▁artikk	-5067
▁called	-5068
▁enkelt	-5069
▁events	-5070
▁franch	-5071
▁kilder	-5072
▁kroner	-5073
▁nation	-5074
▁samman	-5075
▁sommar	-5076
▁særlig	-5077
▁Andreas	-5078
▁Larsson	-5079
▁Nynorsk	-5080
▁Vincent	-5081
▁birolle	-5082
▁parents	-5083
▁starten	-5084
▁udgivet	-5085
▁utvikla	-5086
▁winning	-5087
▁Leonardo	-5088
▁achieved	-5089
▁etablert	-5090
▁historia	-5091
▁russiske	-5092
▁tilhørte	-5093
▁Bernstein	-5094
▁opphavleg	-5095
▁producent	-5096
▁Australien	-5097
▁Diskografi	-5098
▁Christopher	-5099
▁parlamentar	-5100
▁innbyggjarar	-5101
48	-5102
50	-5103
hn	-5104
nå	-5105
ace	-5106
fir	-5107
ipe	-5108
ova	-5109
rey	-5110
syn	-5111
træ	-5112
vir	-5113
vit	-5114
xem	-5115
▁43	-5116
▁Ap	-5117
▁Ep	-5118
▁Su	-5119
▁Tj	-5120
▁bö	-5121
▁cm	-5122
▁pa	-5123
▁vå	-5124
alls	-5125
anne	-5126
atab	-5127
emus	-5128
etts	-5129
have	-5130
ikke	-5131
insk	-5132
kene	-5133
mont	-5134
wall	-5135
▁Des	-5136
▁Jag	-5137
▁Jim	-5138
▁Kal	-5139
▁Kap	-5140
▁Kir	-5141
▁Tru	-5142
▁Wag	-5143
▁bol	-5144
▁fod	-5145
▁klo	-5146
▁låg	-5147
▁mel	-5148
▁pap	-5149
▁sos	-5150
achel	-5151
andre	-5152
bergs	-5153
esten	-5154
inden	-5155
oming	-5156
revet	-5157
sjekk	-5158
skamp	-5159
slags	-5160
utter	-5161
▁1000	-5162
▁1927	-5163
▁Barn	-5164
▁Fram	-5165
▁Inge	-5166
▁Lang	-5167
▁adel	-5168
▁area	-5169
▁besl	-5170
▁curr	-5171
▁dobb	-5172
▁ekst	-5173
▁elva	-5174
▁fict	-5175
▁hvem	-5176
▁intr	-5177
▁many	-5178
▁mott	-5179
▁porn	-5180
▁rekl	-5181
▁satt	-5182
▁teen	-5183
ensson	-5184
filmer	-5185
holder	-5186
medlem	-5187
navnet	-5188
spelar	-5189
▁Brian	-5190
▁Broad	-5191
▁Class	-5192
▁Donau	-5193
▁Henri	-5194
▁Konge	-5195
▁Refer	-5196
▁Söder	-5197
▁alder	-5198
▁among	-5199
▁bakgr	-5200
▁deras	-5201
▁enkel	-5202
▁etapp	-5203
▁front	-5204
▁inför	-5205
▁langt	-5206
▁model	-5207
▁place	-5208
▁sendt	-5209
▁skilt	-5210
▁touch	-5211
▁verds	-5212
▁vokal	-5213
▁ytter	-5214
ologisk	-5215
steater	-5216
▁Hessen	-5217
▁Schles	-5218
▁arbejd	-5219
▁brukte	-5220
▁flytta	-5221
▁krimin	-5222
▁provin	-5223
▁status	-5224
▁större	-5225
atherine	-5226
idlertid	-5227
sprogram	-5228
▁Country	-5229
▁Italien	-5230
▁Statens	-5231
▁bassist	-5232
▁einaste	-5233
▁fantasy	-5234
▁formand	-5235
▁manager	-5236
▁måneder	-5237
▁voksede	-5238
visninger	-5239
▁Pedersen	-5240
▁albummet	-5241
▁demokrat	-5242
▁egentlig	-5243
▁musician	-5244
▁nasjonal	-5245
▁standard	-5246
▁tittelen	-5247
författare	-5248
programmet	-5249
▁Skottland	-5250
▁brittiska	-5251
▁countries	-5252
▁forfattar	-5253
▁medlemmar	-5254
▁premiered	-5255
▁Glücksburg	-5256
▁Prinsessan	-5257
▁Stortinget	-5258
▁imidlertid	-5259
▁tronfølger	-5260
▁Lillehammer	-5261
▁hovedrollen	-5262
▁verdensmester	-5263
▁administrasjon	-5264
bt	-5265
go	-5266
ye	-5267
ås	-5268
ago	-5269
bas	-5270
fri	-5271
köp	-5272
lad	-5273
oma	-5274
sec	-5275
ønn	-5276
▁46	-5277
▁Ah	-5278
▁EU	-5279
▁Kh	-5280
▁Ta	-5281
▁XI	-5282
abel	-5283
arch	-5284
barn	-5285
book	-5286
hard	-5287
igen	-5288
ippi	-5289
kant	-5290
lede	-5291
send	-5292
sket	-5293
ssel	-5294
sågs	-5295
ular	-5296
ände	-5297
▁Afr	-5298
▁Eve	-5299
▁Joe	-5300
▁Met	-5301
▁Nav	-5302
▁Nye	-5303
▁Vir	-5304
▁Vär	-5305
▁dra	-5306
▁hør	-5307
▁pal	-5308
▁tak	-5309
alekt	-5310
andet	-5311
elses	-5312
encer	-5313
esper	-5314
ikere	-5315
iskop	-5316
parti	-5317
stedt	-5318
ständ	-5319
varte	-5320
ånare	-5321
▁Adam	-5322
▁Arab	-5323
▁Brig	-5324
▁Euro	-5325
▁Fant	-5326
▁Halv	-5327
▁Lenn	-5328
▁Midt	-5329
▁Tina	-5330
▁aner	-5331
▁borg	-5332
▁bred	-5333
▁drum	-5334
▁just	-5335
▁skiv	-5336
▁test	-5337
▁tolk	-5338
▁Året	-5339
ababes	-5340
ansson	-5341
ending	-5342
inburg	-5343
namnet	-5344
▁Dansk	-5345
▁Jakob	-5346
▁Night	-5347
▁Prisc	-5348
▁Saint	-5349
▁Sound	-5350
▁Svend	-5351
▁Young	-5352
▁barne	-5353
▁fyrst	-5354
▁solgt	-5355
▁songs	-5356
▁total	-5357
▁yards	-5358
ivision	-5359
organis	-5360
▁Jersey	-5361
▁Johnny	-5362
▁Odense	-5363
▁Oxford	-5364
▁Sovjet	-5365
▁Watson	-5366
▁alltid	-5367
▁dagens	-5368
▁grensa	-5369
▁latter	-5370
▁people	-5371
▁sangen	-5372
▁sports	-5373
▁uppmär	-5374
▁århund	-5375
tainment	-5376
▁America	-5377
▁Amerika	-5378
▁Camilla	-5379
▁Nikolai	-5380
▁Roberts	-5381
▁Vietnam	-5382
▁Vilhelm	-5383
▁nominer	-5384
▁normalt	-5385
▁norrønt	-5386
▁opprett	-5387
▁respekt	-5388
▁reviews	-5389
▁studier	-5390
▁sørvest	-5391
▁Østfold	-5392
sminister	-5393
▁eksempel	-5394
▁konstnär	-5395
▁nordiske	-5396
▁omfatter	-5397
▁vocalist	-5398
▁Schleswig	-5399
▁Sugababes	-5400
▁alongside	-5401
▁kilometer	-5402
▁olympiske	-5403
ifestivalen	-5404
▁Programmet	-5405
▁arvefølgen	-5406
▁genombrott	-5407
▁offisielle	-5408
▁supporting	-5409
▁Amalienborg	-5410
▁Universitetet	-5411
▁ursprungligen	-5412
FC	-5413
ju	-5414
aen	-5415
ape	-5416
day	-5417
era	-5418
fte	-5419
hög	-5420
ink	-5421
løy	-5422
nem	-5423
oks	-5424
sor	-5425
äff	-5426
▁55	-5427
▁99	-5428
▁AS	-5429
▁IP	-5430
▁Il	-5431
▁ir	-5432
abri	-5433
aked	-5434
asia	-5435
aust	-5436
bama	-5437
bour	-5438
ells	-5439
igan	-5440
iget	-5441
iggo	-5442
line	-5443
onde	-5444
oten	-5445
post	-5446
takt	-5447
utin	-5448
veck	-5449
▁Beg	-5450
▁Bok	-5451
▁Dal	-5452
▁Ern	-5453
▁Gal	-5454
▁Græ	-5455
▁Hed	-5456
▁Här	-5457
▁Mac	-5458
▁Row	-5459
▁Top	-5460
▁Var	-5461
▁bur	-5462
▁erh	-5463
▁jap	-5464
▁pra	-5465
▁rum	-5466
▁und	-5467
▁ute	-5468
▁vän	-5469
arnas	-5470
attle	-5471
efter	-5472
erede	-5473
hagen	-5474
ively	-5475
skilt	-5476
strup	-5477
vende	-5478
▁Borg	-5479
▁Comm	-5480
▁Face	-5481
▁Laur	-5482
▁Lill	-5483
▁Lisa	-5484
▁Mads	-5485
▁Stan	-5486
▁YouT	-5487
▁allt	-5488
▁days	-5489
▁ever	-5490
▁finn	-5491
▁glob	-5492
▁gres	-5493
▁grev	-5494
▁kant	-5495
▁prim	-5496
▁sele	-5497
▁teik	-5498
kretær	-5499
ligere	-5500
mannen	-5501
spolit	-5502
▁Anton	-5503
▁Bodil	-5504
▁Felix	-5505
▁Kevin	-5506
▁Luxem	-5507
▁Movie	-5508
▁Ordet	-5509
▁Viggo	-5510
▁avled	-5511
▁boede	-5512
▁flest	-5513
▁hjelp	-5514
▁inneh	-5515
▁omtal	-5516
▁oprin	-5517
▁separ	-5518
▁sjakk	-5519
▁sonen	-5520
▁uttal	-5521
isering	-5522
▁Danish	-5523
▁Danske	-5524
▁Højhed	-5525
▁Manche	-5526
▁Senere	-5527
▁Silvia	-5528
▁blivit	-5529
▁familj	-5530
▁forret	-5531
▁hundre	-5532
▁kallas	-5533
▁kvinne	-5534
▁stemme	-5535
▁touchd	-5536
eskommun	-5537
▁austral	-5538
▁manliga	-5539
▁prinsen	-5540
▁private	-5541
▁seasons	-5542
▁utanför	-5543
▁Caroline	-5544
▁Historia	-5545
▁Johannes	-5546
▁Svensson	-5547
▁hovedsak	-5548
▁invånare	-5549
▁kongehus	-5550
▁tvilling	-5551
▁Rasmussen	-5552
▁franchise	-5553
▁historisk	-5554
▁Glücksborg	-5555
▁Manchester	-5556
▁Sønderborg	-5557
▁sammenlagt	-5558
▁screenplay	-5559
23	-5560
ci	-5561
fr	-5562
ko	-5563
▁Æ	-5564
ads	-5565
bes	-5566
eln	-5567
fär	-5568
nte	-5569
omo	-5570
ulf	-5571
øen	-5572
▁42	-5573
▁Az	-5574
▁Sø	-5575
aldt	-5576
cean	-5577
cher	-5578
icia	-5579
isar	-5580
jerg	-5581
komm	-5582
midt	-5583
ness	-5584
omer	-5585
otta	-5586
rade	-5587
rätt	-5588
sdal	-5589
vald	-5590
valt	-5591
ydig	-5592
▁Eva	-5593
▁Law	-5594
▁Mex	-5595
▁NHL	-5596
▁Ola	-5597
▁Sun	-5598
▁XXX	-5599
▁deg	-5600
▁emb	-5601
▁fur	-5602
▁ide	-5603
▁mis	-5604
▁nya	-5605
acher	-5606
adrat	-5607
atisk	-5608
derne	-5609
ellen	-5610
essee	-5611
feldt	-5612
fører	-5613
gaver	-5614
idder	-5615
izzie	-5616
lande	-5617
paret	-5618
raust	-5619
▁1917	-5620
▁1923	-5621
▁Chin	-5622
▁Emil	-5623
▁Ford	-5624
▁Math	-5625
▁Nils	-5626
▁They	-5627
▁cand	-5628
▁each	-5629
▁fall	-5630
▁føre	-5631
▁oppt	-5632
▁phot	-5633
▁skip	-5634
▁stru	-5635
errike	-5636
harmon	-5637
ibland	-5638
ughter	-5639
▁Assoc	-5640
▁Clark	-5641
▁Grund	-5642
▁Huset	-5643
▁Korea	-5644
▁Slott	-5645
▁Stone	-5646
▁chart	-5647
▁leiar	-5648
▁moved	-5649
▁parti	-5650
▁sista	-5651
▁slutt	-5652
▁slått	-5653
▁story	-5654
området	-5655
▁Career	-5656
▁Dizzie	-5657
▁Follow	-5658
▁Græken	-5659
▁Lynyrd	-5660
▁Marvel	-5661
▁Musikk	-5662
▁Warner	-5663
▁become	-5664
▁gonger	-5665
▁greske	-5666
▁having	-5667
▁interv	-5668
▁kammer	-5669
▁kompos	-5670
▁normal	-5671
▁oppdag	-5672
▁partic	-5673
▁placer	-5674
▁prosje	-5675
▁report	-5676
▁stedet	-5677
▁stream	-5678
▁syskon	-5679
▁varier	-5680
fattaren	-5681
▁Patrick	-5682
▁Profess	-5683
▁Skynyrd	-5684
▁Spanien	-5685
▁Windsor	-5686
▁acclaim	-5687
▁critics	-5688
▁fødsels	-5689
▁grossed	-5690
▁konsert	-5691
▁skriven	-5692
▁stemmer	-5693
▁Atlanter	-5694
▁hovudsak	-5695
▁kunstner	-5696
▁territor	-5697
▁Tennessee	-5698
▁nominated	-5699
▁performed	-5700
▁regerings	-5701
▁Austerrike	-5702
▁commercial	-5703
▁instrument	-5704
▁prominence	-5705
▁viktigaste	-5706
▁begyndelsen	-5707
▁efterfølgende	-5708
TO	-5709
bi	-5710
bel	-5711
chn	-5712
fäl	-5713
ini	-5714
nev	-5715
omi	-5716
ota	-5717
ows	-5718
row	-5719
uts	-5720
äck	-5721
åra	-5722
▁37	-5723
▁41	-5724
▁88	-5725
▁IF	-5726
▁cy	-5727
▁jr	-5728
▁læ	-5729
akth	-5730
cept	-5731
edøm	-5732
gjen	-5733
håll	-5734
iale	-5735
istr	-5736
raff	-5737
rikk	-5738
skil	-5739
slen	-5740
tein	-5741
verd	-5742
well	-5743
älla	-5744
▁165	-5745
▁Cru	-5746
▁Fyr	-5747
▁Hov	-5748
▁Hus	-5749
▁Jes	-5750
▁Lis	-5751
▁Mah	-5752
▁Mia	-5753
▁Pak	-5754
▁Pil	-5755
▁Rem	-5756
▁Res	-5757
▁Run	-5758
▁aud	-5759
▁beh	-5760
▁eff	-5761
▁ful	-5762
▁inc	-5763
▁inf	-5764
▁kjø	-5765
▁kry	-5766
▁log	-5767
▁nem	-5768
▁sim	-5769
▁stå	-5770
▁tio	-5771
cklen	-5772
eligt	-5773
esong	-5774
forma	-5775
jinga	-5776
nande	-5777
ordet	-5778
qvist	-5779
round	-5780
stall	-5781
vekst	-5782
yrkan	-5783
▁1500	-5784
▁Card	-5785
▁Chic	-5786
▁Corn	-5787
▁Egon	-5788
▁Gent	-5789
▁Gjer	-5790
▁Long	-5791
▁Penn	-5792
▁Ring	-5793
▁Rolf	-5794
▁Vamp	-5795
▁Zant	-5796
▁came	-5797
▁died	-5798
▁fred	-5799
▁kjøp	-5800
▁late	-5801
▁lyck	-5802
▁makt	-5803
▁männ	-5804
▁natt	-5805
▁næst	-5806
▁rätt	-5807
▁skol	-5808
▁skre	-5809
▁unge	-5810
▁vars	-5811
▁went	-5812
arthqu	-5813
ential	-5814
lighet	-5815
songer	-5816
teater	-5817
▁Asker	-5818
▁Black	-5819
▁Dagen	-5820
▁Gabri	-5821
▁Gotha	-5822
▁Sonja	-5823
▁Tunes	-5824
▁ansat	-5825
▁bedst	-5826
▁føder	-5827
▁kända	-5828
▁kåret	-5829
▁piano	-5830
▁shows	-5831
▁skudd	-5832
▁state	-5833
▁there	-5834
▁times	-5835
▁tourn	-5836
danning	-5837
esidens	-5838
inburgh	-5839
sterrik	-5840
▁Argent	-5841
▁Coburg	-5842
▁Factor	-5843
▁Hammar	-5844
▁Oscars	-5845
▁Player	-5846
▁astron	-5847
▁berätt	-5848
▁bosatt	-5849
▁contin	-5850
▁delvis	-5851
▁dennes	-5852
▁formed	-5853
▁fremst	-5854
▁fylker	-5855
▁følger	-5856
▁league	-5857
▁lokale	-5858
▁making	-5859
▁meddel	-5860
▁säsong	-5861
▁temper	-5862
▁Örebro	-5863
▁Schweiz	-5864
▁Ukraina	-5865
▁created	-5866
▁filosof	-5867
▁konkurr	-5868
▁kvadrat	-5869
▁nynorsk	-5870
▁skihopp	-5871
▁special	-5872
▁søraust	-5873
▁tillhör	-5874
▁ungdoms	-5875
akthrough	-5876
▁Broadway	-5877
▁Eriksson	-5878
▁Facebook	-5879
▁Festival	-5880
▁Geografi	-5881
▁militære	-5882
▁tilhører	-5883
▁ægteskab	-5884
▁Christina	-5885
▁Edinburgh	-5886
▁Following	-5887
▁Priscilla	-5888
▁Rosenborg	-5889
▁arbejdede	-5890
▁bestående	-5891
▁dåvarande	-5892
▁flertydig	-5893
▁grunnlagt	-5894
▁karrieren	-5895
▁kvinnliga	-5896
▁produsert	-5897
▁Filmografi	-5898
▁Grækenland	-5899
▁Kristoffer	-5900
▁debutalbum	-5901
▁debuterade	-5902
▁medvirkede	-5903
▁production	-5904
▁regeringen	-5905
▁tournament	-5906
▁Christoffer	-5907
▁låtskrivare	-5908
▁championship	-5909
▁Christiansborg	-5910
kh	-5911
ér	-5912
ati	-5913
bil	-5914
lys	-5915
løs	-5916
rør	-5917
ued	-5918
öra	-5919
ørk	-5920
▁85	-5921
▁Ib	-5922
▁Jr	-5923
▁Li	-5924
▁Ør	-5925
alde	-5926
burn	-5927
cken	-5928
elin	-5929
ensl	-5930
gran	-5931
hatt	-5932
idge	-5933
kamp	-5934
lach	-5935
leik	-5936
osed	-5937
ound	-5938
sala	-5939
sequ	-5940
sken	-5941
skin	-5942
svis	-5943
tert	-5944
urch	-5945
yrka	-5946
▁177	-5947
▁365	-5948
▁800	-5949
▁Fle	-5950
▁Hug	-5951
▁Høy	-5952
▁Leg	-5953
▁Møl	-5954
▁Mün	-5955
▁Naz	-5956
▁Når	-5957
▁Sjå	-5958
▁Sty	-5959
▁Tøn	-5960
▁Vas	-5961
▁bra	-5962
▁dig	-5963
▁ish	-5964
▁kär	-5965
▁mob	-5966
▁non	-5967
▁ren	-5968
▁sjå	-5969
▁sve	-5970
andid	-5971
andra	-5972
dalen	-5973
ennis	-5974
ental	-5975
estin	-5976
eteor	-5977
heder	-5978
illed	-5979
kjent	-5980
ktion	-5981
musik	-5982
neipp	-5983
riket	-5984
sjøen	-5985
ømmer	-5986
▁1908	-5987
▁1925	-5988
▁Alle	-5989
▁Arne	-5990
▁Beat	-5991
▁Cast	-5992
▁Ever	-5993
▁Ivan	-5994
▁Kass	-5995
▁Live	-5996
▁Mike	-5997
▁Nick	-5998
▁Popp	-5999
▁Vikt	-6000
▁eige	-6001
▁inng	-6002
▁mist	-6003
▁nära	-6004
▁skid	-6005
▁skog	-6006
▁slag	-6007
▁spør	-6008
▁tour	-6009
▁vise	-6010
▁Åles	-6011
former	-6012
imedia	-6013
ligare	-6014
metime	-6015
system	-6016
udover	-6017
årsdag	-6018
▁Bland	-6019
▁Eleon	-6020
▁Heart	-6021
▁Josef	-6022
▁Karin	-6023
▁Salah	-6024
▁Store	-6025
▁blive	-6026
▁celeb	-6027
▁civil	-6028
▁fandt	-6029
▁foret	-6030
▁frist	-6031
▁lenge	-6032
▁lærer	-6033
▁måned	-6034
▁nokon	-6035
▁udvik	-6036
▁varje	-6037
▁viste	-6038
ampions	-6039
igheten	-6040
pendent	-6041
▁Første	-6042
▁Gymnas	-6043
▁Jesper	-6044
▁Middel	-6045
▁Spania	-6046
▁Tromsø	-6047
▁driver	-6048
▁illust	-6049
▁kjende	-6050
▁konser	-6051
▁omtalt	-6052
▁plater	-6053
▁portug	-6054
▁senior	-6055
▁solgte	-6056
▁spelat	-6057
▁sprint	-6058
▁titler	-6059
▁vanlig	-6060
▁Holmenk	-6061
▁Mecklen	-6062
▁Opvækst	-6063
▁Ronaldo	-6064
▁Svenska	-6065
▁Teatret	-6066
▁flertal	-6067
▁fodbold	-6068
▁framför	-6069
▁handlar	-6070
▁largest	-6071
▁utenfor	-6072
▁Ålesund	-6073
▁Sørensen	-6074
▁artister	-6075
▁becoming	-6076
▁eftersom	-6077
▁modtaget	-6078
▁Primetime	-6079
▁arrangert	-6080
▁bokstaven	-6081
▁eksemplar	-6082
▁tidspunkt	-6083
▁Eurovision	-6084
▁debuterede	-6085
▁instruktør	-6086
▁världskrig	-6087
▁appearances	-6088
▁opprinnelig	-6089
▁breakthrough	-6090
▁forskjellige	-6091
▁programleiar	-6092
▁Kronprinsesse	-6093
▁Sovjetunionen	-6094
▁Statsminister	-6095
▁langrennsløper	-6096
nu	-6097
vi	-6098
äc	-6099
▁x	-6100
ano	-6101
awa	-6102
fæl	-6103
gin	-6104
ijk	-6105
ila	-6106
iva	-6107
udi	-6108
yer	-6109
▁75	-6110
▁82	-6111
▁Fj	-6112
▁Gh	-6113
▁Oh	-6114
▁dj	-6115
▁ko	-6116
akes	-6117
alte	-6118
aman	-6119
beck	-6120
bund	-6121
edde	-6122
enes	-6123
igde	-6124
ilog	-6125
keri	-6126
ktur	-6127
løst	-6128
mund	-6129
nant	-6130
owns	-6131
stra	-6132
tere	-6133
ämnd	-6134
åpen	-6135
▁ABC	-6136
▁Arm	-6137
▁Auk	-6138
▁Bas	-6139
▁Fog	-6140
▁Gaz	-6141
▁Hep	-6142
▁Hor	-6143
▁Lau	-6144
▁Not	-6145
▁Pan	-6146
▁Sar	-6147
▁Tal	-6148
▁Von	-6149
▁bag	-6150
▁hom	-6151
▁tår	-6152
arius	-6153
endal	-6154
eslag	-6155
ipend	-6156
itary	-6157
itler	-6158
naden	-6159
press	-6160
rence	-6161
skild	-6162
sunam	-6163
ubile	-6164
unnit	-6165
ystem	-6166
ætter	-6167
▁1814	-6168
▁1916	-6169
▁1932	-6170
▁Arts	-6171
▁Arve	-6172
▁Club	-6173
▁Comp	-6174
▁Hood	-6175
▁Iran	-6176
▁Jane	-6177
▁Norr	-6178
▁Ober	-6179
▁Sunn	-6180
▁Team	-6181
▁Your	-6182
▁ball	-6183
▁bara	-6184
▁defe	-6185
▁disp	-6186
▁find	-6187
▁gode	-6188
▁gått	-6189
▁half	-6190
▁hjæl	-6191
▁kone	-6192
▁lans	-6193
▁line	-6194
▁mynd	-6195
▁shar	-6196
▁trop	-6197
▁uppt	-6198
▁vere	-6199
enburg	-6200
ingham	-6201
lighed	-6202
stedet	-6203
trädde	-6204
undsen	-6205
▁Crash	-6206
▁Engel	-6207
▁Faren	-6208
▁Gener	-6209
▁Kroat	-6210
▁Qatar	-6211
▁Times	-6212
▁deira	-6213
▁energ	-6214
▁föret	-6215
▁heldt	-6216
▁kines	-6217
▁kusin	-6218
▁lista	-6219
▁längd	-6220
▁mater	-6221
▁nogle	-6222
▁sport	-6223
▁suver	-6224
▁svart	-6225
▁trekk	-6226
▁vissa	-6227
▁våren	-6228
▁Bandet	-6229
▁Belgia	-6230
▁Columb	-6231
▁Cooper	-6232
▁Wagner	-6233
▁ambass	-6234
▁around	-6235
▁arrang	-6236
▁brukar	-6237
▁filmat	-6238
▁fylkes	-6239
▁indust	-6240
▁natten	-6241
▁sånger	-6242
▁titlen	-6243
▁utgitt	-6244
▁valgte	-6245
▁øvrige	-6246
handling	-6247
ologiske	-6248
▁Andrews	-6249
▁Anthony	-6250
▁Chinese	-6251
▁Kommune	-6252
▁Spanish	-6253
▁Uppsala	-6254
▁element	-6255
▁feature	-6256
▁kallade	-6257
▁meister	-6258
▁perform	-6259
▁stammer	-6260
▁udnævnt	-6261
▁Eleonora	-6262
▁Harrison	-6263
▁artiklar	-6264
▁daughter	-6265
▁elektron	-6266
▁ishockey	-6267
▁musikken	-6268
▁positive	-6269
▁spesielt	-6270
▁säsonger	-6271
▁Wikimedia	-6272
▁delstater	-6273
▁developed	-6274
▁historien	-6275
▁hovedstad	-6276
▁huvudroll	-6277
▁hovedrolle	-6278
▁Mecklenburg	-6279
▁amerikanska	-6280
▁fylkeskommun	-6281
▁Rigshospitalet	-6282
19	-6283
TV	-6284
ki	-6285
lä	-6286
amt	-6287
bæk	-6288
dra	-6289
ief	-6290
iem	-6291
lon	-6292
oke	-6293
rak	-6294
vej	-6295
åda	-6296
▁44	-6297
▁47	-6298
▁63	-6299
▁CE	-6300
▁FC	-6301
▁Ga	-6302
▁Hy	-6303
▁MM	-6304
▁lo	-6305
▁ær	-6306
ayed	-6307
dere	-6308
dest	-6309
esen	-6310
gade	-6311
gift	-6312
hets	-6313
ifth	-6314
ikon	-6315
ival	-6316
orps	-6317
ovak	-6318
pass	-6319
plan	-6320
prin	-6321
rant	-6322
rees	-6323
rime	-6324
rone	-6325
uxen	-6326
äckt	-6327
øren	-6328
▁150	-6329
▁176	-6330
▁Aqu	-6331
▁Ark	-6332
▁Dem	-6333
▁Där	-6334
▁Eit	-6335
▁Hem	-6336
▁Inc	-6337
▁Led	-6338
▁Mod	-6339
▁Nat	-6340
▁Reb	-6341
▁Syl	-6342
▁Two	-6343
▁any	-6344
▁gem	-6345
▁née	-6346
▁præ	-6347
▁sär	-6348
▁ænd	-6349
adern	-6350
asser	-6351
bejde	-6352
deles	-6353
ified	-6354
ikten	-6355
ished	-6356
ising	-6357
lades	-6358
loven	-6359
norsk	-6360
nsson	-6361
ocken	-6362
staur	-6363
verka	-6364
ärare	-6365
▁1600	-6366
▁1931	-6367
▁Anni	-6368
▁Blue	-6369
▁Bodø	-6370
▁Camp	-6371
▁Coll	-6372
▁Fair	-6373
▁Fran	-6374
▁Game	-6375
▁Isab	-6376
▁Kamp	-6377
▁Kari	-6378
▁Life	-6379
▁Otto	-6380
▁Real	-6381
▁Serb	-6382
▁Stad	-6383
▁What	-6384
▁adop	-6385
▁dels	-6386
▁fame	-6387
▁fart	-6388
▁flyg	-6389
▁jobb	-6390
▁miss	-6391
▁mænd	-6392
▁opnå	-6393
▁pron	-6394
▁prop	-6395
▁term	-6396
ensive	-6397
ingane	-6398
istent	-6399
ringen	-6400
samisk	-6401
skilde	-6402
skjelv	-6403
▁Anker	-6404
▁Bruck	-6405
▁Enter	-6406
▁Kirke	-6407
▁Media	-6408
▁Molde	-6409
▁Story	-6410
▁Viken	-6411
▁about	-6412
▁altså	-6413
▁anses	-6414
▁broad	-6415
▁colla	-6416
▁compl	-6417
▁danna	-6418
▁desig	-6419
▁frien	-6420
▁halvt	-6421
▁hæren	-6422
▁klubb	-6423
▁konfl	-6424
▁mødte	-6425
▁neder	-6426
▁poäng	-6427
▁prakt	-6428
▁sange	-6429
▁sikre	-6430
emplate	-6431
esøster	-6432
handler	-6433
isjonen	-6434
▁Arnold	-6435
▁Fylket	-6436
▁Puigde	-6437
▁Stille	-6438
▁Willie	-6439
▁barnet	-6440
▁dramas	-6441
▁ekonom	-6442
▁forlov	-6443
▁govern	-6444
▁hosted	-6445
▁igenom	-6446
▁jobbet	-6447
▁kejser	-6448
▁koncer	-6449
▁modtog	-6450
▁rekord	-6451
▁sister	-6452
▁skreiv	-6453
▁titles	-6454
karriere	-6455
mentator	-6456
▁Contest	-6457
▁Gjennom	-6458
▁Lennart	-6459
▁YouTube	-6460
▁arabisk	-6461
▁engager	-6462
▁mennesk	-6463
▁nytårst	-6464
▁officer	-6465
▁områder	-6466
▁politik	-6467
▁present	-6468
▁records	-6469
▁restaur	-6470
▁started	-6471
▁tilsvar	-6472
▁Amundsen	-6473
▁Eksterne	-6474
▁European	-6475
▁Margrete	-6476
▁Pakistan	-6477
▁Universe	-6478
▁Williams	-6479
▁arabiske	-6480
▁distrikt	-6481
▁fotbolls	-6482
▁latinske	-6483
▁minister	-6484
▁republik	-6485
▁sentrale	-6486
▁Catherine	-6487
▁Donaldson	-6488
▁Mikkelsen	-6489
▁Privatliv	-6490
▁education	-6491
▁kalendern	-6492
▁nederland	-6493
▁nuvarande	-6494
▁nuværende	-6495
▁prinsessa	-6496
▁Österrike	-6497
partementet	-6498
▁Puigdemont	-6499
▁kongehuset	-6500
▁originally	-6501
▁previously	-6502
▁respektive	-6503
▁hovudsakleg	-6504
▁världskriget	-6505
▁skandinaviske	-6506
▁underholdning	-6507
▁kronprinsessan	-6508
▁socialdemokrat	-6509
NU	-6510
hr	-6511
ih	-6512
oo	-6513
ti	-6514
ze	-6515
aug	-6516
beg	-6517
cel	-6518
dig	-6519
ipl	-6520
kin	-6521
nan	-6522
osf	-6523
sid	-6524
tek	-6525
uck	-6526
unt	-6527
wen	-6528
▁34	-6529
▁56	-6530
▁Lø	-6531
▁Må	-6532
▁Ur	-6533
▁rø	-6534
▁ub	-6535
akar	-6536
bete	-6537
etty	-6538
imat	-6539
ktis	-6540
lagd	-6541
makt	-6542
mans	-6543
ralt	-6544
remi	-6545
skip	-6546
unne	-6547
vere	-6548
wijk	-6549
änst	-6550
ædik	-6551
ærum	-6552
▁Cal	-6553
▁Cam	-6554
▁Dol	-6555
▁Has	-6556
▁Kla	-6557
▁Lit	-6558
▁Pac	-6559
▁Pla	-6560
▁Roy	-6561
▁Sea	-6562
▁Sko	-6563
▁Swe	-6564
▁dep	-6565
▁doc	-6566
▁ele	-6567
▁hot	-6568
▁law	-6569
▁luf	-6570
▁lys	-6571
▁nøy	-6572
▁omd	-6573
▁psy	-6574
▁tab	-6575
▁tri	-6576
▁vol	-6577
▁wid	-6578
arded	-6579
asman	-6580
herre	-6581
lings	-6582
orpor	-6583
rarna	-6584
terte	-6585
trent	-6586
usive	-6587
▁1907	-6588
▁ABBA	-6589
▁Chat	-6590
▁Dani	-6591
▁Hver	-6592
▁Jeff	-6593
▁Juan	-6594
▁Khan	-6595
▁Mass	-6596
▁Midd	-6597
▁Sant	-6598
▁Sval	-6599
▁Värm	-6600
▁Walt	-6601
▁alko	-6602
▁båda	-6603
▁dage	-6604
▁erst	-6605
▁feir	-6606
▁fikt	-6607
▁grew	-6608
▁høgt	-6609
▁høve	-6610
▁mess	-6611
▁midt	-6612
▁near	-6613
▁open	-6614
▁pros	-6615
▁used	-6616
▁vari	-6617
▁vatn	-6618
▁wife	-6619
▁writ	-6620
asjons	-6621
deligt	-6622
egrupp	-6623
ention	-6624
iteter	-6625
ording	-6626
valget	-6627
ventyr	-6628
▁First	-6629
▁Fritz	-6630
▁Galen	-6631
▁Heide	-6632
▁Hæren	-6633
▁Irish	-6634
▁Julia	-6635
▁Norén	-6636
▁Vrees	-6637
▁begin	-6638
▁cover	-6639
▁engag	-6640
▁fifth	-6641
▁foran	-6642
▁hende	-6643
▁imper	-6644
▁indre	-6645
▁kropp	-6646
▁låtar	-6647
▁minor	-6648
▁motor	-6649
▁often	-6650
▁orden	-6651
▁owner	-6652
▁repla	-6653
▁seier	-6654
▁sette	-6655
▁skyld	-6656
▁stjer	-6657
▁söder	-6658
▁teams	-6659
▁vilka	-6660
▁vorte	-6661
▁would	-6662
ländska	-6663
olution	-6664
stendig	-6665
stället	-6666
ubileum	-6667
▁Ifølge	-6668
▁Kilmer	-6669
▁Marian	-6670
▁Mellom	-6671
▁Mexico	-6672
▁Portug	-6673
▁Samtid	-6674
▁Ungdom	-6675
▁aldrig	-6676
▁celebr	-6677
▁female	-6678
▁finans	-6679
▁indbyg	-6680
▁invest	-6681
▁joined	-6682
▁lenger	-6683
▁primar	-6684
▁rekkje	-6685
▁stader	-6686
▁sändes	-6687
▁totalt	-6688
▁utgang	-6689
skaparna	-6690
▁Charlie	-6691
▁Laborde	-6692
▁arbejde	-6693
▁century	-6694
▁innhald	-6695
▁kommers	-6696
▁matemat	-6697
▁människ	-6698
▁sentral	-6699
▁vitskap	-6700
▁Bruckner	-6701
▁Internet	-6702
▁Isabella	-6703
▁Jacobsen	-6704
▁Tønsberg	-6705
▁champion	-6706
▁efterful	-6707
▁interess	-6708
▁portugis	-6709
▁romantic	-6710
▁romerske	-6711
▁släpptes	-6712
▁Kristians	-6713
▁Stavanger	-6714
▁forsanger	-6715
▁kvarandre	-6716
▁musikalen	-6717
▁regissert	-6718
▁Australian	-6719
▁Margaretha	-6720
▁Nyårsdagen	-6721
▁landslaget	-6722
▁musikalske	-6723
▁Association	-6724
▁Tillsammans	-6725
▁fyrstehuset	-6726
▁recognition	-6727
▁produktioner	-6728
▁utgangspunkt	-6729
▁Atlanterhavet	-6730
▁Västergötland	-6731
▁kongefamilien	-6732
▁administrative	-6733
15	-6734
24	-6735
30	-6736
BN	-6737
BS	-6738
án	-6739
amf	-6740
ava	-6741
bot	-6742
con	-6743
eck	-6744
eks	-6745
fra	-6746
fug	-6747
kil	-6748
ois	-6749
osa	-6750
sag	-6751
sky	-6752
▁AI	-6753
▁BC	-6754
▁CO	-6755
aken	-6756
bard	-6757
best	-6758
bets	-6759
emen	-6760
fall	-6761
fron	-6762
føre	-6763
hert	-6764
hood	-6765
isco	-6766
isin	-6767
mest	-6768
ntak	-6769
self	-6770
sing	-6771
sper	-6772
stal	-6773
stil	-6774
used	-6775
vrig	-6776
▁Ath	-6777
▁Bam	-6778
▁Bet	-6779
▁Cop	-6780
▁Emp	-6781
▁Ett	-6782
▁Fem	-6783
▁Lie	-6784
▁Pop	-6785
▁Try	-6786
▁Veg	-6787
▁box	-6788
▁bus	-6789
▁cat	-6790
▁fab	-6791
▁fir	-6792
▁fre	-6793
▁hin	-6794
▁jud	-6795
▁løb	-6796
▁mur	-6797
▁pen	-6798
▁vik	-6799
▁vår	-6800
▁öpp	-6801
aksen	-6802
antar	-6803
ellig	-6804
elson	-6805
enten	-6806
hoved	-6807
innan	-6808
inner	-6809
istar	-6810
linga	-6811
områd	-6812
order	-6813
start	-6814
tnant	-6815
usten	-6816
▁1863	-6817
▁1872	-6818
▁1915	-6819
▁Army	-6820
▁Bang	-6821
▁Bjer	-6822
▁Brun	-6823
▁Både	-6824
▁Gorm	-6825
▁Hend	-6826
▁Ikke	-6827
▁Kvin	-6828
▁Mand	-6829
▁Mold	-6830
▁NATO	-6831
▁Oliv	-6832
▁Open	-6833
▁Plot	-6834
▁Simp	-6835
▁Sten	-6836
▁Vold	-6837
▁dele	-6838
▁erob	-6839
▁fisk	-6840
▁home	-6841
▁krav	-6842
▁left	-6843
▁meld	-6844
▁måte	-6845
▁näst	-6846
▁phil	-6847
▁raud	-6848
▁runt	-6849
▁tale	-6850
▁tids	-6851
▁utgå	-6852
▁vict	-6853
▁väst	-6854
▁whom	-6855
▁ægte	-6856
amerik	-6857
aparte	-6858
avheng	-6859
parten	-6860
sdelen	-6861
ställd	-6862
verket	-6863
▁Bruce	-6864
▁Bærum	-6865
▁Detta	-6866
▁Group	-6867
▁Helle	-6868
▁Party	-6869
▁Sande	-6870
▁Since	-6871
▁Skjer	-6872
▁Troll	-6873
▁Verde	-6874
▁adapt	-6875
▁aldri	-6876
▁birth	-6877
▁comed	-6878
▁dessa	-6879
▁finsk	-6880
▁gamla	-6881
▁gifta	-6882
▁invol	-6883
▁marri	-6884
▁melod	-6885
▁mixed	-6886
▁power	-6887
▁prote	-6888
▁punkt	-6889
▁raskt	-6890
▁short	-6891
▁spent	-6892
▁sprog	-6893
▁stopp	-6894
▁strid	-6895
▁style	-6896
▁trett	-6897
▁users	-6898
▁äkten	-6899
asjonar	-6900
debuter	-6901
igheder	-6902
▁Hitler	-6903
▁Ivanho	-6904
▁Majest	-6905
▁Melodi	-6906
▁Salten	-6907
▁Sloven	-6908
▁Steven	-6909
▁Vinter	-6910
▁arkite	-6911
▁barneb	-6912
▁common	-6913
▁därmed	-6914
▁gruppa	-6915
▁heller	-6916
▁høyrer	-6917
▁ifølge	-6918
▁kaldet	-6919
▁kalles	-6920
▁kyrkja	-6921
▁months	-6922
▁rights	-6923
▁skilde	-6924
▁skrift	-6925
▁sønner	-6926
▁tronar	-6927
▁utsågs	-6928
▁utveck	-6929
▁vatten	-6930
▁winner	-6931
▁writer	-6932
▁äldste	-6933
secutive	-6934
årsaften	-6935
▁Florida	-6936
▁Georgia	-6937
▁Harvard	-6938
▁History	-6939
▁Indones	-6940
▁Spencer	-6941
▁Tidlige	-6942
▁Zealand	-6943
▁dialekt	-6944
▁endring	-6945
▁enkelte	-6946
▁eventyr	-6947
▁follows	-6948
▁further	-6949
▁husband	-6950
▁kontakt	-6951
▁players	-6952
▁selskap	-6953
▁working	-6954
enborgske	-6955
▁Andersen	-6956
▁Arbeider	-6957
▁Karlsson	-6958
▁Michigan	-6959
▁Princess	-6960
▁Svalbard	-6961
▁addition	-6962
▁ekteskap	-6963
▁fotograf	-6964
▁framleis	-6965
▁gitarist	-6966
▁håndbold	-6967
▁included	-6968
▁kontrakt	-6969
▁military	-6970
▁musikere	-6971
▁nordaust	-6972
▁nordlege	-6973
▁publikum	-6974
▁redaktør	-6975
▁systemet	-6976
▁utdannet	-6977
▁Francisco	-6978
▁Gymnasium	-6979
▁Johansson	-6980
▁Staveland	-6981
▁Steinbeck	-6982
▁Vreeswijk	-6983
▁regerande	-6984
▁statsover	-6985
▁Kongeriket	-6986
▁Television	-6987
▁låtskriver	-6988
▁revolusjon	-6989
▁Alexandrine	-6990
▁Middelhavet	-6991
▁verdskrigen	-6992
▁ytterligare	-6993
▁befolkningen	-6994
▁Galenskaparna	-6995
▁skådespelaren	-6996
▁Socialdemokrat	-6997
▁Storbritanniens	-6998
▁manusförfattare	-6999
mo	-7000
tj	-7001
ua	-7002
wa	-7003
zy	-7004
EFA	-7005
aut	-7006
bag	-7007
bry	-7008
com	-7009
fil	-7010
hop	-7011
ids	-7012
lek	-7013
lik	-7014
män	-7015
ogs	-7016
olo	-7017
pan	-7018
sat	-7019
sex	-7020
sjö	-7021
tar	-7022
uff	-7023
uly	-7024
æra	-7025
æss	-7026
▁48	-7027
▁81	-7028
▁87	-7029
▁Ax	-7030
▁Bø	-7031
▁Så	-7032
▁VG	-7033
▁ej	-7034
▁hy	-7035
adet	-7036
bart	-7037
dern	-7038
erie	-7039
erin	-7040
estr	-7041
flyt	-7042
idde	-7043
ifin	-7044
imot	-7045
inte	-7046
ione	-7047
irée	-7048
klar	-7049
lere	-7050
leve	-7051
namn	-7052
onia	-7053
osse	-7054
ract	-7055
rick	-7056
stam	-7057
unna	-7058
vind	-7059
wald	-7060
wing	-7061
▁158	-7062
▁169	-7063
▁App	-7064
▁Aud	-7065
▁Dir	-7066
▁Høg	-7067
▁Jos	-7068
▁Les	-7069
▁Lib	-7070
▁Mic	-7071
▁Pap	-7072
▁Rav	-7073
▁Sta	-7074
▁XII	-7075
▁dyr	-7076
▁etn	-7077
▁key	-7078
▁rej	-7079
▁sek	-7080
▁sjø	-7081
▁spe	-7082
▁tyd	-7083
ancer	-7084
annel	-7085
banen	-7086
cover	-7087
egård	-7088
ellow	-7089
ettet	-7090
jorde	-7091
leton	-7092
shold	-7093
skift	-7094
srett	-7095
undes	-7096
ungen	-7097
uthor	-7098
zilla	-7099
øerne	-7100
øyene	-7101
▁1808	-7102
▁1882	-7103
▁Buck	-7104
▁Char	-7105
▁Dess	-7106
▁Fast	-7107
▁Hann	-7108
▁ISBN	-7109
▁Line	-7110
▁Pier	-7111
▁Ross	-7112
▁Salm	-7113
▁Sher	-7114
▁Side	-7115
▁Supp	-7116
▁bank	-7117
▁byer	-7118
▁döpt	-7119
▁egne	-7120
▁exec	-7121
▁foun	-7122
▁grän	-7123
▁hard	-7124
▁hits	-7125
▁hjäl	-7126
▁nivå	-7127
▁page	-7128
▁prov	-7129
▁tele	-7130
▁åtta	-7131
ablish	-7132
asters	-7133
iggins	-7134
imited	-7135
itions	-7136
landsk	-7137
nelsen	-7138
rennet	-7139
rifter	-7140
steder	-7141
unched	-7142
wealth	-7143
▁Brown	-7144
▁Bästa	-7145
▁Dance	-7146
▁Found	-7147
▁Franz	-7148
▁Games	-7149
▁Messi	-7150
▁Roger	-7151
▁Skole	-7152
▁Sunnm	-7153
▁Tamil	-7154
▁Union	-7155
▁Vinci	-7156
▁Women	-7157
▁abdic	-7158
▁alene	-7159
▁crime	-7160
▁egypt	-7161
▁elect	-7162
▁ensem	-7163
▁fører	-7164
▁holdt	-7165
▁human	-7166
▁landa	-7167
▁large	-7168
▁levde	-7169
▁lærte	-7170
▁novel	-7171
▁omkom	-7172
▁redan	-7173
▁runde	-7174
▁satte	-7175
▁udkom	-7176
▁varav	-7177
ensborg	-7178
ensinde	-7179
eringen	-7180
ikation	-7181
landske	-7182
outhern	-7183
plassen	-7184
respond	-7185
stjerne	-7186
▁Alfred	-7187
▁Blanch	-7188
▁Common	-7189
▁County	-7190
▁Erling	-7191
▁Gunnar	-7192
▁Hammer	-7193
▁Master	-7194
▁Nelson	-7195
▁Norden	-7196
▁Stolpe	-7197
▁Studio	-7198
▁Tasman	-7199
▁Victor	-7200
▁bokmål	-7201
▁borger	-7202
▁brukes	-7203
▁endast	-7204
▁finnes	-7205
▁kandid	-7206
▁nyttår	-7207
▁ranked	-7208
▁scient	-7209
▁varian	-7210
▁videos	-7211
▁vunnit	-7212
orkester	-7213
steatern	-7214
tyskland	-7215
▁Actress	-7216
▁Alabama	-7217
▁Barndom	-7218
▁München	-7219
▁Schmidt	-7220
▁Toblach	-7221
▁används	-7222
▁baserad	-7223
▁erstatt	-7224
▁forkort	-7225
▁giftede	-7226
▁handler	-7227
▁inledde	-7228
▁introdu	-7229
▁overtog	-7230
▁procent	-7231
▁synonym	-7232
▁tiderna	-7233
▁tävlade	-7234
▁uavheng	-7235
▁unionen	-7236
arthquake	-7237
kilometer	-7238
▁collabor	-7239
▁consider	-7240
▁filmerna	-7241
▁grundlag	-7242
▁herunder	-7243
▁inneheld	-7244
▁istället	-7245
▁landslag	-7246
▁regionen	-7247
▁relation	-7248
▁returned	-7249
▁skiftede	-7250
▁statsråd	-7251
instrument	-7252
▁Dagbladet	-7253
▁Universal	-7254
▁establish	-7255
▁featuring	-7256
▁selskapet	-7257
▁vanlegvis	-7258
▁wrestling	-7259
▁økonomisk	-7260
▁Marienborg	-7261
▁historiske	-7262
▁instrueret	-7263
▁kvindelige	-7264
▁landskapet	-7265
▁nogensinde	-7266
▁officially	-7267
▁officielle	-7268
▁betegnelsen	-7269
▁development	-7270
▁independent	-7271
▁performance	-7272
▁tronföljden	-7273
▁Professional	-7274
▁individuelle	-7275
▁konstitution	-7276
▁oldenborgske	-7277
▁performances	-7278
▁universitetet	-7279
▁fotbollsspelare	-7280
oy	-7281
sr	-7282
és	-7283
asc	-7284
emy	-7285
fru	-7286
hel	-7287
län	-7288
læg	-7289
mir	-7290
ols	-7291
ope	-7292
ops	-7293
ram	-7294
roe	-7295
ros	-7296
sol	-7297
ukk	-7298
vil	-7299
æde	-7300
øgn	-7301
▁49	-7302
▁52	-7303
▁62	-7304
▁67	-7305
▁71	-7306
▁84	-7307
▁91	-7308
▁97	-7309
▁FN	-7310
▁Ko	-7311
▁SM	-7312
▁pj	-7313
ador	-7314
amot	-7315
aner	-7316
ania	-7317
ario	-7318
atan	-7319
auen	-7320
eset	-7321
eten	-7322
ffer	-7323
full	-7324
gdag	-7325
gjer	-7326
hjem	-7327
ills	-7328
ipal	-7329
itta	-7330
ives	-7331
kong	-7332
mene	-7333
ndag	-7334
olas	-7335
omon	-7336
phis	-7337
pros	-7338
sjef	-7339
skan	-7340
sång	-7341
ulen	-7342
väst	-7343
ynam	-7344
årig	-7345
▁Bad	-7346
▁But	-7347
▁Cur	-7348
▁Dam	-7349
▁Die	-7350
▁Dom	-7351
▁Dra	-7352
▁Dun	-7353
▁Død	-7354
▁Eld	-7355
▁Eug	-7356
▁Hum	-7357
▁Jew	-7358
▁Kom	-7359
▁Lil	-7360
▁Lyn	-7361
▁Mir	-7362
▁Mos	-7363
▁Nag	-7364
▁Now	-7365
▁Say	-7366
▁Set	-7367
▁Tir	-7368
▁car	-7369
▁cop	-7370
▁cor	-7371
▁def	-7372
▁fut	-7373
▁hor	-7374
▁kop	-7375
▁kän	-7376
▁mog	-7377
▁myt	-7378
▁oft	-7379
▁okk	-7380
▁opr	-7381
▁ref	-7382
▁sjö	-7383
▁slå	-7384
▁tag	-7385
▁tel	-7386
eball	-7387
ebror	-7388
endom	-7389
galan	-7390
gjort	-7391
iting	-7392
maker	-7393
plats	-7394
shire	-7395
skede	-7396
styre	-7397
xamen	-7398
▁1889	-7399
▁1913	-7400
▁Brad	-7401
▁Cher	-7402
▁Flem	-7403
▁Good	-7404
▁Grim	-7405
▁Home	-7406
▁Kjer	-7407
▁Krig	-7408
▁Leif	-7409
▁Mach	-7410
▁Mann	-7411
▁Noir	-7412
▁Også	-7413
▁Rick	-7414
▁Selv	-7415
▁Stig	-7416
▁UEFA	-7417
▁Verd	-7418
▁When	-7419
▁anti	-7420
▁biop	-7421
▁book	-7422
▁cour	-7423
▁desc	-7424
▁fatt	-7425
▁fjär	-7426
▁heil	-7427
▁help	-7428
▁hurt	-7429
▁jakt	-7430
▁klar	-7431
▁leve	-7432
▁mass	-7433
▁nine	-7434
▁opna	-7435
▁skud	-7436
▁sten	-7437
▁svar	-7438
▁uppv	-7439
▁view	-7440
▁will	-7441
ashion	-7442
bundet	-7443
hattan	-7444
iteten	-7445
kultur	-7446
köping	-7447
leburg	-7448
linger	-7449
remiär	-7450
republ	-7451
riften	-7452
status	-7453
usland	-7454
vokset	-7455
▁Canad	-7456
▁Dream	-7457
▁Ernst	-7458
▁Helen	-7459
▁Huvud	-7460
▁Jesus	-7461
▁Known	-7462
▁Numme	-7463
▁Ocean	-7464
▁Poppe	-7465
▁Shave	-7466
▁Sibyl	-7467
▁Ström	-7468
▁agent	-7469
▁alvor	-7470
▁angre	-7471
▁anven	-7472
▁attem	-7473
▁boken	-7474
▁darts	-7475
▁endra	-7476
▁fanns	-7477
▁fjord	-7478
▁foreg	-7479
▁forve	-7480
▁gjeve	-7481
▁liges	-7482
▁något	-7483
▁optræ	-7484
▁order	-7485
▁stund	-7486
▁såsom	-7487
▁troll	-7488
▁träff	-7489
▁tusen	-7490
▁urval	-7491
▁valde	-7492
▁woman	-7493
ademiet	-7494
borough	-7495
irektør	-7496
ization	-7497
konkurr	-7498
ordenen	-7499
ountain	-7500
teatret	-7501
uskript	-7502
verkeri	-7503
▁Bulgar	-7504
▁Fylkes	-7505
▁Indien	-7506
▁Jordan	-7507
▁Julian	-7508
▁Lystad	-7509
▁Petter	-7510
▁Samuel	-7511
▁Strand	-7512
▁Sweden	-7513
▁Vester	-7514
▁Virgin	-7515
▁actors	-7516
▁daglig	-7517
▁döptes	-7518
▁fordel	-7519
▁fourth	-7520
▁ibland	-7521
▁kvalif	-7522
▁perman	-7523
▁samlet	-7524
▁skolan	-7525
▁stater	-7526
▁sterkt	-7527
▁tsunam	-7528
▁utgjør	-7529
▁Østrig	-7530
industri	-7531
redaktør	-7532
▁Beatles	-7533
▁Company	-7534
▁Europas	-7535
▁Francis	-7536
▁Hepburn	-7537
▁Ivanhoe	-7538
▁Memphis	-7539
▁Nikolaj	-7540
▁Russian	-7541
▁Sinatra	-7542
▁Twitter	-7543
▁alkohol	-7544
▁content	-7545
▁dobbelt	-7546
▁fiction	-7547
▁fristil	-7548
▁henhold	-7549
▁kanalen	-7550
▁kraftig	-7551
▁kristne	-7552
▁miniser	-7553
▁månader	-7554
▁reached	-7555
▁science	-7556
▁slutade	-7557
▁starter	-7558
▁tilldel	-7559
▁virksom	-7560
▁Business	-7561
▁Deretter	-7562
▁Frankrig	-7563
▁Godzilla	-7564
▁Konstant	-7565
▁byrjinga	-7566
▁grossing	-7567
▁indspill	-7568
▁japanske	-7569
▁landskap	-7570
▁mandlige	-7571
▁omfattar	-7572
▁relativt	-7573
▁sommeren	-7574
▁starting	-7575
▁stilling	-7576
▁Berleburg	-7577
▁Institute	-7578
▁Manhattan	-7579
▁President	-7580
▁Springste	-7581
▁executive	-7582
▁framgångs	-7583
▁hvorefter	-7584
▁inkludert	-7585
▁institutt	-7586
▁julianske	-7587
▁politikar	-7588
▁regerende	-7589
▁samtidigt	-7590
▁Gustafsson	-7591
▁appearance	-7592
▁produceret	-7593
▁programmer	-7594
▁touchdowns	-7595
▁consecutive	-7596
▁stadsteater	-7597
departementet	-7598
▁Entertainment	-7599
▁Frederiksberg	-7600
▁mellomalderen	-7601
▁fodboldspiller	-7602
▁internasjonalt	-7603
BO	-7604
DA	-7605
gd	-7606
rä	-7607
vs	-7608
xy	-7609
zz	-7610
▁é	-7611
asj	-7612
hab	-7613
iby	-7614
isp	-7615
ize	-7616
key	-7617
ksh	-7618
løp	-7619
mil	-7620
ogg	-7621
ril	-7622
sal	-7623
ssa	-7624
ulu	-7625
øne	-7626
øve	-7627
▁51	-7628
▁64	-7629
▁73	-7630
▁78	-7631
▁Dj	-7632
▁Es	-7633
▁NT	-7634
▁OS	-7635
▁Os	-7636
▁næ	-7637
▁ön	-7638
anen	-7639
anke	-7640
atis	-7641
blom	-7642
bott	-7643
bred	-7644
brød	-7645
cell	-7646
cess	-7647
ecil	-7648
elly	-7649
esle	-7650
fart	-7651
fect	-7652
hæng	-7653
ians	-7654
iber	-7655
idar	-7656
ilda	-7657
indi	-7658
løse	-7659
mine	-7660
mond	-7661
odia	-7662
ofon	-7663
oren	-7664
rens	-7665
samf	-7666
snit	-7667
språ	-7668
star	-7669
ural	-7670
vern	-7671
åkly	-7672
ödra	-7673
▁138	-7674
▁148	-7675
▁170	-7676
▁174	-7677
▁175	-7678
▁250	-7679
▁Aal	-7680
▁Bal	-7681
▁Bed	-7682
▁Boy	-7683
▁Cle	-7684
▁Fro	-7685
▁Fug	-7686
▁Gam	-7687
▁Hav	-7688
▁Kat	-7689
▁Ken	-7690
▁Kol	-7691
▁Mis	-7692
▁Myr	-7693
▁Mør	-7694
▁Pet	-7695
▁Små	-7696
▁Sum	-7697
▁cap	-7698
▁ene	-7699
▁fär	-7700
▁gir	-7701
▁gör	-7702
▁hed	-7703
▁hjå	-7704
▁jeg	-7705
▁kva	-7706
▁neg	-7707
▁nio	-7708
▁pil	-7709
▁pot	-7710
▁ran	-7711
▁sla	-7712
▁snø	-7713
▁sål	-7714
▁sæl	-7715
▁tim	-7716
▁väl	-7717
achus	-7718
alkun	-7719
brudd	-7720
clear	-7721
elder	-7722
emann	-7723
føres	-7724
gerne	-7725
holms	-7726
iella	-7727
iellt	-7728
ierna	-7729
ierne	-7730
iplom	-7731
jente	-7732
komst	-7733
ksamm	-7734
ockan	-7735
onien	-7736
schef	-7737
sholm	-7738
sprog	-7739
tolem	-7740
uelle	-7741
▁1903	-7742
▁1909	-7743
▁Bapt	-7744
▁Bros	-7745
▁Fire	-7746
▁From	-7747
▁Grin	-7748
▁Kirk	-7749
▁Mind	-7750
▁Moon	-7751
▁Nash	-7752
▁Sara	-7753
▁Sent	-7754
▁Shak	-7755
▁Sogn	-7756
▁Spec	-7757
▁Wald	-7758
▁Want	-7759
▁Witt	-7760
▁berg	-7761
▁blot	-7762
▁boka	-7763
▁camp	-7764
▁data	-7765
▁dato	-7766
▁fakt	-7767
▁germ	-7768
▁gest	-7769
▁girl	-7770
▁gram	-7771
▁især	-7772
▁jarl	-7773
▁kirk	-7774
▁lett	-7775
▁litt	-7776
▁paid	-7777
▁phys	-7778
▁prom	-7779
▁punk	-7780
▁purs	-7781
▁sats	-7782
▁sete	-7783
▁sist	-7784
▁stab	-7785
▁sätt	-7786
▁text	-7787
anskje	-7788
demort	-7789
estill	-7790
iarder	-7791
kommun	-7792
neider	-7793
ningsm	-7794
sjonen	-7795
svaret	-7796
taland	-7797
▁Aften	-7798
▁Allen	-7799
▁Aller	-7800
▁Cecil	-7801
▁Claud	-7802
▁Danny	-7803
▁Earth	-7804
▁Filip	-7805
▁Høiby	-7806
▁Jonas	-7807
▁Journ	-7808
▁Penns	-7809
▁Phill	-7810
▁Samme	-7811
▁Sankt	-7812
▁Schau	-7813
▁Schul	-7814
▁Spill	-7815
▁Svent	-7816
▁Swift	-7817
▁annen	-7818
▁betyr	-7819
▁faste	-7820
▁forsø	-7821
▁frukt	-7822
▁klart	-7823
▁komme	-7824
▁låter	-7825
▁minne	-7826
▁older	-7827
▁opera	-7828
▁papir	-7829
▁press	-7830
▁snart	-7831
▁strat	-7832
▁trona	-7833
▁visse	-7834
▁återv	-7835
fession	-7836
geloven	-7837
itionen	-7838
▁Barbie	-7839
▁Bayern	-7840
▁Bertil	-7841
▁Church	-7842
▁Flåkly	-7843
▁France	-7844
▁Kassel	-7845
▁Kongen	-7846
▁Slovak	-7847
▁Svarte	-7848
▁Tsjekk	-7849
▁Willem	-7850
▁author	-7851
▁aviser	-7852
▁biolog	-7853
▁budget	-7854
▁bygger	-7855
▁böcker	-7856
▁commun	-7857
▁expand	-7858
▁folker	-7859
▁keiser	-7860
▁marked	-7861
▁modell	-7862
▁norska	-7863
▁områda	-7864
▁rapper	-7865
▁ridder	-7866
▁sjette	-7867
▁skuesp	-7868
▁slaget	-7869
▁spansk	-7870
▁theatr	-7871
▁utgjer	-7872
▁äldsta	-7873
høgskole	-7874
ografisk	-7875
ographic	-7876
▁Aalborg	-7877
▁African	-7878
▁Berling	-7879
▁Bjørgen	-7880
▁Chicago	-7881
▁Estelle	-7882
▁Frances	-7883
▁Herbert	-7884
▁Kongens	-7885
▁Seinare	-7886
▁arbetat	-7887
▁faderns	-7888
▁founded	-7889
▁founder	-7890
▁halvøya	-7891
▁influen	-7892
▁innført	-7893
▁kanskje	-7894
▁ligesom	-7895
▁married	-7896
▁overtok	-7897
▁project	-7898
▁samiske	-7899
▁singlen	-7900
▁spesial	-7901
▁teksten	-7902
▁uttrykk	-7903
▁version	-7904
högskolan	-7905
▁Carolina	-7906
▁Columbia	-7907
▁Götaland	-7908
▁Lyngstad	-7909
▁Petersen	-7910
▁Ragnhild	-7911
▁Sunnmøre	-7912
▁Template	-7913
▁Vestland	-7914
▁baseball	-7915
▁featured	-7916
▁forældre	-7917
▁includes	-7918
▁interest	-7919
▁kontroll	-7920
▁launched	-7921
▁official	-7922
▁opvokset	-7923
▁sammensl	-7924
▁särskilt	-7925
▁undervis	-7926
▁uppvuxen	-7927
▁youngest	-7928
ographical	-7929
▁Bonaparte	-7930
▁Champions	-7931
▁Drottning	-7932
▁Selskapet	-7933
▁Voldemort	-7934
▁attention	-7935
▁broadcast	-7936
▁delstaten	-7937
▁europeisk	-7938
▁gymnasiet	-7939
▁kategorin	-7940
▁kringkast	-7941
▁nomineret	-7942
▁produsent	-7943
▁soloalbum	-7944
▁stortings	-7945
▁streaming	-7946
▁studenter	-7947
▁Supporting	-7948
▁milliarder	-7949
▁samarbejde	-7950
▁självständ	-7951
▁spillefilm	-7952
▁tilknyttet	-7953
ministrasjon	-7954
▁huvudroller	-7955
▁julkalender	-7956
▁uppmärksamm	-7957
▁Commonwealth	-7958
▁hovedsakelig	-7959
▁representerer	-7960
▁parlamentarisk	-7961
▁professionally	-7962
21	-7963
vä	-7964
Cap	-7965
ahn	-7966
bog	-7967
cht	-7968
dam	-7969
erv	-7970
eus	-7971
fag	-7972
frå	-7973
fyr	-7974
jan	-7975
keb	-7976
kre	-7977
lav	-7978
lyn	-7979
mag	-7980
mod	-7981
oga	-7982
rie	-7983
sby	-7984
trä	-7985
tsj	-7986
uba	-7987
uer	-7988
upr	-7989
ura	-7990
äkn	-7991
ærk	-7992
▁01	-7993
▁07	-7994
▁39	-7995
▁69	-7996
▁86	-7997
▁94	-7998
▁96	-7999
▁Hæ	-8000
▁Jö	-8001
▁Na	-8002
▁SN	-8003
▁Si	-8004
amin	-8005
asen	-8006
atør	-8007
dige	-8008
ebra	-8009
elis	-8010
emer	-8011
fort	-8012
iety	-8013
jekt	-8014
lane	-8015
mers	-8016
ocus	-8017
oget	-8018
port	-8019
rona	-8020
rådt	-8021
skor	-8022
stan	-8023
ters	-8024
veld	-8025
▁153	-8026
▁Ast	-8027
▁Bøk	-8028
▁Cav	-8029
▁Cor	-8030
▁Esp	-8031
▁Fab	-8032
▁Fru	-8033
▁Gir	-8034
▁HBO	-8035
▁Hal	-8036
▁Hur	-8037
▁Kle	-8038
▁Kos	-8039
▁Nok	-8040
▁Ord	-8041
▁Ork	-8042
▁Sav	-8043
▁Säs	-8044
▁aks	-8045
▁bla	-8046
▁blå	-8047
▁few	-8048
▁græ	-8049
▁hof	-8050
▁kre	-8051
▁läm	-8052
▁moh	-8053
▁mye	-8054
▁net	-8055
▁nev	-8056
▁now	-8057
▁own	-8058
▁rör	-8059
▁røy	-8060
▁sag	-8061
▁uts	-8062
agnit	-8063
aktig	-8064
anner	-8065
bourg	-8066
ellet	-8067
enede	-8068
erien	-8069
ernes	-8070
faren	-8071
iator	-8072
icted	-8073
ility	-8074
kkjer	-8075
oment	-8076
quare	-8077
right	-8078
rikes	-8079
ställ	-8080
stænd	-8081
vania	-8082
▁1869	-8083
▁1895	-8084
▁1899	-8085
▁Blod	-8086
▁Cage	-8087
▁Frem	-8088
▁Heid	-8089
▁Hjal	-8090
▁Ivar	-8091
▁Kath	-8092
▁Kjær	-8093
▁Lide	-8094
▁Maur	-8095
▁Møre	-8096
▁Namn	-8097
▁Paus	-8098
▁Porn	-8099
▁Sayn	-8100
▁Shaw	-8101
▁atom	-8102
▁djup	-8103
▁drev	-8104
▁earl	-8105
▁egna	-8106
▁erkl	-8107
▁heim	-8108
▁komm	-8109
▁kost	-8110
▁legg	-8111
▁leks	-8112
▁oppk	-8113
▁oppn	-8114
▁self	-8115
▁spor	-8116
▁take	-8117
▁Åren	-8118
asinet	-8119
deling	-8120
edagen	-8121
eleine	-8122
ground	-8123
gående	-8124
hertug	-8125
istens	-8126
▁Agder	-8127
▁Allan	-8128
▁Bamse	-8129
▁Brand	-8130
▁Bratt	-8131
▁Catal	-8132
▁Desse	-8133
▁DiCap	-8134
▁Grace	-8135
▁Hanna	-8136
▁Kings	-8137
▁Latin	-8138
▁Olavs	-8139
▁Steve	-8140
▁Their	-8141
▁Volda	-8142
▁annon	-8143
▁bolig	-8144
▁confl	-8145
▁danse	-8146
▁difor	-8147
▁døtre	-8148
▁exper	-8149
▁fiske	-8150
▁games	-8151
▁house	-8152
▁jobba	-8153
▁kunde	-8154
▁källa	-8155
▁miljø	-8156
▁møtte	-8157
▁norra	-8158
▁nåede	-8159
▁omgre	-8160
▁poeng	-8161
▁skott	-8162
▁sterk	-8163
▁styrk	-8164
▁taget	-8165
▁ungar	-8166
▁utvid	-8167
▁voice	-8168
derburg	-8169
ktioner	-8170
minster	-8171
ributed	-8172
rollene	-8173
språket	-8174
ssenter	-8175
umenter	-8176
ylvania	-8177
æsident	-8178
▁Barcel	-8179
▁Carlos	-8180
▁Cruise	-8181
▁Dennis	-8182
▁Foreld	-8183
▁Kultur	-8184
▁Ledger	-8185
▁Marius	-8186
▁Morgan	-8187
▁Person	-8188
▁Rikard	-8189
▁Screen	-8190
▁Viborg	-8191
▁Wright	-8192
▁across	-8193
▁bilder	-8194
▁biskop	-8195
▁differ	-8196
▁eksped	-8197
▁endret	-8198
▁fulgte	-8199
▁kallad	-8200
▁numera	-8201
▁oftast	-8202
▁online	-8203
▁posten	-8204
▁revyer	-8205
▁skotår	-8206
▁språka	-8207
▁steder	-8208
▁støtte	-8209
▁tidene	-8210
▁titeln	-8211
▁unntak	-8212
▁vänner	-8213
▁väster	-8214
ectively	-8215
genstein	-8216
kommande	-8217
sekretær	-8218
▁Carlsen	-8219
▁Central	-8220
▁Collins	-8221
▁Daniels	-8222
▁Familie	-8223
▁Karriär	-8224
▁Området	-8225
▁Oppland	-8226
▁Shakesp	-8227
▁Simpson	-8228
▁Småland	-8229
▁Theatre	-8230
▁complet	-8231
▁dannede	-8232
▁drummer	-8233
▁folkesk	-8234
▁franska	-8235
▁halvdel	-8236
▁marknad	-8237
▁nuclear	-8238
▁omtrent	-8239
▁pageant	-8240
▁sjukdom	-8241
▁skrivit	-8242
▁subsequ	-8243
▁tillfäl	-8244
▁ægtefæl	-8245
achusetts	-8246
ataljonen	-8247
neippbrød	-8248
▁Canadian	-8249
▁Champion	-8250
▁Flåklypa	-8251
▁Færøerne	-8252
▁Kaliforn	-8253
▁Marianne	-8254
▁Mathilde	-8255
▁Portugal	-8256
▁Republic	-8257
▁Schulman	-8258
▁Virginia	-8259
▁bakgrunn	-8260
▁defeated	-8261
▁deltager	-8262
▁ensemble	-8263
▁folkemus	-8264
▁fortsatt	-8265
▁kallades	-8266
▁nordlige	-8267
▁nordmenn	-8268
▁perioder	-8269
▁politiet	-8270
▁referred	-8271
▁regenter	-8272
▁sommaren	-8273
uddannelse	-8274
▁Lidegaard	-8275
▁Madeleine	-8276
▁Nationalt	-8277
▁betydning	-8278
▁filmprodu	-8279
▁inklusive	-8280
▁landskamp	-8281
▁portrayed	-8282
▁religiøse	-8283
▁storebror	-8284
▁teatersty	-8285
▁tronfølge	-8286
▁Østerrike	-8287
▁Berlingske	-8288
▁Folkeparti	-8289
▁Konstantin	-8290
▁Sandefjord	-8291
▁Sonderburg	-8292
▁artikkelen	-8293
▁förekommer	-8294
▁fødselsdag	-8295
▁italienske	-8296
▁manuskript	-8297
▁nytårstale	-8298
▁performing	-8299
▁personlige	-8300
▁tronarving	-8301
▁uddannelse	-8302
▁Christensen	-8303
▁Helsingborg	-8304
▁Kalifornien	-8305
▁eksemplarer	-8306
▁Holmenkollen	-8307
▁Nederlandene	-8308
▁Pennsylvania	-8309
▁Wittgenstein	-8310
▁relationship	-8311
▁Massachusetts	-8312
▁internasjonal	-8313
▁skuespillerinde	-8314
dy	-8315
gn	-8316
hu	-8317
jk	-8318
må	-8319
sg	-8320
VID	-8321
aya	-8322
bad	-8323
bom	-8324
but	-8325
chi	-8326
hew	-8327
igr	-8328
jeg	-8329
lim	-8330
nat	-8331
ria	-8332
sla	-8333
tus	-8334
wan	-8335
yen	-8336
öld	-8337
öts	-8338
øra	-8339
▁05	-8340
▁08	-8341
▁79	-8342
▁95	-8343
▁DN	-8344
▁Gi	-8345
▁Ja	-8346
▁KI	-8347
▁Of	-8348
▁lj	-8349
▁rö	-8350
adel	-8351
anth	-8352
arta	-8353
chan	-8354
dags	-8355
egan	-8356
esta	-8357
ferd	-8358
fisk	-8359
gäng	-8360
haug	-8361
inas	-8362
inea	-8363
isem	-8364
kjer	-8365
llup	-8366
odes	-8367
opol	-8368
rapp	-8369
rien	-8370
rust	-8371
skid	-8372
uble	-8373
unge	-8374
vare	-8375
værk	-8376
▁160	-8377
▁168	-8378
▁Abd	-8379
▁Att	-8380
▁Bah	-8381
▁Bør	-8382
▁Gjø	-8383
▁Jeg	-8384
▁Kra	-8385
▁Lam	-8386
▁Lew	-8387
▁Lid	-8388
▁Någ	-8389
▁Odd	-8390
▁Ove	-8391
▁Ret	-8392
▁Rum	-8393
▁Sab	-8394
▁Tol	-8395
▁Tyr	-8396
▁etc	-8397
▁fad	-8398
▁fug	-8399
▁læn	-8400
▁nab	-8401
▁pod	-8402
▁rap	-8403
▁sil	-8404
▁tap	-8405
▁use	-8406
▁vej	-8407
▁vet	-8408
▁wik	-8409
▁änd	-8410
alace	-8411
andem	-8412
angel	-8413
bøker	-8414
elden	-8415
ferds	-8416
gaste	-8417
gelig	-8418
igert	-8419
ingsl	-8420
inter	-8421
ittel	-8422
iving	-8423
jande	-8424
ligan	-8425
onder	-8426
quist	-8427
ragte	-8428
reich	-8429
satte	-8430
uther	-8431
vaeus	-8432
våpen	-8433
ället	-8434
▁1896	-8435
▁Abbe	-8436
▁Adel	-8437
▁Berk	-8438
▁Eric	-8439
▁FIFA	-8440
▁Foss	-8441
▁Gary	-8442
▁Glad	-8443
▁Grek	-8444
▁Haug	-8445
▁Herm	-8446
▁Hiro	-8447
▁Hong	-8448
▁Hopp	-8449
▁Hugh	-8450
▁Hugo	-8451
▁Hund	-8452
▁Jess	-8453
▁Juni	-8454
▁Kate	-8455
▁Kent	-8456
▁Kors	-8457
▁Kurt	-8458
▁Like	-8459
▁Lord	-8460
▁Marc	-8461
▁Mont	-8462
▁Odin	-8463
▁Oran	-8464
▁Pers	-8465
▁Ruth	-8466
▁Ryan	-8467
▁Trav	-8468
▁Voss	-8469
▁bomb	-8470
▁bord	-8471
▁forg	-8472
▁free	-8473
▁gent	-8474
▁gjev	-8475
▁grek	-8476
▁jern	-8477
▁leia	-8478
▁magt	-8479
▁mord	-8480
▁peng	-8481
▁rikt	-8482
▁scor	-8483
▁slot	-8484
▁stam	-8485
▁tank	-8486
▁vare	-8487
borger	-8488
ckerna	-8489
delser	-8490
formen	-8491
icated	-8492
inemat	-8493
länder	-8494
nebrog	-8495
olding	-8496
rovers	-8497
skrift	-8498
though	-8499
ælland	-8500
▁Alban	-8501
▁Bille	-8502
▁Blues	-8503
▁COVID	-8504
▁Claus	-8505
▁Datab	-8506
▁Fried	-8507
▁Jason	-8508
▁Julie	-8509
▁Liste	-8510
▁Nobel	-8511
▁Pippi	-8512
▁Saman	-8513
▁Samma	-8514
▁Stand	-8515
▁Storm	-8516
▁Svein	-8517
▁There	-8518
▁Trent	-8519
▁Water	-8520
▁anled	-8521
▁bruka	-8522
▁deter	-8523
▁duoen	-8524
▁eigen	-8525
▁fleir	-8526
▁forma	-8527
▁helst	-8528
▁initi	-8529
▁knytt	-8530
▁samle	-8531
▁skisk	-8532
▁systr	-8533
▁techn	-8534
▁vansk	-8535
▁vinne	-8536
▁vunne	-8537
▁övrig	-8538
▁øyane	-8539
familie	-8540
finalen	-8541
gariket	-8542
heatret	-8543
iblandt	-8544
jylland	-8545
levende	-8546
prinsen	-8547
ropolit	-8548
yllands	-8549
▁Actors	-8550
▁Galile	-8551
▁Gregor	-8552
▁Ingvar	-8553
▁Jewish	-8554
▁Julius	-8555
▁Mellan	-8556
▁Nansen	-8557
▁Sangen	-8558
▁Svensk	-8559
▁Sydney	-8560
▁Walker	-8561
▁beslut	-8562
▁biroll	-8563
▁diplom	-8564
▁distin	-8565
▁domest	-8566
▁ekstra	-8567
▁elektr	-8568
▁erhöll	-8569
▁filmsk	-8570
▁fjärde	-8571
▁flytte	-8572
▁forlag	-8573
▁forlod	-8574
▁horror	-8575
▁hvorav	-8576
▁insats	-8577
▁kampen	-8578
▁kommit	-8579
▁listen	-8580
▁living	-8581
▁minutt	-8582
▁nesten	-8583
▁prædik	-8584
▁sitcom	-8585
▁sosial	-8586
▁symfon	-8587
▁terror	-8588
▁toppen	-8589
▁transl	-8590
▁venner	-8591
▁vundet	-8592
▁widely	-8593
kontrakt	-8594
servator	-8595
sättning	-8596
▁Belgien	-8597
▁Develop	-8598
▁Ireland	-8599
▁Litauen	-8600
▁Machine	-8601
▁Northug	-8602
▁Program	-8603
▁Romsdal	-8604
▁Salomon	-8605
▁Sellers	-8606
▁Solberg	-8607
▁Sventon	-8608
▁Tidende	-8609
▁Ulvaeus	-8610
▁current	-8611
▁derimot	-8612
▁identif	-8613
▁igennem	-8614
▁optaget	-8615
▁pianist	-8616
▁samling	-8617
▁språket	-8618
▁strateg	-8619
▁tilgjen	-8620
▁uppväxt	-8621
▁Database	-8622
▁DiCaprio	-8623
▁Herefter	-8624
▁Hospital	-8625
▁Kungliga	-8626
▁Majestæt	-8627
▁Mountain	-8628
▁ambassad	-8629
▁animated	-8630
▁anvendes	-8631
▁brothers	-8632
▁foreldre	-8633
▁formellt	-8634
▁forsvars	-8635
▁hinanden	-8636
▁innanfor	-8637
▁keyboard	-8638
▁komposit	-8639
▁mannlige	-8640
▁medaljer	-8641
▁overført	-8642
▁particip	-8643
▁position	-8644
▁selected	-8645
▁tillbaka	-8646
▁upptäckt	-8647
▁utviklet	-8648
festivalen	-8649
▁Argentina	-8650
▁Dannebrog	-8651
▁Derudover	-8652
▁Internett	-8653
▁Middleton	-8654
▁Nashville	-8655
▁Schneider	-8656
▁appearing	-8657
▁föräldrar	-8658
▁graduated	-8659
▁initially	-8660
▁officielt	-8661
▁provinsen	-8662
▁viktigste	-8663
▁egentligen	-8664
▁fastlandet	-8665
▁geografisk	-8666
▁jordskjelv	-8667
▁konfession	-8668
▁sangerinde	-8669
▁soloartist	-8670
▁temperatur	-8671
▁throughout	-8672
▁Development	-8673
▁Fredensborg	-8674
▁Springfield	-8675
▁Svartehavet	-8676
▁Westminster	-8677
▁begynnelsen	-8678
▁författaren	-8679
▁henholdsvis	-8680
▁nominerades	-8681
▁regjeringen	-8682
▁Kristiansand	-8683
▁biographical	-8684
▁konstitusjon	-8685
▁respectively	-8686
▁verdsmeister	-8687
▁Frederiksborg	-8688
▁representerte	-8689
▁tekstforfatter	-8690
▁internationella	-8691
▁konfessionarius	-8692
▁premiärminister	-8693
ca	-8694
hi	-8695
jr	-8696
ni	-8697
oe	-8698
vo	-8699
ón	-8700
ari	-8701
avy	-8702
cks	-8703
fab	-8704
fot	-8705
gas	-8706
gde	-8707
hre	-8708
høj	-8709
iti	-8710
ito	-8711
kap	-8712
lio	-8713
nor	-8714
näs	-8715
oku	-8716
oli	-8717
rod	-8718
seg	-8719
sko	-8720
sti	-8721
uns	-8722
vek	-8723
väl	-8724
win	-8725
ämt	-8726
▁09	-8727
▁54	-8728
▁57	-8729
▁66	-8730
▁72	-8731
▁93	-8732
▁98	-8733
▁Bö	-8734
▁DC	-8735
▁DM	-8736
▁FA	-8737
▁Gn	-8738
▁IM	-8739
▁SS	-8740
▁Vå	-8741
▁vä	-8742
▁åp	-8743
amie	-8744
avor	-8745
clif	-8746
elva	-8747
enna	-8748
erar	-8749
erat	-8750
heit	-8751
imin	-8752
iple	-8753
isse	-8754
ksle	-8755
last	-8756
lene	-8757
ming	-8758
napp	-8759
pper	-8760
pres	-8761
rert	-8762
rogø	-8763
rupt	-8764
ston	-8765
tale	-8766
time	-8767
ttet	-8768
uell	-8769
umar	-8770
usal	-8771
utan	-8772
xter	-8773
æsen	-8774
ønns	-8775
▁101	-8776
▁136	-8777
▁163	-8778
▁Bat	-8779
▁Dyr	-8780
▁Dés	-8781
▁Fly	-8782
▁Hag	-8783
▁Him	-8784
▁Hög	-8785
▁Isl	-8786
▁Jun	-8787
▁Kun	-8788
▁Lag	-8789
▁Lah	-8790
▁Lan	-8791
▁NBC	-8792
▁Rud	-8793
▁Syn	-8794
▁Tes	-8795
▁Wen	-8796
▁arm	-8797
▁cer	-8798
▁dru	-8799
▁dår	-8800
▁fan	-8801
▁lad	-8802
▁løs	-8803
▁män	-8804
▁näm	-8805
▁opg	-8806
▁sak	-8807
▁spr	-8808
▁sum	-8809
▁vad	-8810
▁vak	-8811
▁väg	-8812
▁yrk	-8813
ansas	-8814
deleg	-8815
egnet	-8816
ektiv	-8817
enden	-8818
ender	-8819
errik	-8820
fjell	-8821
iende	-8822
ikter	-8823
ippet	-8824
irkus	-8825
ivile	-8826
kning	-8827
leren	-8828
oland	-8829
onsin	-8830
opper	-8831
ordan	-8832
rover	-8833
råkan	-8834
shand	-8835
valgt	-8836
yting	-8837
ænger	-8838
æsent	-8839
øtter	-8840
▁1100	-8841
▁1660	-8842
▁Alla	-8843
▁Axel	-8844
▁Bjør	-8845
▁Bull	-8846
▁Down	-8847
▁Even	-8848
▁Grön	-8849
▁Inga	-8850
▁Jule	-8851
▁Krag	-8852
▁Linz	-8853
▁Lion	-8854
▁Lise	-8855
▁Lyon	-8856
▁Mari	-8857
▁Mars	-8858
▁NTNU	-8859
▁Nass	-8860
▁Reed	-8861
▁That	-8862
▁Tolk	-8863
▁Tram	-8864
▁Trop	-8865
▁Ture	-8866
▁Tyrk	-8867
▁Wars	-8868
▁Wolf	-8869
▁cert	-8870
▁conv	-8871
▁coup	-8872
▁cult	-8873
▁doll	-8874
▁down	-8875
▁emer	-8876
▁ende	-8877
▁gård	-8878
▁hald	-8879
▁kære	-8880
▁lade	-8881
▁ling	-8882
▁lykk	-8883
▁lyst	-8884
▁ring	-8885
▁snab	-8886
▁symp	-8887
▁tilf	-8888
▁utom	-8889
▁vinn	-8890
ailand	-8891
cliffe	-8892
ensene	-8893
entzen	-8894
espill	-8895
instit	-8896
lemann	-8897
musikk	-8898
opatra	-8899
ottern	-8900
posten	-8901
skidåk	-8902
stream	-8903
ularly	-8904
vester	-8905
weight	-8906
▁Abbey	-8907
▁Aleks	-8908
▁Antar	-8909
▁Blant	-8910
▁Blood	-8911
▁Bonde	-8912
▁Chart	-8913
▁Child	-8914
▁China	-8915
▁Copen	-8916
▁Costa	-8917
▁Crowe	-8918
▁Fayed	-8919
▁Fødde	-8920
▁Guild	-8921
▁Guill	-8922
▁Hamar	-8923
▁Hindi	-8924
▁Larry	-8925
▁Lejon	-8926
▁Lewis	-8927
▁Lotta	-8928
▁Neder	-8929
▁Nokre	-8930
▁Oslof	-8931
▁Paret	-8932
▁Sidan	-8933
▁Sofie	-8934
▁Tomas	-8935
▁advok	-8936
▁aired	-8937
▁artar	-8938
▁atomb	-8939
▁autom	-8940
▁bedre	-8941
▁behöv	-8942
▁beveg	-8943
▁dager	-8944
▁dance	-8945
▁decid	-8946
▁delta	-8947
▁eigne	-8948
▁enten	-8949
▁flott	-8950
▁försö	-8951
▁gamal	-8952
▁gjeld	-8953
▁gjera	-8954
▁immig	-8955
▁kaldt	-8956
▁kanal	-8957
▁konse	-8958
▁label	-8959
▁moren	-8960
▁någon	-8961
▁overs	-8962
▁resul	-8963
▁skule	-8964
▁slags	-8965
▁släkt	-8966
▁stork	-8967
▁tromm	-8968
▁union	-8969
▁vises	-8970
▁works	-8971
▁Ørsta	-8972
achelor	-8973
amerika	-8974
aternal	-8975
grupper	-8976
ikasjon	-8977
ildring	-8978
jeneste	-8979
ortsett	-8980
ossible	-8981
plasser	-8982
skiftet	-8983
stundes	-8984
▁Bjerre	-8985
▁Guinea	-8986
▁Helmig	-8987
▁Kypros	-8988
▁Lovisa	-8989
▁Monica	-8990
▁Møller	-8991
▁Nicola	-8992
▁Oberst	-8993
▁Oliver	-8994
▁Palace	-8995
▁Ptolem	-8996
▁Second	-8997
▁Sprogø	-8998
▁Tobias	-8999
▁Travol	-9000
▁Winter	-9001
▁afsnit	-9002
▁annual	-9003
▁bakken	-9004
▁bruker	-9005
▁bygget	-9006
▁dannar	-9007
▁dynast	-9008
▁etappe	-9009
▁fadern	-9010
▁findes	-9011
▁formid	-9012
▁frivil	-9013
▁global	-9014
▁gongen	-9015
▁gratis	-9016
▁hjælpe	-9017
▁idrott	-9018
▁israel	-9019
▁kombin	-9020
▁pronun	-9021
▁scenen	-9022
▁singel	-9023
▁sønnen	-9024
▁tidigt	-9025
▁valdes	-9026
▁vocals	-9027
stedelen	-9028
▁Channel	-9029
▁Désirée	-9030
▁Guldbag	-9031
▁Jylland	-9032
▁Nordisk	-9033
▁Rowling	-9034
▁Sibylla	-9035
▁Special	-9036
▁attende	-9037
▁beskriv	-9038
▁bokstav	-9039
▁consist	-9040
▁eksamen	-9041
▁fashion	-9042
▁fødslen	-9043
▁install	-9044
▁klokken	-9045
▁koncert	-9046
▁korleis	-9047
▁ledende	-9048
▁lengste	-9049
▁militär	-9050
▁motsvar	-9051
▁musikar	-9052
▁reality	-9053
▁retning	-9054
▁romaner	-9055
▁semifin	-9056
▁skriver	-9057
▁stadium	-9058
▁stammar	-9059
▁trommer	-9060
▁utanfor	-9061
▁vanlege	-9062
▁världsc	-9063
servative	-9064
▁Allerede	-9065
▁Division	-9066
▁Familien	-9067
▁Færøyane	-9068
▁Ingeborg	-9069
▁Kristina	-9070
▁Kroatien	-9071
▁Michelle	-9072
▁Oppvekst	-9073
▁Rogaland	-9074
▁Roskilde	-9075
▁Southern	-9076
▁Svendsen	-9077
▁Thailand	-9078
▁Wahlgren	-9079
▁arbeidde	-9080
▁arbejdet	-9081
▁artiklen	-9082
▁barnbarn	-9083
▁bildades	-9084
▁brukarar	-9085
▁children	-9086
▁composed	-9087
▁industry	-9088
▁intellig	-9089
▁material	-9090
▁monarker	-9091
▁optrådte	-9092
▁recorded	-9093
▁regarded	-9094
▁replaced	-9095
▁spelades	-9096
▁strekker	-9097
▁tjeneste	-9098
▁träffade	-9099
▁vinteren	-9100
harmoniker	-9101
▁Barcelona	-9102
▁Innlandet	-9103
▁Lorentzen	-9104
▁Louisiana	-9105
▁Nordsjøen	-9106
▁Oldenburg	-9107
▁Radcliffe	-9108
▁Skandinav	-9109
▁Tasmanien	-9110
▁austerrik	-9111
▁kommunane	-9112
▁political	-9113
▁selvstænd	-9114
▁underhåll	-9115
▁utbildade	-9116
▁utdanning	-9117
▁Østlandet	-9118
▁Copenhagen	-9119
▁Kristensen	-9120
▁Kristiania	-9121
▁Lillestrøm	-9122
▁Luxembourg	-9123
▁considered	-9124
▁dokumentar	-9125
▁dronninger	-9126
▁earthquake	-9127
▁frontfigur	-9128
▁kvinnelige	-9129
▁trommeslag	-9130
eteorologisk	-9131
▁Productions	-9132
▁photography	-9133
▁världscupen	-9134
▁tradisjonelt	-9135
▁Kristofferson	-9136
▁middelalderen	-9137
▁skådespelarna	-9138
dd	-9139
læ	-9140
sä	-9141
ال	-9142
ado	-9143
aku	-9144
alo	-9145
aul	-9146
bäv	-9147
cci	-9148
cka	-9149
fat	-9150
ieg	-9151
oot	-9152
oro	-9153
ová	-9154
sst	-9155
sök	-9156
ärn	-9157
årt	-9158
▁03	-9159
▁53	-9160
▁59	-9161
▁68	-9162
▁83	-9163
▁89	-9164
▁Hä	-9165
▁Hö	-9166
▁Mi	-9167
▁NO	-9168
▁Ri	-9169
▁SI	-9170
▁Va	-9171
▁WW	-9172
▁XV	-9173
▁kg	-9174
▁lø	-9175
▁mö	-9176
▁Ål	-9177
▁Ås	-9178
▁äm	-9179
anon	-9180
apen	-9181
away	-9182
edel	-9183
edie	-9184
elve	-9185
erto	-9186
etes	-9187
gick	-9188
ialt	-9189
ibet	-9190
ices	-9191
ideo	-9192
ifer	-9193
inar	-9194
ises	-9195
jakk	-9196
kall	-9197
leks	-9198
leys	-9199
omma	-9200
phia	-9201
rash	-9202
read	-9203
sche	-9204
show	-9205
skol	-9206
sund	-9207
tida	-9208
uled	-9209
umer	-9210
wart	-9211
work	-9212
øgte	-9213
▁120	-9214
▁145	-9215
▁155	-9216
▁900	-9217
▁AFC	-9218
▁Alp	-9219
▁Ash	-9220
▁Cre	-9221
▁Edu	-9222
▁Eid	-9223
▁Eno	-9224
▁Get	-9225
▁Gri	-9226
▁Gyp	-9227
▁ISO	-9228
▁Ish	-9229
▁Jay	-9230
▁Las	-9231
▁Leo	-9232
▁Mur	-9233
▁Nya	-9234
▁Sem	-9235
▁Skj	-9236
▁Sur	-9237
▁avl	-9238
▁bör	-9239
▁cas	-9240
▁dit	-9241
▁elv	-9242
▁gør	-9243
▁hur	-9244
▁hål	-9245
▁idé	-9246
▁kur	-9247
▁kör	-9248
▁les	-9249
▁løy	-9250
▁mun	-9251
▁naz	-9252
▁oss	-9253
▁pjä	-9254
▁soc	-9255
▁øen	-9256
akota	-9257
aktör	-9258
aling	-9259
anten	-9260
artal	-9261
asaki	-9262
astro	-9263
betet	-9264
bolag	-9265
cupen	-9266
earch	-9267
föret	-9268
gräns	-9269
ician	-9270
ikael	-9271
isere	-9272
ivert	-9273
klubb	-9274
krets	-9275
kunst	-9276
opold	-9277
oppet	-9278
osing	-9279
ountb	-9280
rades	-9281
ribed	-9282
risen	-9283
stånd	-9284
tiden	-9285
union	-9286
usdal	-9287
ørdag	-9288
▁1848	-9289
▁1859	-9290
▁1870	-9291
▁1892	-9292
▁1904	-9293
▁1914	-9294
▁Ahle	-9295
▁Anka	-9296
▁Bare	-9297
▁Bent	-9298
▁Bron	-9299
▁Bryg	-9300
▁Dark	-9301
▁Dato	-9302
▁Falk	-9303
▁Fogh	-9304
▁Form	-9305
▁Fort	-9306
▁Gade	-9307
▁Gott	-9308
▁Gren	-9309
▁Grev	-9310
▁Gyld	-9311
▁Half	-9312
▁Happ	-9313
▁Last	-9314
▁Lena	-9315
▁Linn	-9316
▁Luft	-9317
▁Lång	-9318
▁Made	-9319
▁Marg	-9320
▁Moss	-9321
▁Nett	-9322
▁Niro	-9323
▁Oluf	-9324
▁Pern	-9325
▁Plan	-9326
▁Rain	-9327
▁Rasp	-9328
▁Ryss	-9329
▁Shel	-9330
▁Teck	-9331
▁Vill	-9332
▁Vlad	-9333
▁Week	-9334
▁besø	-9335
▁body	-9336
▁brig	-9337
▁date	-9338
▁diam	-9339
▁flyt	-9340
▁fløy	-9341
▁gjør	-9342
▁göra	-9343
▁hjer	-9344
▁idag	-9345
▁idet	-9346
▁kust	-9347
▁livs	-9348
▁love	-9349
▁male	-9350
▁ment	-9351
▁midn	-9352
▁målt	-9353
▁next	-9354
▁påst	-9355
▁radi	-9356
▁rema	-9357
▁send	-9358
▁skab	-9359
▁span	-9360
▁styl	-9361
▁säga	-9362
▁ting	-9363
▁trag	-9364
▁trio	-9365
▁trol	-9366
▁venn	-9367
▁youn	-9368
agelse	-9369
ansett	-9370
blemer	-9371
bridge	-9372
engene	-9373
erande	-9374
gjorde	-9375
idrett	-9376
konomi	-9377
krigen	-9378
kråkan	-9379
kysten	-9380
ningst	-9381
produs	-9382
ribent	-9383
staver	-9384
undtra	-9385
uprenn	-9386
ästare	-9387
ørende	-9388
▁Agnet	-9389
▁Alger	-9390
▁Apple	-9391
▁Arena	-9392
▁Death	-9393
▁Falun	-9394
▁Fargo	-9395
▁Feder	-9396
▁Fisch	-9397
▁Hawai	-9398
▁Helin	-9399
▁Hilde	-9400
▁Hotel	-9401
▁Konst	-9402
▁Kunst	-9403
▁Lippe	-9404
▁Medal	-9405
▁Moore	-9406
▁Myhre	-9407
▁Natas	-9408
▁Orden	-9409
▁Stork	-9410
▁Strøm	-9411
▁Vegas	-9412
▁Wrest	-9413
▁adopt	-9414
▁aften	-9415
▁almin	-9416
▁anerk	-9417
▁auton	-9418
▁berøm	-9419
▁brand	-9420
▁break	-9421
▁brugt	-9422
▁bytte	-9423
▁bøger	-9424
▁børne	-9425
▁chang	-9426
▁därpå	-9427
▁estim	-9428
▁every	-9429
▁guest	-9430
▁hebra	-9431
▁indel	-9432
▁innte	-9433
▁jorda	-9434
▁klima	-9435
▁kompl	-9436
▁linje	-9437
▁lived	-9438
▁løbet	-9439
▁neste	-9440
▁owned	-9441
▁plays	-9442
▁princ	-9443
▁præst	-9444
▁sched	-9445
▁sende	-9446
▁sider	-9447
▁solok	-9448
▁south	-9449
▁stoff	-9450
▁styrt	-9451
▁størr	-9452
▁sådan	-9453
▁tross	-9454
▁tving	-9455
▁using	-9456
▁utgje	-9457
▁varme	-9458
▁vider	-9459
▁vinna	-9460
▁watch	-9461
▁Århus	-9462
▁ældre	-9463
arriket	-9464
ference	-9465
formand	-9466
förande	-9467
istiska	-9468
ksamhet	-9469
medalje	-9470
orthern	-9471
ringham	-9472
stående	-9473
▁Advent	-9474
▁Bonnie	-9475
▁Cardin	-9476
▁Center	-9477
▁Comedy	-9478
▁Enligt	-9479
▁Fadern	-9480
▁Gjøvik	-9481
▁Harlem	-9482
▁Helene	-9483
▁Holger	-9484
▁Idrett	-9485
▁Ingolf	-9486
▁Kalmar	-9487
▁Mikael	-9488
▁Morten	-9489
▁Mountb	-9490
▁Nasjon	-9491
▁Newton	-9492
▁Olsson	-9493
▁Origin	-9494
▁People	-9495
▁Pommer	-9496
▁Ragnar	-9497
▁Renner	-9498
▁Schwar	-9499
▁Sesong	-9500
▁Songen	-9501
▁Sverre	-9502
▁Tyrkia	-9503
▁advent	-9504
▁arrest	-9505
▁direkt	-9506
▁examen	-9507
▁förhål	-9508
▁högsta	-9509
▁hösten	-9510
▁idrett	-9511
▁ingick	-9512
▁jødisk	-9513
▁kriget	-9514
▁kungen	-9515
▁mindst	-9516
▁mottok	-9517
▁muslim	-9518
▁office	-9519
▁oftest	-9520
▁police	-9521
▁presse	-9522
▁provid	-9523
▁reklam	-9524
▁skotsk	-9525
▁solist	-9526
▁spesif	-9527
▁stilen	-9528
▁styrke	-9529
▁termin	-9530
▁throne	-9531
▁tjänst	-9532
▁trådte	-9533
▁vendte	-9534
länderna	-9535
regionen	-9536
▁Barbara	-9537
▁Britain	-9538
▁Classic	-9539
▁Clausen	-9540
▁Denmark	-9541
▁Folkete	-9542
▁Germany	-9543
▁However	-9544
▁Landets	-9545
▁Matador	-9546
▁Pacific	-9547
▁Poulsen	-9548
▁Salming	-9549
▁Seattle	-9550
▁Stewart	-9551
▁artists	-9552
▁brought	-9553
▁contain	-9554
▁distrib	-9555
▁diverse	-9556
▁komedie	-9557
▁limited	-9558
▁nordøst	-9559
▁omdirig	-9560
▁opnåede	-9561
▁opvækst	-9562
▁romanen	-9563
▁stundom	-9564
▁svenskt	-9565
▁teatret	-9566
▁tilsett	-9567
▁tiltale	-9568
▁viktige	-9569
▁writing	-9570
▁younger	-9571
▁äventyr	-9572
▁økonomi	-9573
ssenteret	-9574
▁Albummet	-9575
▁Birgitta	-9576
▁Cornelis	-9577
▁Därefter	-9578
▁Forenede	-9579
▁Nørgaard	-9580
▁Phillips	-9581
▁Politisk	-9582
▁Samtidig	-9583
▁Sommaren	-9584
▁arbejder	-9585
▁comedian	-9586
▁consists	-9587
▁flaggdag	-9588
▁forbunds	-9589
▁genomför	-9590
▁grundlov	-9591
▁ingeniør	-9592
▁innenfor	-9593
▁intervju	-9594
▁katolske	-9595
▁kriminal	-9596
▁leksikon	-9597
▁liknande	-9598
▁motstand	-9599
▁multiple	-9600
▁någonsin	-9601
▁overgang	-9602
▁prosjekt	-9603
▁repræsen	-9604
▁residens	-9605
▁resultat	-9606
▁samtliga	-9607
▁sketchen	-9608
▁sprinten	-9609
▁utgjorde	-9610
instruktør	-9611
orporation	-9612
produksjon	-9613
respondent	-9614
▁Ahlefeldt	-9615
▁Churchill	-9616
▁Frederick	-9617
▁Frederiks	-9618
▁Gyldendal	-9619
▁Tidligere	-9620
▁beginning	-9621
▁kommunene	-9622
▁musikalsk	-9623
▁människor	-9624
▁nasjonald	-9625
▁originalt	-9626
▁permanent	-9627
▁portrayal	-9628
▁releasing	-9629
▁samfunnet	-9630
▁versjonen	-9631
▁äktenskap	-9632
sprogrammet	-9633
▁Foundation	-9634
▁Kongeriget	-9635
▁Regeringen	-9636
▁Revolution	-9637
▁Saltkråkan	-9638
▁Strömstedt	-9639
▁adaptation	-9640
▁filmatiser	-9641
▁folkegrupp	-9642
▁foreldrene	-9643
▁heriblandt	-9644
▁hertuginde	-9645
▁indbyggere	-9646
▁inkluderer	-9647
▁kategorien	-9648
▁mainstream	-9649
▁nordsamisk	-9650
▁utbildning	-9651
▁økonomiske	-9652
▁Christiania	-9653
▁Fredrikstad	-9654
▁Mountbatten	-9655
▁Sandringham	-9656
▁Skuespiller	-9657
▁Stillehavet	-9658
▁distributed	-9659
▁established	-9660
▁influential	-9661
▁informasjon	-9662
▁kommentator	-9663
▁längdskidåk	-9664
▁personality	-9665
▁henvisninger	-9666
▁skuespillere	-9667
▁Östergötland	-9668
▁Nederländerna	-9669
▁skuespilleren	-9670
▁internationale	-9671
▁radioprogrammet	-9672
22	-9673
AS	-9674
EN	-9675
XX	-9676
mi	-9677
su	-9678
vd	-9679
yo	-9680
ür	-9681
acy	-9682
avl	-9683
aye	-9684
bud	-9685
cca	-9686
ebo	-9687
ega	-9688
elf	-9689
ety	-9690
evn	-9691
hea	-9692
hug	-9693
ify	-9694
kal	-9695
mas	-9696
ods	-9697
okn	-9698
oor	-9699
pte	-9700
rep	-9701
slä	-9702
tog	-9703
tra	-9704
wer	-9705
ydd	-9706
ält	-9707
▁04	-9708
▁06	-9709
▁Fu	-9710
▁Hu	-9711
▁NS	-9712
▁Ug	-9713
▁ag	-9714
▁bj	-9715
▁ka	-9716
▁va	-9717
▁ök	-9718
agar	-9719
aged	-9720
aghy	-9721
amet	-9722
antz	-9723
asje	-9724
bury	-9725
døde	-9726
elde	-9727
fekt	-9728
foss	-9729
gard	-9730
holt	-9731
iers	-9732
ilar	-9733
isha	-9734
kins	-9735
kkar	-9736
ksem	-9737
mosf	-9738
navn	-9739
ners	-9740
omic	-9741
otto	-9742
ouch	-9743
ques	-9744
rari	-9745
rykk	-9746
skom	-9747
spil	-9748
till	-9749
uelt	-9750
ugos	-9751
ured	-9752
uren	-9753
uthi	-9754
veka	-9755
verv	-9756
värd	-9757
yske	-9758
änts	-9759
ärde	-9760
æger	-9761
ølve	-9762
ønik	-9763
ører	-9764
▁115	-9765
▁141	-9766
▁167	-9767
▁Alf	-9768
▁Fur	-9769
▁Gas	-9770
▁Had	-9771
▁Ice	-9772
▁Ike	-9773
▁Kid	-9774
▁Lav	-9775
▁McG	-9776
▁Nov	-9777
▁Nyt	-9778
▁Orc	-9779
▁Pra	-9780
▁Råd	-9781
▁Sjø	-9782
▁Spe	-9783
▁Sud	-9784
▁Søs	-9785
▁Ted	-9786
▁Tje	-9787
▁Tok	-9788
▁Tot	-9789
▁Vig	-9790
▁Väl	-9791
▁Who	-9792
▁Wid	-9793
▁air	-9794
▁bal	-9795
▁ban	-9796
▁bom	-9797
▁cru	-9798
▁fal	-9799
▁frø	-9800
▁hid	-9801
▁hip	-9802
▁how	-9803
▁jäm	-9804
▁lyr	-9805
▁may	-9806
▁mig	-9807
▁påb	-9808
▁rød	-9809
▁san	-9810
▁saw	-9811
▁sko	-9812
▁spl	-9813
▁såg	-9814
▁vul	-9815
ading	-9816
aktär	-9817
amnet	-9818
anken	-9819
edans	-9820
essig	-9821
fødte	-9822
geren	-9823
giver	-9824
hamed	-9825
icoot	-9826
igste	-9827
kraft	-9828
levde	-9829
miljø	-9830
offic	-9831
orary	-9832
orgon	-9833
rater	-9834
reger	-9835
resse	-9836
rosso	-9837
shavn	-9838
smenn	-9839
ssjef	-9840
stone	-9841
terne	-9842
unnen	-9843
urred	-9844
usine	-9845
valet	-9846
venth	-9847
viger	-9848
äknas	-9849
▁1300	-9850
▁1818	-9851
▁1898	-9852
▁Balt	-9853
▁Bost	-9854
▁Boys	-9855
▁Capp	-9856
▁Crit	-9857
▁Dead	-9858
▁Deep	-9859
▁Døde	-9860
▁Etym	-9861
▁Fall	-9862
▁Fraf	-9863
▁Gall	-9864
▁Gård	-9865
▁Iver	-9866
▁Jazz	-9867
▁Jenn	-9868
▁Lanc	-9869
▁Lock	-9870
▁Roma	-9871
▁Schl	-9872
▁Snow	-9873
▁Stef	-9874
▁Svan	-9875
▁Sølv	-9876
▁Vend	-9877
▁Vinn	-9878
▁Wood	-9879
▁acqu	-9880
▁bäst	-9881
▁comm	-9882
▁cred	-9883
▁dart	-9884
▁drag	-9885
▁døgn	-9886
▁enev	-9887
▁euro	-9888
▁gran	-9889
▁heir	-9890
▁hens	-9891
▁jarn	-9892
▁kart	-9893
▁kast	-9894
▁kona	-9895
▁käll	-9896
▁lige	-9897
▁lyss	-9898
▁måle	-9899
▁olje	-9900
▁oppg	-9901
▁park	-9902
▁pens	-9903
▁psyk	-9904
▁sagt	-9905
▁sann	-9906
▁sjef	-9907
▁strå	-9908
▁syng	-9909
▁takt	-9910
▁tala	-9911
▁tent	-9912
▁veks	-9913
aktion	-9914
avisen	-9915
bejder	-9916
berett	-9917
borgar	-9918
delsen	-9919
dommen	-9920
edømme	-9921
father	-9922
føring	-9923
iserer	-9924
ission	-9925
lavien	-9926
lement	-9927
ningom	-9928
onsert	-9929
otland	-9930
rossen	-9931
sdelar	-9932
skaper	-9933
skende	-9934
staten	-9935
staven	-9936
styrke	-9937
usalem	-9938
valgte	-9939
▁Annie	-9940
▁Baden	-9941
▁Berit	-9942
▁Betty	-9943
▁Bobby	-9944
▁Cohen	-9945
▁Color	-9946
▁Dessa	-9947
▁Disse	-9948
▁Domin	-9949
▁Every	-9950
▁Force	-9951
▁Genom	-9952
▁Gnags	-9953
▁Imper	-9954
▁Ingen	-9955
▁Jugos	-9956
▁Lager	-9957
▁Monte	-9958
▁Natur	-9959
▁Never	-9960
▁Några	-9961
▁Patri	-9962
▁Reder	-9963
▁Roald	-9964
▁Scene	-9965
▁Short	-9966
▁Sibir	-9967
▁Sjølv	-9968
▁Solna	-9969
▁Stall	-9970
▁Tyler	-9971
▁arter	-9972
▁assoc	-9973
▁beröm	-9974
▁bevar	-9975
▁claim	-9976
▁condu	-9977
▁conne	-9978
▁contr	-9979
▁endte	-9980
▁entre	-9981
▁favor	-9982
▁firma	-9983
▁flykt	-9984
▁focus	-9985
▁forel	-9986
▁fritt	-9987
▁gjest	-9988
▁kolle	-9989
▁navne	-9990
▁nedst	-9991
▁occas	-9992
▁prega	-9993
▁rolla	-9994
▁round	-9995
▁skala	-9996
▁skipa	-9997
▁spons	-9998
▁synge	-9999
▁söner	-10000
▁these	-10001
▁utbre	-10002
▁utmär	-10003
▁utnem	-10004
▁whose	-10005
▁yrkes	-10006
atarina	-10007
bolaget	-10008
ciation	-10009
enteret	-10010
esongen	-10011
fecture	-10012
illings	-10013
imately	-10014
klassen	-10015
ksjonar	-10016
ordning	-10017
værdige	-10018
▁Athena	-10019
▁Dagens	-10020
▁Dakota	-10021
▁Elling	-10022
▁Girona	-10023
▁Hunter	-10024
▁Kanada	-10025
▁Libert	-10026
▁Lyngby	-10027
▁Madrid	-10028
▁Matoma	-10029
▁Medlem	-10030
▁Mickey	-10031
▁Miller	-10032
▁Office	-10033
▁Posten	-10034
▁Shelby	-10035
▁Sussex	-10036
▁Verden	-10037
▁arbete	-10038
▁behövs	-10039
▁brødre	-10040
▁bøkene	-10041
▁därför	-10042
▁filmar	-10043
▁finish	-10044
▁fiolin	-10045
▁formål	-10046
▁future	-10047
▁förlor	-10048
▁fødsel	-10049
▁følgje	-10050
▁ganske	-10051
▁gifter	-10052
▁grønne	-10053
▁harmon	-10054
▁hvoraf	-10055
▁inngår	-10056
▁innlem	-10057
▁kolleg	-10058
▁kunstn	-10059
▁leader	-10060
▁lineup	-10061
▁maskin	-10062
▁meldte	-10063
▁mitten	-10064
▁moving	-10065
▁opført	-10066
▁platin	-10067
▁praise	-10068
▁profil	-10069
▁samisk	-10070
▁siffer	-10071
▁skedde	-10072
▁sketch	-10073
▁styres	-10074
▁tidiga	-10075
▁titled	-10076
▁trilog	-10077
▁utøver	-10078
▁övriga	-10079
adelphia	-10080
agnitude	-10081
forening	-10082
ingeniør	-10083
stemning	-10084
ærlighed	-10085
▁Aukland	-10086
▁Bernard	-10087
▁Claudia	-10088
▁Donaghy	-10089
▁Ferrari	-10090
▁Granger	-10091
▁Islands	-10092
▁Italian	-10093
▁Jelling	-10094
▁Juliana	-10095
▁Jönsson	-10096
▁Leopold	-10097
▁Lundell	-10098
▁Malmsjö	-10099
▁Mission	-10100
▁Mohamed	-10101
▁Norfolk	-10102
▁Pommern	-10103
▁Serbien	-10104
▁Sprogøe	-10105
▁Stanley	-10106
▁advokat	-10107
▁afslutt	-10108
▁ansatte	-10109
▁arbeidd	-10110
▁bandets	-10111
▁baseret	-10112
▁bestemt	-10113
▁bildade	-10114
▁ceremon	-10115
▁dottern	-10116
▁eigedom	-10117
▁ekstrem	-10118
▁fjellet	-10119
▁fortsat	-10120
▁gestalt	-10121
▁longest	-10122
▁længere	-10123
▁nærings	-10124
▁opgaver	-10125
▁oppstod	-10126
▁partier	-10127
▁primært	-10128
▁prosent	-10129
▁registr	-10130
▁running	-10131
▁statist	-10132
▁sørlege	-10133
▁tekster	-10134
▁tjenest	-10135
▁videreg	-10136
▁Øystein	-10137
forsvaret	-10138
▁Atlantic	-10139
▁Birgitte	-10140
▁Dramaten	-10141
▁Einstein	-10142
▁Erichsen	-10143
▁Familjen	-10144
▁Frafjord	-10145
▁Ingrosso	-10146
▁Jyllands	-10147
▁Lawrence	-10148
▁Schwerin	-10149
▁Travolta	-10150
▁anställd	-10151
▁arbeider	-10152
▁arkitekt	-10153
▁artikkel	-10154
▁arverett	-10155
▁astronom	-10156
▁backhopp	-10157
▁bakgrund	-10158
▁commonly	-10159
▁competed	-10160
▁contract	-10161
▁framträd	-10162
▁følgende	-10163
▁grevskap	-10164
▁grunnlov	-10165
▁handling	-10166
▁imperiet	-10167
▁jubileum	-10168
▁kinesisk	-10169
▁kongelig	-10170
▁kulturar	-10171
▁luftskip	-10172
▁oppretta	-10173
▁populært	-10174
▁regissør	-10175
▁sentralt	-10176
▁soundtra	-10177
▁spørsmål	-10178
▁startade	-10179
▁wrestler	-10180
▁Østerbro	-10181
▁österrik	-10182
▁østerrik	-10183
debuterade	-10184
▁Antarktis	-10185
▁Friedrich	-10186
▁Gregorian	-10187
▁Hendingar	-10188
▁Jerusalem	-10189
▁Nationale	-10190
▁arveprins	-10191
▁barnebarn	-10192
▁beskriver	-10193
▁continued	-10194
▁currently	-10195
▁filmmaker	-10196
▁forveksle	-10197
▁interesse	-10198
▁kontinent	-10199
▁nasjonale	-10200
▁nasjonals	-10201
▁republikk	-10202
▁småningom	-10203
▁studerede	-10204
▁sångerska	-10205
▁tillbring	-10206
▁tävlingen	-10207
▁återvände	-10208
▁Journalist	-10209
▁Vestlandet	-10210
▁abdikation	-10211
▁biopremiär	-10212
▁dramatiker	-10213
▁efterfulgt	-10214
▁exempelvis	-10215
▁government	-10216
▁kompositör	-10217
▁kongeriket	-10218
▁overgangen	-10219
▁popularity	-10220
▁portraying	-10221
▁produktion	-10222
▁regjeringa	-10223
▁verdscupen	-10224
▁Hammarström	-10225
▁Jugoslavien	-10226
▁Republikken	-10227
▁geografiske	-10228
▁grandfather	-10229
▁inspiration	-10230
▁installment	-10231
▁regisserade	-10232
▁statsborger	-10233
▁tilldelades	-10234
▁pornographic	-10235
▁radioprogram	-10236
▁universitets	-10237
▁pronunciation	-10238
▁fotballspiller	-10239
▁statsoverhoved	-10240
▁underholdnings	-10241
DO	-10242
EW	-10243
TC	-10244
rd	-10245
VII	-10246
adu	-10247
akh	-10248
ams	-10249
arr	-10250
auk	-10251
bon	-10252
cen	-10253
cho	-10254
cia	-10255
cke	-10256
eie	-10257
eli	-10258
fal	-10259
gem	-10260
hub	-10261
kor	-10262
lam	-10263
lat	-10264
låt	-10265
mes	-10266
oly	-10267
ple	-10268
ppe	-10269
rah	-10270
rej	-10271
räd	-10272
sjø	-10273
täl	-10274
uez	-10275
uke	-10276
ump	-10277
urb	-10278
vey	-10279
ynt	-10280
älj	-10281
öse	-10282
▁AF	-10283
▁CD	-10284
▁Dy	-10285
▁Ev	-10286
▁Fi	-10287
▁If	-10288
▁MC	-10289
▁Ru	-10290
▁Tu	-10291
▁Tv	-10292
▁fø	-10293
▁gi	-10294
▁if	-10295
▁ja	-10296
▁kö	-10297
▁um	-10298
▁yt	-10299
abad	-10300
aded	-10301
ancy	-10302
anic	-10303
atom	-10304
ause	-10305
aver	-10306
avis	-10307
bane	-10308
bell	-10309
blod	-10310
botn	-10311
come	-10312
dorf	-10313
edyr	-10314
ends	-10315
erty	-10316
halv	-10317
iami	-10318
iano	-10319
ilyn	-10320
imov	-10321
jobb	-10322
kkel	-10323
lock	-10324
lyck	-10325
lägg	-10326
mina	-10327
odor	-10328
okko	-10329
olds	-10330
olis	-10331
onna	-10332
ours	-10333
ragt	-10334
reds	-10335
rock	-10336
seln	-10337
sene	-10338
står	-10339
unga	-10340
vice	-10341
ways	-10342
yria	-10343
åten	-10344
över	-10345
▁110	-10346
▁166	-10347
▁700	-10348
▁CET	-10349
▁Cat	-10350
▁Clo	-10351
▁DNB	-10352
▁Dor	-10353
▁Fon	-10354
▁Fox	-10355
▁Jol	-10356
▁Kas	-10357
▁Ler	-10358
▁Lof	-10359
▁Lon	-10360
▁Mun	-10361
▁Mål	-10362
▁Nes	-10363
▁Ray	-10364
▁Sax	-10365
▁Sot	-10366
▁UFC	-10367
▁UTC	-10368
▁Våg	-10369
▁Wol	-10370
▁Zia	-10371
▁bog	-10372
▁did	-10373
▁duo	-10374
▁föl	-10375
▁gul	-10376
▁ins	-10377
▁lei	-10378
▁lod	-10379
▁næv	-10380
▁opk	-10381
▁ple	-10382
▁sax	-10383
▁tev	-10384
▁tip	-10385
▁ult	-10386
▁ære	-10387
allas	-10388
antag	-10389
asakh	-10390
athan	-10391
brans	-10392
crona	-10393
danna	-10394
datab	-10395
ellef	-10396
ences	-10397
ertal	-10398
esjon	-10399
esson	-10400
fødde	-10401
hovud	-10402
iblio	-10403
ikale	-10404
inert	-10405
ische	-10406
jamin	-10407
kvart	-10408
lehem	-10409
neren	-10410
nskap	-10411
ollum	-10412
olmen	-10413
polit	-10414
rafik	-10415
riple	-10416
sjekt	-10417
smann	-10418
stead	-10419
tälje	-10420
usion	-10421
viste	-10422
▁1842	-10423
▁1849	-10424
▁1888	-10425
▁1911	-10426
▁Anim	-10427
▁Aven	-10428
▁Beha	-10429
▁Book	-10430
▁Buls	-10431
▁Chal	-10432
▁Chap	-10433
▁Dean	-10434
▁Doug	-10435
▁Egyp	-10436
▁Ekst	-10437
▁Elsa	-10438
▁Fern	-10439
▁Gard	-10440
▁Gill	-10441
▁Giro	-10442
▁Hart	-10443
▁Haus	-10444
▁Idol	-10445
▁Lost	-10446
▁Luke	-10447
▁Main	-10448
▁Male	-10449
▁Mort	-10450
▁Most	-10451
▁Navy	-10452
▁Nina	-10453
▁Nytt	-10454
▁Osen	-10455
▁Robb	-10456
▁Shar	-10457
▁Some	-10458
▁Soul	-10459
▁Stør	-10460
▁Tett	-10461
▁Tore	-10462
▁Törn	-10463
▁Ulla	-10464
▁anne	-10465
▁belä	-10466
▁city	-10467
▁dags	-10468
▁domp	-10469
▁drog	-10470
▁epic	-10471
▁felt	-10472
▁fril	-10473
▁frit	-10474
▁fund	-10475
▁gave	-10476
▁give	-10477
▁græn	-10478
▁komt	-10479
▁kore	-10480
▁lost	-10481
▁ober	-10482
▁olde	-10483
▁past	-10484
▁poet	-10485
▁ridd	-10486
▁sand	-10487
▁seie	-10488
▁shot	-10489
▁skad	-10490
▁sons	-10491
▁soul	-10492
▁spil	-10493
▁spre	-10494
▁stav	-10495
▁sund	-10496
▁synd	-10497
▁tema	-10498
▁teor	-10499
▁vand	-10500
▁viet	-10501
▁wiki	-10502
▁wins	-10503
▁Øres	-10504
▁øyer	-10505
allebl	-10506
draget	-10507
espite	-10508
følgje	-10509
gifter	-10510
gruppa	-10511
holdet	-10512
ilding	-10513
imeter	-10514
isborg	-10515
isemit	-10516
kinson	-10517
konkur	-10518
kontor	-10519
leiken	-10520
mother	-10521
orgrad	-10522
regiss	-10523
ruppen	-10524
skaber	-10525
stende	-10526
strong	-10527
terede	-10528
toppen	-10529
vement	-10530
▁Afton	-10531
▁Boine	-10532
▁Britt	-10533
▁Brook	-10534
▁Burns	-10535
▁Chand	-10536
▁Crazy	-10537
▁Crown	-10538
▁Eugen	-10539
▁Fanny	-10540
▁Films	-10541
▁Først	-10542
▁Grang	-10543
▁Gucci	-10544
▁Herre	-10545
▁Hjelm	-10546
▁Hovud	-10547
▁Inden	-10548
▁Islam	-10549
▁Jerry	-10550
▁Jimmy	-10551
▁Kring	-10552
▁Leeds	-10553
▁Lucas	-10554
▁Marsh	-10555
▁Mason	-10556
▁Miami	-10557
▁Money	-10558
▁Opera	-10559
▁Other	-10560
▁Putin	-10561
▁Rocky	-10562
▁Satur	-10563
▁Steph	-10564
▁Sweet	-10565
▁Three	-10566
▁anmel	-10567
▁bakke	-10568
▁benäm	-10569
▁bidra	-10570
▁black	-10571
▁bröll	-10572
▁byens	-10573
▁colle	-10574
▁conte	-10575
▁draft	-10576
▁drift	-10577
▁ektem	-10578
▁exist	-10579
▁finne	-10580
▁fored	-10581
▁funkt	-10582
▁goals	-10583
▁græsk	-10584
▁heter	-10585
▁hører	-10586
▁innsp	-10587
▁invit	-10588
▁krets	-10589
▁local	-10590
▁lyser	-10591
▁länge	-10592
▁masse	-10593
▁medie	-10594
▁mulig	-10595
▁north	-10596
▁parts	-10597
▁reign	-10598
▁retur	-10599
▁royal	-10600
▁salat	-10601
▁sidst	-10602
▁skatt	-10603
▁skikk	-10604
▁skjer	-10605
▁slett	-10606
▁slike	-10607
▁spele	-10608
▁stein	-10609
▁såvel	-10610
▁såväl	-10611
▁teikn	-10612
▁torsk	-10613
▁traff	-10614
▁turné	-10615
▁typar	-10616
▁water	-10617
▁zodia	-10618
andemic	-10619
biograf	-10620
bottens	-10621
eksamen	-10622
elserne	-10623
issippi	-10624
istrikt	-10625
kommere	-10626
legaste	-10627
områder	-10628
onessen	-10629
semedal	-10630
sångare	-10631
teatern	-10632
tenberg	-10633
▁Amalie	-10634
▁Austin	-10635
▁Boston	-10636
▁Butler	-10637
▁Gazast	-10638
▁Gerwen	-10639
▁Grevin	-10640
▁Helena	-10641
▁Hirosh	-10642
▁Morris	-10643
▁Nilsen	-10644
▁Nordir	-10645
▁Noregs	-10646
▁Norway	-10647
▁Ousdal	-10648
▁Parret	-10649
▁Ravens	-10650
▁Silver	-10651
▁Sommar	-10652
▁Sorgen	-10653
▁Spider	-10654
▁Staten	-10655
▁Stefan	-10656
▁Tellef	-10657
▁Triple	-10658
▁Valent	-10659
▁Vladim	-10660
▁adress	-10661
▁adskil	-10662
▁amatør	-10663
▁angive	-10664
▁anvend	-10665
▁arbets	-10666
▁awards	-10667
▁billed	-10668
▁degree	-10669
▁effekt	-10670
▁elleve	-10671
▁europæ	-10672
▁flesta	-10673
▁foster	-10674
▁följde	-10675
▁genres	-10676
▁gården	-10677
▁høsten	-10678
▁kaldes	-10679
▁konfir	-10680
▁konges	-10681
▁konkur	-10682
▁kontor	-10683
▁kvinna	-10684
▁ledare	-10685
▁lengst	-10686
▁liksom	-10687
▁lokalt	-10688
▁lyssna	-10689
▁metall	-10690
▁midler	-10691
▁morfar	-10692
▁norges	-10693
▁nyttar	-10694
▁panter	-10695
▁parall	-10696
▁peaked	-10697
▁produc	-10698
▁promot	-10699
▁påverk	-10700
▁ranger	-10701
▁regler	-10702
▁regnet	-10703
▁reiste	-10704
▁senest	-10705
▁skapte	-10706
▁skilsm	-10707
▁skriva	-10708
▁socken	-10709
▁starte	-10710
▁storby	-10711
▁sviger	-10712
▁taking	-10713
▁tsjekk	-10714
▁typisk	-10715
▁udsend	-10716
▁unions	-10717
▁Øyvind	-10718
historie	-10719
mesteren	-10720
overande	-10721
residens	-10722
▁Beckham	-10723
▁Branden	-10724
▁Carsten	-10725
▁Epstein	-10726
▁Fischer	-10727
▁Hermine	-10728
▁Holland	-10729
▁Hoppuka	-10730
▁Indiana	-10731
▁Liberty	-10732
▁Nicolas	-10733
▁Sandvik	-10734
▁Skolmen	-10735
▁Tolkien	-10736
▁Walther	-10737
▁arveret	-10738
▁attempt	-10739
▁avgrens	-10740
▁avslutt	-10741
▁betrakt	-10742
▁biograf	-10743
▁centrum	-10744
▁decades	-10745
▁entrepr	-10746
▁etniske	-10747
▁faderen	-10748
▁fjorden	-10749
▁friends	-10750
▁fylkene	-10751
▁företag	-10752
▁gjenopp	-10753
▁hvordan	-10754
▁høgaste	-10755
▁høyeste	-10756
▁initial	-10757
▁innehål	-10758
▁innflyt	-10759
▁innsats	-10760
▁innspel	-10761
▁intress	-10762
▁jordbäv	-10763
▁jødiske	-10764
▁kaptein	-10765
▁klockan	-10766
▁kristen	-10767
▁landene	-10768
▁lansert	-10769
▁medlems	-10770
▁morbror	-10771
▁navnene	-10772
▁nyttårs	-10773
▁offiser	-10774
▁omfatta	-10775
▁overall	-10776
▁populär	-10777
▁reklame	-10778
▁spilles	-10779
▁stjerne	-10780
▁studied	-10781
▁stykket	-10782
▁tillige	-10783
▁tituler	-10784
▁tsunami	-10785
▁tävling	-10786
▁visades	-10787
▁visited	-10788
assistent	-10789
▁Benjamin	-10790
▁Bernhard	-10791
▁Grönland	-10792
▁Hermione	-10793
▁Historik	-10794
▁Johansen	-10795
▁Lindgren	-10796
▁Rasputin	-10797
▁Rollista	-10798
▁Simonsen	-10799
▁Utlandet	-10800
▁Värmland	-10801
▁Westling	-10802
▁allereie	-10803
▁although	-10804
▁användes	-10805
▁bestemte	-10806
▁diplomat	-10807
▁document	-10808
▁domestic	-10809
▁ettersom	-10810
▁forlovet	-10811
▁founding	-10812
▁handball	-10813
▁kildehen	-10814
▁konflikt	-10815
▁kritiker	-10816
▁lykkedes	-10817
▁minutter	-10818
▁mytologi	-10819
▁palestin	-10820
▁pandemic	-10821
▁programm	-10822
▁påstande	-10823
▁religion	-10824
▁skildrar	-10825
▁stiftamt	-10826
▁stjerner	-10827
▁særskild	-10828
▁teateret	-10829
▁transfer	-10830
▁vestlege	-10831
▁vestlige	-10832
journalist	-10833
▁Cambridge	-10834
▁Christmas	-10835
▁Dramatens	-10836
▁Etymologi	-10837
▁Guldbagge	-10838
▁Gårdinger	-10839
▁Göteborgs	-10840
▁Politiken	-10841
▁Principal	-10842
▁Slovenien	-10843
▁abdiserte	-10844
▁anledning	-10845
▁australsk	-10846
▁beskrevet	-10847
▁demokrati	-10848
▁elevskola	-10849
▁fjernsyns	-10850
▁fremføres	-10851
▁generally	-10852
▁germanske	-10853
▁grunnlegg	-10854
▁initiativ	-10855
▁klassiske	-10856
▁lillebror	-10857
▁sammenslå	-10858
▁tidningen	-10859
▁transport	-10860
▁uavhengig	-10861
▁vitenskap	-10862
▁Foreldrene	-10863
▁Impossible	-10864
▁Oberstdorf	-10865
▁Referanser	-10866
▁Rossington	-10867
▁adskillige	-10868
▁betegnelse	-10869
▁dramatikar	-10870
▁dronningen	-10871
▁filmroller	-10872
▁generation	-10873
▁influenced	-10874
▁inneholder	-10875
▁låtskrivar	-10876
▁offentlige	-10877
▁regisserad	-10878
▁regjerende	-10879
▁revyartist	-10880
▁troværdige	-10881
▁Mississippi	-10882
▁Oslofjorden	-10883
▁arrangement	-10884
▁businessman	-10885
▁folkemusikk	-10886
▁hovudstaden	-10887
▁kammerherre	-10888
▁kontinentet	-10889
▁meisterskap	-10890
▁oprindeligt	-10891
▁samarbeidet	-10892
▁Philadelphia	-10893
▁austerrikske	-10894
▁forretningsm	-10895
▁organization	-10896
▁størstedelen	-10897
▁trommeslager	-10898
▁videregående	-10899
▁återkommande	-10900
▁Meteorologisk	-10901
▁framgångsrika	-10902
▁huvudrollerna	-10903
▁tradisjonelle	-10904
▁offentliggjort	-10905
▁utgangspunktet	-10906
▁Teaterhögskolan	-10907
▁statsministeren	-10908
AN	-10909
CC	-10910
GP	-10911
MS	-10912
RI	-10913
SS	-10914
ST	-10915
VP	-10916
ep	-10917
ex	-10918
ji	-10919
jo	-10920
ór	-10921
▁ə	-10922
CAA	-10923
aer	-10924
aps	-10925
byr	-10926
cis	-10927
din	-10928
esc	-10929
eta	-10930
gon	-10931
gör	-10932
hip	-10933
iko	-10934
ité	-10935
izu	-10936
jes	-10937
juk	-10938
jän	-10939
kår	-10940
lex	-10941
lyg	-10942
lös	-10943
oon	-10944
peg	-10945
ryd	-10946
sle	-10947
täv	-10948
uda	-10949
vre	-10950
väg	-10951
yns	-10952
åre	-10953
ærd	-10954
øyr	-10955
▁61	-10956
▁65	-10957
▁74	-10958
▁77	-10959
▁DO	-10960
▁GO	-10961
▁GP	-10962
▁Hv	-10963
▁IL	-10964
▁Ku	-10965
▁LO	-10966
▁Lj	-10967
▁SJ	-10968
▁XL	-10969
▁il	-10970
▁kæ	-10971
▁mi	-10972
▁zo	-10973
▁ød	-10974
▁ال	-10975
Wiki	-10976
aleg	-10977
amas	-10978
andy	-10979
bein	-10980
bilt	-10981
brug	-10982
bygd	-10983
eare	-10984
ecca	-10985
eded	-10986
eley	-10987
ello	-10988
fald	-10989
fant	-10990
felt	-10991
fest	-10992
gata	-10993
grad	-10994
gået	-10995
iast	-10996
icts	-10997
ides	-10998
idit	-10999
iene	-11000
iets	-11001
ifrå	-11002
ikal	-11003
ique	-11004
iten	-11005
kvar	-11006
lara	-11007
mere	-11008
moen	-11009
nene	-11010
ogue	-11011
oney	-11012
oser	-11013
owbo	-11014
rets	-11015
rind	-11016
seud	-11017
toft	-11018
uron	-11019
usch	-11020
vens	-11021
vise	-11022
ware	-11023
yska	-11024
ytte	-11025
zona	-11026
▁156	-11027
▁Akt	-11028
▁Alm	-11029
▁Bos	-11030
▁Dog	-11031
▁FIS	-11032
▁Gig	-11033
▁Gil	-11034
▁Its	-11035
▁Jar	-11036
▁Jen	-11037
▁Lim	-11038
▁Lyd	-11039
▁Moe	-11040
▁Nev	-11041
▁Nix	-11042
▁Nær	-11043
▁Pia	-11044
▁Pyr	-11045
▁Raw	-11046
▁Rey	-11047
▁Rhe	-11048
▁Six	-11049
▁Ske	-11050
▁Sri	-11051
▁Sub	-11052
▁Ton	-11053
▁Vad	-11054
▁Web	-11055
▁bot	-11056
▁bøl	-11057
▁bøn	-11058
▁dræ	-11059
▁ess	-11060
▁fel	-11061
▁fol	-11062
▁hal	-11063
▁kam	-11064
▁kin	-11065
▁kro	-11066
▁lat	-11067
▁lej	-11068
▁møb	-11069
▁nob	-11070
▁ott	-11071
▁pat	-11072
▁pay	-11073
▁rak	-11074
▁spy	-11075
▁tän	-11076
▁tät	-11077
▁Åke	-11078
▁øer	-11079
adsen	-11080
afton	-11081
alifa	-11082
avdel	-11083
aware	-11084
bjerg	-11085
bolig	-11086
break	-11087
bruck	-11088
debut	-11089
dende	-11090
emang	-11091
endet	-11092
enser	-11093
ersom	-11094
foren	-11095
heden	-11096
house	-11097
iring	-11098
kkede	-11099
larna	-11100
linje	-11101
melig	-11102
nerte	-11103
ocrat	-11104
otisk	-11105
oukal	-11106
polen	-11107
remål	-11108
ronic	-11109
siden	-11110
skaff	-11111
skans	-11112
sling	-11113
sprin	-11114
stres	-11115
upert	-11116
uropa	-11117
urope	-11118
ussen	-11119
varen	-11120
verdi	-11121
väten	-11122
wards	-11123
worth	-11124
ytter	-11125
årige	-11126
ængst	-11127
▁1200	-11128
▁1448	-11129
▁1648	-11130
▁1707	-11131
▁1804	-11132
▁1837	-11133
▁1853	-11134
▁1860	-11135
▁1902	-11136
▁Avis	-11137
▁Baby	-11138
▁Bonn	-11139
▁Boss	-11140
▁Brow	-11141
▁Cann	-11142
▁Cath	-11143
▁Clem	-11144
▁Clin	-11145
▁Cool	-11146
▁Copp	-11147
▁Cost	-11148
▁Crow	-11149
▁Dals	-11150
▁Frin	-11151
▁Gamm	-11152
▁Gord	-11153
▁Haga	-11154
▁Hjem	-11155
▁Hoff	-11156
▁Hord	-11157
▁Inde	-11158
▁Inns	-11159
▁Jama	-11160
▁Jevn	-11161
▁Kaas	-11162
▁Kara	-11163
▁Kash	-11164
▁Kenn	-11165
▁Mest	-11166
▁Meta	-11167
▁More	-11168
▁Mosk	-11169
▁NCAA	-11170
▁Noen	-11171
▁Olga	-11172
▁Olle	-11173
▁Pitt	-11174
▁Siob	-11175
▁Skov	-11176
▁Sony	-11177
▁Spel	-11178
▁Spot	-11179
▁Ther	-11180
▁Town	-11181
▁USAs	-11182
▁Vind	-11183
▁Weng	-11184
▁aged	-11185
▁anal	-11186
▁auld	-11187
▁belg	-11188
▁expl	-11189
▁feil	-11190
▁fuld	-11191
▁gard	-11192
▁graf	-11193
▁gøre	-11194
▁hosp	-11195
▁isol	-11196
▁kass	-11197
▁klub	-11198
▁kome	-11199
▁kors	-11200
▁krog	-11201
▁leap	-11202
▁mekt	-11203
▁oppd	-11204
▁otte	-11205
▁papp	-11206
▁prøv	-11207
▁pund	-11208
▁reve	-11209
▁site	-11210
▁skat	-11211
▁skur	-11212
▁stra	-11213
▁stry	-11214
▁særs	-11215
▁tage	-11216
▁thre	-11217
▁tjug	-11218
▁type	-11219
▁tyrk	-11220
▁uker	-11221
▁vass	-11222
▁what	-11223
▁Även	-11224
▁Åker	-11225
adesel	-11226
agtens	-11227
aktige	-11228
botten	-11229
dommer	-11230
eledes	-11231
elskap	-11232
elsson	-11233
enneth	-11234
enomen	-11235
erades	-11236
garden	-11237
gjande	-11238
ighets	-11239
istrer	-11240
ivelse	-11241
kkende	-11242
kkerup	-11243
kshire	-11244
nesota	-11245
områda	-11246
orpset	-11247
priset	-11248
ration	-11249
stiden	-11250
strump	-11251
uation	-11252
ushing	-11253
ædende	-11254
önades	-11255
▁Bowes	-11256
▁Buena	-11257
▁Celeb	-11258
▁Claes	-11259
▁Crist	-11260
▁Cross	-11261
▁Denna	-11262
▁Deres	-11263
▁Ellen	-11264
▁Flere	-11265
▁Gamle	-11266
▁Glass	-11267
▁Gypsy	-11268
▁Heath	-11269
▁Indre	-11270
▁Innan	-11271
▁Klubb	-11272
▁Kosov	-11273
▁Linux	-11274
▁Medan	-11275
▁Natal	-11276
▁Paula	-11277
▁Penny	-11278
▁Romer	-11279
▁Runde	-11280
▁Saudi	-11281
▁Stift	-11282
▁Stjer	-11283
▁While	-11284
▁Winge	-11285
▁absol	-11286
▁appro	-11287
▁bakom	-11288
▁barnd	-11289
▁baron	-11290
▁bogen	-11291
▁brats	-11292
▁budde	-11293
▁crash	-11294
▁delte	-11295
▁drive	-11296
▁drums	-11297
▁eksil	-11298
▁elder	-11299
▁elles	-11300
▁funne	-11301
▁fysik	-11302
▁gerne	-11303
▁helse	-11304
▁holds	-11305
▁homof	-11306
▁incre	-11307
▁julen	-11308
▁jurid	-11309
▁krigs	-11310
▁legal	-11311
▁långt	-11312
▁medic	-11313
▁metal	-11314
▁multi	-11315
▁månen	-11316
▁måste	-11317
▁møter	-11318
▁noget	-11319
▁nyårs	-11320
▁pilot	-11321
▁pseud	-11322
▁recru	-11323
▁sjeld	-11324
▁skete	-11325
▁slået	-11326
▁sound	-11327
▁stark	-11328
▁stren	-11329
▁ställ	-11330
▁succé	-11331
▁those	-11332
▁track	-11333
▁trakk	-11334
▁udgør	-11335
▁udtry	-11336
▁utmer	-11337
▁utnev	-11338
▁valet	-11339
▁vesle	-11340
▁villa	-11341
▁white	-11342
▁Åberg	-11343
ademien	-11344
allenge	-11345
amester	-11346
aprisen	-11347
ementer	-11348
estrand	-11349
irkende	-11350
ittelen	-11351
musiker	-11352
ningane	-11353
oretisk	-11354
present	-11355
shistor	-11356
stammar	-11357
stander	-11358
unnskap	-11359
ættelse	-11360
▁Africa	-11361
▁Amerik	-11362
▁Artist	-11363
▁Befolk	-11364
▁Bowles	-11365
▁Dagmar	-11366
▁Dermed	-11367
▁Dersom	-11368
▁Eduard	-11369
▁Ekstra	-11370
▁Felipe	-11371
▁Fleire	-11372
▁Forbes	-11373
▁Gunder	-11374
▁Hawaii	-11375
▁Hunger	-11376
▁Jeremy	-11377
▁Jorden	-11378
▁Kasakh	-11379
▁Krigen	-11380
▁Larvik	-11381
▁Madsen	-11382
▁Mikkel	-11383
▁Nassau	-11384
▁Nobile	-11385
▁Norman	-11386
▁Reidar	-11387
▁Roland	-11388
▁Series	-11389
▁Sports	-11390
▁Sunday	-11391
▁Tidleg	-11392
▁Vander	-11393
▁Wenche	-11394
▁Wigert	-11395
▁allier	-11396
▁assist	-11397
▁banden	-11398
▁besteg	-11399
▁bestyr	-11400
▁bestäm	-11401
▁broder	-11402
▁broren	-11403
▁bröder	-11404
▁cultur	-11405
▁danser	-11406
▁deltak	-11407
▁dersom	-11408
▁domain	-11409
▁elsker	-11410
▁erobra	-11411
▁expans	-11412
▁fantas	-11413
▁floden	-11414
▁forårs	-11415
▁friend	-11416
▁fysisk	-11417
▁fætter	-11418
▁förste	-11419
▁grense	-11420
▁heiter	-11421
▁hellig	-11422
▁hemmel	-11423
▁hentet	-11424
▁hidtil	-11425
▁import	-11426
▁island	-11427
▁jurist	-11428
▁keisar	-11429
▁kendte	-11430
▁killed	-11431
▁kusine	-11432
▁längre	-11433
▁lärare	-11434
▁market	-11435
▁mistet	-11436
▁oppføl	-11437
▁opptak	-11438
▁reform	-11439
▁scener	-11440
▁sikker	-11441
▁snabbt	-11442
▁spelas	-11443
▁stille	-11444
▁talang	-11445
▁talets	-11446
▁travel	-11447
▁udgave	-11448
▁vedtok	-11449
▁verket	-11450
▁viking	-11451
▁within	-11452
▁yngsta	-11453
▁østrig	-11454
bjørnsen	-11455
ological	-11456
personen	-11457
standing	-11458
stendige	-11459
stilling	-11460
▁Agnetha	-11461
▁Aquaman	-11462
▁Arizona	-11463
▁Bergens	-11464
▁Brigade	-11465
▁Bulsara	-11466
▁Commons	-11467
▁Dagblad	-11468
▁Desuden	-11469
▁Douglas	-11470
▁Egypten	-11471
▁Foreman	-11472
▁Forsvar	-11473
▁Fotball	-11474
▁Frinton	-11475
▁Gunilla	-11476
▁Halland	-11477
▁Harding	-11478
▁Henning	-11479
▁Highway	-11480
▁Hjalmar	-11481
▁Jacques	-11482
▁Johnsen	-11483
▁Kenneth	-11484
▁Kolding	-11485
▁Marokko	-11486
▁Moldova	-11487
▁Olympia	-11488
▁Olympic	-11489
▁Pornhub	-11490
▁Ptolema	-11491
▁Rebecca	-11492
▁Romania	-11493
▁Russell	-11494
▁Slottet	-11495
▁Sumatra	-11496
▁Through	-11497
▁Titanic	-11498
▁Verdens	-11499
▁Western	-11500
▁another	-11501
▁awarded	-11502
▁because	-11503
▁betragt	-11504
▁bosatte	-11505
▁bryllup	-11506
▁debuted	-11507
▁edition	-11508
▁ekspert	-11509
▁episode	-11510
▁faddere	-11511
▁flottan	-11512
▁fordelt	-11513
▁foregår	-11514
▁forvent	-11515
▁fylkest	-11516
▁förutom	-11517
▁gränsar	-11518
▁hertugd	-11519
▁innslag	-11520
▁knyttet	-11521
▁kollekt	-11522
▁kongens	-11523
▁konsent	-11524
▁konstru	-11525
▁kretsar	-11526
▁kæreste	-11527
▁located	-11528
▁lämnade	-11529
▁medisin	-11530
▁nordisk	-11531
▁nærmest	-11532
▁oppdrag	-11533
▁oppkalt	-11534
▁oppløst	-11535
▁platene	-11536
▁primary	-11537
▁relativ	-11538
▁romersk	-11539
▁segment	-11540
▁seremon	-11541
▁singler	-11542
▁sponsor	-11543
▁standup	-11544
▁stipend	-11545
▁studiet	-11546
▁styrkar	-11547
▁teacher	-11548
▁tidenes	-11549
▁utnemnd	-11550
▁western	-11551
▁without	-11552
▁ønskede	-11553
▁Betlehem	-11554
▁Brooklyn	-11555
▁Brothers	-11556
▁Brygmann	-11557
▁Delaware	-11558
▁Grekland	-11559
▁Hongkong	-11560
▁Hækkerup	-11561
▁Jennifer	-11562
▁Katarina	-11563
▁Lundgren	-11564
▁Musikken	-11565
▁Nagasaki	-11566
▁Philippe	-11567
▁Ryssland	-11568
▁Venstres	-11569
▁annekter	-11570
▁användas	-11571
▁bortsett	-11572
▁böckerna	-11573
▁computer	-11574
▁designer	-11575
▁determin	-11576
▁discover	-11577
▁educated	-11578
▁episoder	-11579
▁extended	-11580
▁foredrag	-11581
▁generell	-11582
▁halvbror	-11583
▁herefter	-11584
▁hovedsag	-11585
▁innførte	-11586
▁karaktär	-11587
▁kolväten	-11588
▁kommunal	-11589
▁kortfilm	-11590
▁lyserøde	-11591
▁medverka	-11592
▁naturleg	-11593
▁nordmann	-11594
▁nordväst	-11595
▁occurred	-11596
▁oppslags	-11597
▁overtage	-11598
▁personen	-11599
▁plassert	-11600
▁reformer	-11601
▁reported	-11602
▁reporter	-11603
▁romartal	-11604
▁sekretær	-11605
▁teenager	-11606
▁tettsted	-11607
▁turnerte	-11608
▁ungarske	-11609
▁varierer	-11610
▁Armstrong	-11611
▁Arveprins	-11612
▁Bandicoot	-11613
▁Cardinale	-11614
▁Ellingsen	-11615
▁Filmdatab	-11616
▁Hiroshima	-11617
▁Hordaland	-11618
▁Indonesia	-11619
▁Kongsberg	-11620
▁Lindgrens	-11621
▁Luxemburg	-11622
▁MediaWiki	-11623
▁Minnesota	-11624
▁Musikvere	-11625
▁Sorgenfri	-11626
▁Tellefsen	-11627
▁Wrestling	-11628
▁described	-11629
▁däribland	-11630
▁entertain	-11631
▁estimated	-11632
▁grunnlagd	-11633
▁internett	-11634
▁koncernen	-11635
▁landsbyen	-11636
▁magnitude	-11637
▁noverande	-11638
▁omhandler	-11639
▁personlig	-11640
▁presenter	-11641
▁profesjon	-11642
▁recording	-11643
▁samansett	-11644
▁skuespill	-11645
▁tillhörde	-11646
▁underlagt	-11647
itsminister	-11648
▁Grundloven	-11649
▁Handlingen	-11650
▁Kasakhstan	-11651
▁Nordirland	-11652
▁Prefecture	-11653
▁Republiken	-11654
▁Uddannelse	-11655
▁Vanderbilt	-11656
▁andreplass	-11657
▁behandling	-11658
▁centimeter	-11659
▁characters	-11660
▁eventually	-11661
▁hertiginna	-11662
▁italienska	-11663
▁kontroller	-11664
▁officiella	-11665
▁opphavlege	-11666
▁politician	-11667
▁prinsessen	-11668
▁samstundes	-11669
rigsminister	-11670
▁Brandenburg	-11671
▁Corporation	-11672
▁Nordamerika	-11673
▁Shakespeare	-11674
▁Shelbyville	-11675
▁Teaterskole	-11676
▁forfatteren	-11677
▁information	-11678
▁nederlandsk	-11679
▁nytårsaften	-11680
▁omdirigeres	-11681
▁popularitet	-11682
▁portugisisk	-11683
▁sjølvstende	-11684
▁territorier	-11685
▁titelrollen	-11686
▁Folketeatret	-11687
▁gjennombrudd	-11688
▁gregorianska	-11689
▁kringkasting	-11690
▁nederlandske	-11691
▁solokarriere	-11692
▁subsequently	-11693
▁Kalmarunionen	-11694
▁platekontrakt	-11695
▁professionell	-11696
▁Administrasjon	-11697
▁filminstruktør	-11698
▁tronfølgeloven	-11699
▁Arbeiderpartiet	-11700
RL	-11701
SA	-11702
bb	-11703
fj	-11704
gu	-11705
hl	-11706
lö	-11707
rh	-11708
za	-11709
▁م	-11710
aki	-11711
anw	-11712
arm	-11713
blå	-11714
bod	-11715
col	-11716
dle	-11717
ema	-11718
gik	-11719
gré	-11720
hal	-11721
hon	-11722
hum	-11723
itu	-11724
kis	-11725
kol	-11726
mær	-11727
oin	-11728
pin	-11729
ppa	-11730
rol	-11731
run	-11732
ryt	-11733
sep	-11734
ses	-11735
ski	-11736
tel	-11737
tro	-11738
tta	-11739
uen	-11740
uge	-11741
uta	-11742
ädd	-11743
ådd	-11744
éer	-11745
éon	-11746
öda	-11747
▁92	-11748
▁Ca	-11749
▁DJ	-11750
▁Eb	-11751
▁IT	-11752
▁Sr	-11753
▁Zu	-11754
▁dk	-11755
▁hå	-11756
▁sw	-11757
▁tå	-11758
abar	-11759
addy	-11760
amar	-11761
anel	-11762
anol	-11763
aure	-11764
bakk	-11765
bord	-11766
corn	-11767
dals	-11768
derk	-11769
dire	-11770
egro	-11771
eliv	-11772
ener	-11773
enne	-11774
eror	-11775
eton	-11776
fair	-11777
fare	-11778
fugl	-11779
gary	-11780
gdom	-11781
hjär	-11782
hren	-11783
iert	-11784
ijay	-11785
ikum	-11786
ippa	-11787
irds	-11788
itel	-11789
knar	-11790
kons	-11791
kost	-11792
känn	-11793
lats	-11794
nivå	-11795
ofte	-11796
okus	-11797
olar	-11798
omoa	-11799
park	-11800
rars	-11801
reis	-11802
rekt	-11803
renn	-11804
repp	-11805
rina	-11806
rino	-11807
rity	-11808
rund	-11809
sdag	-11810
sför	-11811
sked	-11812
stin	-11813
teen	-11814
thus	-11815
uart	-11816
uben	-11817
uber	-11818
ungt	-11819
usik	-11820
vedt	-11821
vekt	-11822
vida	-11823
viks	-11824
vort	-11825
väld	-11826
west	-11827
ydro	-11828
yret	-11829
ända	-11830
ängd	-11831
øyet	-11832
▁164	-11833
▁600	-11834
▁AFI	-11835
▁Ald	-11836
▁Amy	-11837
▁Aur	-11838
▁BDO	-11839
▁Ban	-11840
▁DOI	-11841
▁Did	-11842
▁Dif	-11843
▁Din	-11844
▁FBS	-11845
▁Fat	-11846
▁Fir	-11847
▁Frø	-11848
▁Gib	-11849
▁Gur	-11850
▁Gör	-11851
▁Hål	-11852
▁Jön	-11853
▁Lod	-11854
▁Mig	-11855
▁Mut	-11856
▁Ple	-11857
▁RCA	-11858
▁Rio	-11859
▁Seb	-11860
▁Siv	-11861
▁Søl	-11862
▁Tai	-11863
▁Tar	-11864
▁Ten	-11865
▁Tri	-11866
▁Tår	-11867
▁Ulf	-11868
▁WWE	-11869
▁adv	-11870
▁bad	-11871
▁big	-11872
▁byn	-11873
▁dik	-11874
▁dåb	-11875
▁ear	-11876
▁enc	-11877
▁ent	-11878
▁equ	-11879
▁fig	-11880
▁fry	-11881
▁gar	-11882
▁hev	-11883
▁hop	-11884
▁høn	-11885
▁iss	-11886
▁kul	-11887
▁køb	-11888
▁lau	-11889
▁läk	-11890
▁mør	-11891
▁nar	-11892
▁nød	-11893
▁omg	-11894
▁ort	-11895
▁pak	-11896
▁pur	-11897
▁ras	-11898
▁see	-11899
▁tam	-11900
▁tje	-11901
▁tom	-11902
▁uaf	-11903
▁vig	-11904
▁Öst	-11905
acken	-11906
akten	-11907
aldte	-11908
angst	-11909
anned	-11910
asjer	-11911
atory	-11912
atsen	-11913
aving	-11914
azine	-11915
baugh	-11916
björn	-11917
borgs	-11918
brand	-11919
chiar	-11920
edish	-11921
ekter	-11922
fulde	-11923
fulle	-11924
gatan	-11925
gtysk	-11926
haver	-11927
iated	-11928
idens	-11929
iener	-11930
igede	-11931
ikens	-11932
ilder	-11933
ilmar	-11934
ingsø	-11935
irken	-11936
ittee	-11937
knipp	-11938
makta	-11939
melse	-11940
oenix	-11941
overs	-11942
postm	-11943
redet	-11944
renes	-11945
rifta	-11946
ringa	-11947
ruten	-11948
saker	-11949
sikke	-11950
skins	-11951
skomm	-11952
skule	-11953
ulent	-11954
unget	-11955
vegen	-11956
vokst	-11957
yrkje	-11958
änare	-11959
åande	-11960
öster	-11961
▁1400	-11962
▁1481	-11963
▁1658	-11964
▁1844	-11965
▁1877	-11966
▁1880	-11967
▁1894	-11968
▁Alma	-11969
▁Bank	-11970
▁Beau	-11971
▁Bigg	-11972
▁Blom	-11973
▁Bröm	-11974
▁Clay	-11975
▁Conf	-11976
▁Dame	-11977
▁Dick	-11978
▁Duke	-11979
▁Elle	-11980
▁Fest	-11981
▁Fjer	-11982
▁Four	-11983
▁Født	-11984
▁Gain	-11985
▁Greg	-11986
▁Helv	-11987
▁Herc	-11988
▁Hold	-11989
▁Hunt	-11990
▁Hvis	-11991
▁Høne	-11992
▁Kont	-11993
▁Kval	-11994
▁Kvar	-11995
▁Lake	-11996
▁NRKs	-11997
▁Natt	-11998
▁Nazi	-11999
▁News	-12000
▁Noah	-12001
▁Ohio	-12002
▁Olaf	-12003
▁Pont	-12004
▁Rapp	-12005
▁Rica	-12006
▁Roth	-12007
▁Samu	-12008
▁Shop	-12009
▁Vanc	-12010
▁Ving	-12011
▁XIII	-12012
▁acts	-12013
▁anth	-12014
▁aver	-12015
▁avis	-12016
▁away	-12017
▁base	-12018
▁bigg	-12019
▁bill	-12020
▁blom	-12021
▁case	-12022
▁comb	-12023
▁dens	-12024
▁east	-12025
▁edel	-12026
▁eier	-12027
▁fact	-12028
▁fore	-12029
▁foto	-12030
▁fäng	-12031
▁förl	-12032
▁gold	-12033
▁grov	-12034
▁hend	-12035
▁husk	-12036
▁høge	-12037
▁indu	-12038
▁kejs	-12039
▁kino	-12040
▁krev	-12041
▁kult	-12042
▁kurs	-12043
▁kven	-12044
▁lage	-12045
▁lege	-12046
▁lill	-12047
▁mart	-12048
▁mode	-12049
▁mora	-12050
▁muse	-12051
▁mørk	-12052
▁nærm	-12053
▁nært	-12054
▁race	-12055
▁raki	-12056
▁redu	-12057
▁rund	-12058
▁salg	-12059
▁salt	-12060
▁skib	-12061
▁soon	-12062
▁spin	-12063
▁stig	-12064
▁sykl	-12065
▁syne	-12066
▁talk	-12067
▁tall	-12068
▁unga	-12069
▁vent	-12070
▁vigt	-12071
▁viss	-12072
▁weap	-12073
▁ägde	-12074
▁øyar	-12075
afrika	-12076
aksjon	-12077
ampton	-12078
apsody	-12079
atlant	-12080
certen	-12081
dotter	-12082
ession	-12083
gelsen	-12084
ipient	-12085
itched	-12086
jektet	-12087
legget	-12088
linjen	-12089
linois	-12090
ologen	-12091
ordbok	-12092
orsese	-12093
otiske	-12094
rekord	-12095
sattes	-12096
seende	-12097
sleder	-12098
spring	-12099
ulykke	-12100
videre	-12101
▁Agnes	-12102
▁Andra	-12103
▁Atter	-12104
▁Bates	-12105
▁Beach	-12106
▁Beste	-12107
▁Board	-12108
▁Bohus	-12109
▁Bruno	-12110
▁Chief	-12111
▁Deras	-12112
▁Elekt	-12113
▁Frida	-12114
▁Fritt	-12115
▁Girls	-12116
▁Greve	-12117
▁Kirst	-12118
▁Klaus	-12119
▁Kvart	-12120
▁Linde	-12121
▁Major	-12122
▁Manus	-12123
▁Memor	-12124
▁Momoa	-12125
▁Moren	-12126
▁Nancy	-12127
▁Nørby	-12128
▁Organ	-12129
▁Randi	-12130
▁Schlü	-12131
▁Serge	-12132
▁Space	-12133
▁Spiel	-12134
▁Språk	-12135
▁Stjär	-12136
▁Sture	-12137
▁Sunde	-12138
▁Susan	-12139
▁Syria	-12140
▁Tirol	-12141
▁Tokyo	-12142
▁Vijay	-12143
▁Vågan	-12144
▁Våren	-12145
▁Woman	-12146
▁Yemen	-12147
▁adult	-12148
▁affär	-12149
▁anten	-12150
▁appar	-12151
▁basis	-12152
▁block	-12153
▁blues	-12154
▁broke	-12155
▁brott	-12156
▁bruke	-12157
▁chair	-12158
▁court	-12159
▁endre	-12160
▁ensam	-12161
▁fjern	-12162
▁fören	-12163
▁föräl	-12164
▁føres	-12165
▁henta	-12166
▁hette	-12167
▁holde	-12168
▁inaug	-12169
▁ingår	-12170
▁irske	-12171
▁kapit	-12172
▁klipp	-12173
▁kunna	-12174
▁least	-12175
▁liber	-12176
▁mochi	-12177
▁motiv	-12178
▁nedre	-12179
▁omgiv	-12180
▁oppos	-12181
▁overh	-12182
▁parod	-12183
▁plata	-12184
▁point	-12185
▁prior	-12186
▁range	-12187
▁salut	-12188
▁selde	-12189
▁skapt	-12190
▁sover	-12191
▁stadf	-12192
▁stamm	-12193
▁stjär	-12194
▁styre	-12195
▁södra	-12196
▁tagit	-12197
▁tegne	-12198
▁toget	-12199
▁treng	-12200
▁trots	-12201
▁trykk	-12202
▁udpeg	-12203
▁utrop	-12204
▁verka	-12205
▁vinde	-12206
▁women	-12207
▁wrapp	-12208
▁Østre	-12209
▁årlig	-12210
farande	-12211
figuren	-12212
grammer	-12213
ication	-12214
iecrona	-12215
ination	-12216
karriär	-12217
klubben	-12218
köpings	-12219
ocratic	-12220
starten	-12221
sterdam	-12222
svinger	-12223
talande	-12224
tenegro	-12225
utionen	-12226
virksom	-12227
ättning	-12228
▁Alaska	-12229
▁Andrés	-12230
▁Berdal	-12231
▁Brundt	-12232
▁Cannes	-12233
▁Castle	-12234
▁Cobain	-12235
▁Colomb	-12236
▁Excell	-12237
▁Familj	-12238
▁Flames	-12239
▁Garden	-12240
▁Heller	-12241
▁Howard	-12242
▁Høyhet	-12243
▁Junior	-12244
▁Juster	-12245
▁Knight	-12246
▁Korean	-12247
▁Korrid	-12248
▁Kosovo	-12249
▁Lionel	-12250
▁Livgar	-12251
▁Manley	-12252
▁Markus	-12253
▁Olivia	-12254
▁Pilger	-12255
▁Rachel	-12256
▁Radios	-12257
▁Renate	-12258
▁Rhinen	-12259
▁Ringen	-12260
▁Robbie	-12261
▁Ronnie	-12262
▁Sebast	-12263
▁Secret	-12264
▁Skjern	-12265
▁Square	-12266
▁Stuart	-12267
▁Tidiga	-12268
▁Totalt	-12269
▁Viking	-12270
▁Wonder	-12271
▁aktive	-12272
▁allmän	-12273
▁anerkj	-12274
▁atmosf	-12275
▁attack	-12276
▁benytt	-12277
▁better	-12278
▁confir	-12279
▁debatt	-12280
▁deltäv	-12281
▁design	-12282
▁dollar	-12283
▁eksper	-12284
▁enroll	-12285
▁erklær	-12286
▁figure	-12287
▁forstå	-12288
▁fortel	-12289
▁færdig	-12290
▁födels	-12291
▁gemens	-12292
▁gitarr	-12293
▁halvøy	-12294
▁holder	-12295
▁inspel	-12296
▁kjønns	-12297
▁källor	-12298
▁levede	-12299
▁makten	-12300
▁minste	-12301
▁mobile	-12302
▁mogleg	-12303
▁morgen	-12304
▁næsten	-12305
▁omgang	-12306
▁oppløy	-12307
▁placed	-12308
▁påbörj	-12309
▁qualif	-12310
▁racing	-12311
▁reknar	-12312
▁rockeb	-12313
▁secret	-12314
▁shared	-12315
▁skrevs	-12316
▁slekta	-12317
▁statsk	-12318
▁straff	-12319
▁sukker	-12320
▁summer	-12321
▁sveits	-12322
▁tecken	-12323
▁turned	-12324
▁tyding	-12325
▁utover	-12326
▁wealth	-12327
▁wiener	-12328
amfunnet	-12329
chiarini	-12330
historia	-12331
oukalová	-12332
regering	-12333
sfjorden	-12334
slutning	-12335
språkiga	-12336
systemet	-12337
▁Balling	-12338
▁Biester	-12339
▁Bonnier	-12340
▁Bradley	-12341
▁Coppola	-12342
▁Dalarna	-12343
▁Estland	-12344
▁Fantino	-12345
▁Fleming	-12346
▁Freeman	-12347
▁Gabriel	-12348
▁Galilei	-12349
▁Garfors	-12350
▁General	-12351
▁Isaksen	-12352
▁Iversen	-12353
▁Johanna	-12354
▁Kamprad	-12355
▁Kennedy	-12356
▁Khalifa	-12357
▁Landgré	-12358
▁Marilyn	-12359
▁Matthew	-12360
▁Monster	-12361
▁Musical	-12362
▁Natasha	-12363
▁Olivier	-12364
▁Phoenix	-12365
▁Richter	-12366
▁Rodgers	-12367
▁Rolling	-12368
▁Sigvard	-12369
▁Singers	-12370
▁Skansen	-12371
▁Svenskt	-12372
▁Swedish	-12373
▁Verrett	-12374
▁Wayback	-12375
▁afholdt	-12376
▁arbeids	-12377
▁backing	-12378
▁barndom	-12379
▁biggest	-12380
▁byggjer	-12381
▁decided	-12382
▁descent	-12383
▁entered	-12384
▁filmane	-12385
▁forente	-12386
▁forsvar	-12387
▁forvalt	-12388
▁fotboll	-12389
▁fremste	-12390
▁fysiker	-12391
▁herself	-12392
▁himself	-12393
▁inntekt	-12394
▁joining	-12395
▁kommerc	-12396
▁ledelse	-12397
▁matches	-12398
▁moderna	-12399
▁naturen	-12400
▁omtales	-12401
▁optrådt	-12402
▁playoff	-12403
▁punktet	-12404
▁påverka	-12405
▁regions	-12406
▁riksdag	-12407
▁selling	-12408
▁serving	-12409
▁singlar	-12410
▁skalaen	-12411
▁sluttet	-12412
▁släppte	-12413
▁studera	-12414
▁systrar	-12415
▁såkalla	-12416
▁uafhæng	-12417
▁usually	-12418
▁variert	-12419
arkarriär	-12420
dannelsen	-12421
entexamen	-12422
iorkester	-12423
itteratur	-12424
ropolitan	-12425
vitenskap	-12426
▁Baptiste	-12427
▁Berkeley	-12428
▁Brömssen	-12429
▁Bulgaria	-12430
▁Children	-12431
▁Elisabet	-12432
▁Færøyene	-12433
▁Gabriela	-12434
▁Gazastri	-12435
▁Gentofte	-12436
▁Greatest	-12437
▁Hallberg	-12438
▁Hannover	-12439
▁Harbaugh	-12440
▁Håkonsen	-12441
▁Illinois	-12442
▁Jennings	-12443
▁Jevnaker	-12444
▁Kausland	-12445
▁Marshall	-12446
▁Patricia	-12447
▁Preussen	-12448
▁Radikale	-12449
▁Rederiet	-12450
▁Rhapsody	-12451
▁Scorsese	-12452
▁Scottish	-12453
▁Sesongen	-12454
▁Slovakia	-12455
▁Stallone	-12456
▁Tsjekkia	-12457
▁Viktoria	-12458
▁Vladimir	-12459
▁ansvaret	-12460
▁artistar	-12461
▁arvprins	-12462
▁atombomb	-12463
▁audience	-12464
▁diskuter	-12465
▁features	-12466
▁fleirtal	-12467
▁funksjon	-12468
▁förknipp	-12469
▁governor	-12470
▁grekiska	-12471
▁grensene	-12472
▁grevinne	-12473
▁hebraisk	-12474
▁hoppveka	-12475
▁indenfor	-12476
▁innspilt	-12477
▁inspired	-12478
▁introdus	-12479
▁investig	-12480
▁jordbruk	-12481
▁kommunes	-12482
▁komtesse	-12483
▁lingvist	-12484
▁messages	-12485
▁musikern	-12486
▁normalår	-12487
▁olympisk	-12488
▁oppvokst	-12489
▁passager	-12490
▁sameinte	-12491
▁singelen	-12492
▁skribent	-12493
▁students	-12494
▁sælgende	-12495
▁undantag	-12496
▁varandra	-12497
ådespelare	-12498
▁Amsterdam	-12499
▁Animation	-12500
▁Berkshire	-12501
▁Biography	-12502
▁Innsbruck	-12503
▁Kongerige	-12504
▁Nordström	-12505
▁Skovgaard	-12506
▁Sylvester	-12507
▁Tysklands	-12508
▁Wilkinson	-12509
▁arvefølge	-12510
▁childhood	-12511
▁convicted	-12512
▁deltagere	-12513
▁egyptiske	-12514
▁erstattet	-12515
▁finansier	-12516
▁folkerike	-12517
▁fungerede	-12518
▁helligdag	-12519
▁huvudstad	-12520
▁illustrat	-12521
▁important	-12522
▁innhaldet	-12523
▁koncerter	-12524
▁konserter	-12525
▁kulturelt	-12526
▁medverkan	-12527
▁offentleg	-12528
▁opprettet	-12529
▁opptrådte	-12530
▁organiser	-12531
▁politiska	-12532
▁primarily	-12533
▁problemer	-12534
▁præsident	-12535
▁recipient	-12536
▁samanheng	-12537
▁studentar	-12538
▁størrelse	-12539
▁utvikling	-12540
▁världscup	-12541
▁ægtefælle	-12542
estillinger	-12543
▁Brundtland	-12544
▁Charlotten	-12545
▁Conference	-12546
▁Fyrverkeri	-12547
▁Långstrump	-12548
▁Montenegro	-12549
▁Petersburg	-12550
▁Södertälje	-12551
▁dokumenter	-12552
▁dokumentär	-12553
▁experiment	-12554
▁filmregiss	-12555
▁gjennombro	-12556
▁innehåller	-12557
▁kneippbrød	-12558
▁konstnären	-12559
▁kontrovers	-12560
▁långfilmen	-12561
▁medlemmene	-12562
▁miniseries	-12563
▁nominering	-12564
▁nordamerik	-12565
▁officiellt	-12566
▁ordförande	-12567
▁population	-12568
▁university	-12569
▁virksomhet	-12570
▁Aftonbladet	-12571
▁Anthonessen	-12572
▁Biesterfeld	-12573
▁Kongsvinger	-12574
▁Lilliecrona	-12575
▁Macchiarini	-12576
▁Springsteen	-12577
▁bronsemedal	-12578
▁föräldrarna	-12579
▁hovedroller	-12580
▁indspillede	-12581
▁kronprinsen	-12582
▁opphavsrett	-12583
▁opprinnelse	-12584
▁skådespeler	-12585
▁storesøster	-12586
▁traditionen	-12587
▁Västerbotten	-12588
▁Västtyskland	-12589
▁hovedrollene	-12590
▁kongefamilie	-12591
▁organisation	-12592
▁sjølvstendig	-12593
▁theatrically	-12594
▁tillbringade	-12595
▁fotballspelar	-12596
▁skuespillerne	-12597
▁studentexamen	-12598
▁uppmärksamhet	-12599
▁folketingsvalg	-12600
▁filmskuespiller	-12601
▁konstitusjonelt	-12602
97	-12603
BU	-12604
NP	-12605
hv	-12606
sæ	-12607
uh	-12608
ws	-12609
zo	-12610
ía	-12611
ín	-12612
XXI	-12613
afé	-12614
aud	-12615
bed	-12616
bur	-12617
bye	-12618
bär	-12619
bær	-12620
bør	-12621
cam	-12622
cil	-12623
ego	-12624
egs	-12625
ffe	-12626
geb	-12627
gra	-12628
gud	-12629
how	-12630
ija	-12631
ikl	-12632
jun	-12633
jur	-12634
kyl	-12635
køb	-12636
lak	-12637
lan	-12638
luf	-12639
lær	-12640
mot	-12641
oes	-12642
onn	-12643
sed	-12644
sji	-12645
stø	-12646
uds	-12647
våg	-12648
war	-12649
yll	-12650
yre	-12651
zel	-12652
ärt	-12653
örd	-12654
▁CF	-12655
▁Cy	-12656
▁IK	-12657
▁IO	-12658
▁Iv	-12659
▁LP	-12660
▁Um	-12661
▁bå	-12662
▁dæ	-12663
▁fa	-12664
▁ju	-12665
▁ok	-12666
▁væ	-12667
▁ét	-12668
▁ør	-12669
ably	-12670
adas	-12671
agan	-12672
agne	-12673
aldi	-12674
ants	-12675
ased	-12676
athi	-12677
atic	-12678
bels	-12679
bler	-12680
born	-12681
clud	-12682
ctic	-12683
ebok	-12684
elte	-12685
eløb	-12686
enda	-12687
enen	-12688
frid	-12689
ften	-12690
ftet	-12691
færd	-12692
förd	-12693
følg	-12694
gert	-12695
hang	-12696
here	-12697
htar	-12698
icil	-12699
iesk	-12700
ikop	-12701
iler	-12702
itor	-12703
izon	-12704
ligg	-12705
mart	-12706
misk	-12707
ollo	-12708
omes	-12709
omet	-12710
omme	-12711
omod	-12712
onen	-12713
oner	-12714
osen	-12715
ratt	-12716
reng	-12717
skal	-12718
song	-12719
stag	-12720
stol	-12721
thos	-12722
ugsp	-12723
ules	-12724
ulla	-12725
uras	-12726
utes	-12727
yget	-12728
ylan	-12729
älva	-12730
ätte	-12731
ømet	-12732
▁125	-12733
▁130	-12734
▁137	-12735
▁140	-12736
▁144	-12737
▁151	-12738
▁171	-12739
▁173	-12740
▁Ahl	-12741
▁Ali	-12742
▁Any	-12743
▁BNP	-12744
▁BRI	-12745
▁Blo	-12746
▁Blå	-12747
▁Bom	-12748
▁Bou	-12749
▁CBS	-12750
▁Cul	-12751
▁Dar	-12752
▁Eck	-12753
▁Eth	-12754
▁Ext	-12755
▁Fuk	-12756
▁Fär	-12757
▁Föd	-12758
▁Guy	-12759
▁Hob	-12760
▁Hof	-12761
▁Häl	-12762
▁Hår	-12763
▁Hør	-12764
▁Ian	-12765
▁Ill	-12766
▁Jud	-12767
▁Jut	-12768
▁Kam	-12769
▁Klø	-12770
▁Kre	-12771
▁Lum	-12772
▁MTV	-12773
▁MVP	-12774
▁Map	-12775
▁Møg	-12776
▁Nar	-12777
▁Ned	-12778
▁Nød	-12779
▁Pul	-12780
▁Pål	-12781
▁Sex	-12782
▁Suz	-12783
▁Sym	-12784
▁Søn	-12785
▁Tam	-12786
▁Via	-12787
▁Vær	-12788
▁Yng	-12789
▁Zah	-12790
▁bab	-12791
▁boy	-12792
▁dam	-12793
▁div	-12794
▁don	-12795
▁dop	-12796
▁dos	-12797
▁dry	-12798
▁dvs	-12799
▁egg	-12800
▁era	-12801
▁fej	-12802
▁fäl	-12803
▁gal	-12804
▁gru	-12805
▁gæl	-12806
▁häl	-12807
▁igj	-12808
▁ild	-12809
▁kla	-12810
▁kok	-12811
▁kra	-12812
▁kræ	-12813
▁kår	-12814
▁lun	-12815
▁läg	-12816
▁mär	-12817
▁ner	-12818
▁oms	-12819
▁osm	-12820
▁pyr	-12821
▁rem	-12822
▁sau	-12823
▁sus	-12824
▁syk	-12825
▁Øya	-12826
aftan	-12827
agten	-12828
ahren	-12829
antum	-12830
anzib	-12831
asion	-12832
berto	-12833
bring	-12834
bunds	-12835
ceret	-12836
delen	-12837
eback	-12838
edlem	-12839
eline	-12840
ellan	-12841
essem	-12842
esset	-12843
eteik	-12844
fonso	-12845
fullt	-12846
gency	-12847
icist	-12848
iegel	-12849
iffen	-12850
iform	-12851
igare	-12852
ikawa	-12853
iktet	-12854
illes	-12855
imate	-12856
imore	-12857
inder	-12858
ionde	-12859
iopia	-12860
istre	-12861
itted	-12862
ivind	-12863
klass	-12864
knikk	-12865
ksemd	-12866
kveld	-12867
kvist	-12868
leker	-12869
letic	-12870
lever	-12871
light	-12872
marna	-12873
named	-12874
names	-12875
nende	-12876
nsdag	-12877
okken	-12878
oléon	-12879
onden	-12880
oppar	-12881
ornas	-12882
ously	-12883
ouver	-12884
ovina	-12885
plate	-12886
pligt	-12887
repet	-12888
række	-12889
sende	-12890
shopp	-12891
skjer	-12892
spect	-12893
spris	-12894
steik	-12895
stift	-12896
taler	-12897
talte	-12898
teren	-12899
thing	-12900
träde	-12901
ublic	-12902
ukken	-12903
ulmin	-12904
urder	-12905
vedal	-12906
ylven	-12907
äcker	-12908
äller	-12909
älven	-12910
årene	-12911
ægten	-12912
ælles	-12913
öarna	-12914
örest	-12915
ømmet	-12916
øylen	-12917
▁1412	-12918
▁1523	-12919
▁1730	-12920
▁1825	-12921
▁1843	-12922
▁1867	-12923
▁1871	-12924
▁1876	-12925
▁1890	-12926
▁1897	-12927
▁Acer	-12928
▁Aske	-12929
▁Bakk	-12930
▁Bard	-12931
▁Behn	-12932
▁Bing	-12933
▁Björ	-12934
▁Bosn	-12935
▁Bred	-12936
▁Bruk	-12937
▁Buff	-12938
▁Care	-12939
▁Cart	-12940
▁Cour	-12941
▁Cups	-12942
▁Curt	-12943
▁Delt	-12944
▁Drag	-12945
▁Drew	-12946
▁Dust	-12947
▁Edel	-12948
▁Epis	-12949
▁Fiil	-12950
▁Fisk	-12951
▁Flag	-12952
▁Fält	-12953
▁Gere	-12954
▁Guds	-12955
▁Hass	-12956
▁Head	-12957
▁Husk	-12958
▁Hvid	-12959
▁Isak	-12960
▁José	-12961
▁Kort	-12962
▁Litt	-12963
▁Medv	-12964
▁Mens	-12965
▁Nike	-12966
▁Nitt	-12967
▁Nott	-12968
▁Odal	-12969
▁Orkn	-12970
▁Pack	-12971
▁Pert	-12972
▁Rome	-12973
▁Rune	-12974
▁Röse	-12975
▁Saga	-12976
▁Samm	-12977
▁Sang	-12978
▁Sapp	-12979
▁Seac	-12980
▁Shah	-12981
▁Siss	-12982
▁Skar	-12983
▁Slik	-12984
▁Sold	-12985
▁Spes	-12986
▁Stab	-12987
▁Stry	-12988
▁Styx	-12989
▁Torp	-12990
▁Tysk	-12991
▁Ural	-12992
▁Valg	-12993
▁Vart	-12994
▁Yout	-12995
▁avle	-12996
▁avsl	-12997
▁bevæ	-12998
▁brug	-12999
▁byar	-13000
▁cost	-13001
▁dest	-13002
▁dygn	-13003
▁døpt	-13004
▁døtr	-13005
▁emir	-13006
▁empl	-13007
▁fans	-13008
▁flod	-13009
▁fork	-13010
▁ført	-13011
▁gate	-13012
▁glad	-13013
▁gået	-13014
▁herr	-13015
▁häst	-13016
▁högt	-13017
▁icon	-13018
▁ihop	-13019
▁kalk	-13020
▁kläd	-13021
▁lauv	-13022
▁leir	-13023
▁lens	-13024
▁myst	-13025
▁regn	-13026
▁rest	-13027
▁rike	-13028
▁rädd	-13029
▁röst	-13030
▁samh	-13031
▁skar	-13032
▁slår	-13033
▁soft	-13034
▁sokn	-13035
▁spaw	-13036
▁stri	-13037
▁trum	-13038
▁tsar	-13039
▁uppl	-13040
▁veck	-13041
▁virk	-13042
▁vänt	-13043
▁våld	-13044
▁want	-13045
▁webb	-13046
▁word	-13047
alegre	-13048
allier	-13049
ammens	-13050
asitet	-13051
befolk	-13052
brecht	-13053
edagog	-13054
elberg	-13055
elcome	-13056
elinje	-13057
elsene	-13058
emerke	-13059
enstam	-13060
entleg	-13061
erende	-13062
eringa	-13063
esiden	-13064
estret	-13065
etting	-13066
föräld	-13067
hemian	-13068
hjärta	-13069
iblant	-13070
iction	-13071
ikarar	-13072
istane	-13073
kammer	-13074
keback	-13075
kisson	-13076
ligste	-13077
makten	-13078
marked	-13079
martid	-13080
menter	-13081
middel	-13082
nummer	-13083
ockout	-13084
onment	-13085
opptak	-13086
parret	-13087
pected	-13088
ringar	-13089
smålet	-13090
sprodu	-13091
varsel	-13092
veland	-13093
ymnast	-13094
ytning	-13095
ældste	-13096
ætning	-13097
▁About	-13098
▁Achie	-13099
▁Amand	-13100
▁Based	-13101
▁Belle	-13102
▁Blach	-13103
▁Bolsø	-13104
▁Brock	-13105
▁Chair	-13106
▁Chile	-13107
▁Colin	-13108
▁Davis	-13109
▁Devil	-13110
▁Eldar	-13111
▁Espen	-13112
▁Fjeld	-13113
▁Forsk	-13114
▁Fosse	-13115
▁Fugle	-13116
▁Førde	-13117
▁Hanks	-13118
▁Happy	-13119
▁Haram	-13120
▁Heidi	-13121
▁Helge	-13122
▁Ibsen	-13123
▁Kenya	-13124
▁Kerry	-13125
▁Kulle	-13126
▁Laget	-13127
▁Light	-13128
▁Lunds	-13129
▁Mutya	-13130
▁Mørch	-13131
▁Nolan	-13132
▁Noman	-13133
▁Offic	-13134
▁Percy	-13135
▁Santa	-13136
▁Sarah	-13137
▁Silje	-13138
▁Stars	-13139
▁Staun	-13140
▁Talen	-13141
▁Terje	-13142
▁Thing	-13143
▁Tiger	-13144
▁Toget	-13145
▁Tommy	-13146
▁Trump	-13147
▁Whats	-13148
▁Zandt	-13149
▁Zugsp	-13150
▁activ	-13151
▁afrik	-13152
▁akust	-13153
▁ankom	-13154
▁arkiv	-13155
▁atter	-13156
▁belig	-13157
▁beseg	-13158
▁beteg	-13159
▁bonde	-13160
▁borna	-13161
▁brann	-13162
▁campa	-13163
▁dater	-13164
▁datum	-13165
▁detal	-13166
▁diagn	-13167
▁dirig	-13168
▁drikk	-13169
▁dræbt	-13170
▁egent	-13171
▁ekskl	-13172
▁embed	-13173
▁erfar	-13174
▁evaku	-13175
▁faldt	-13176
▁feder	-13177
▁firas	-13178
▁given	-13179
▁halde	-13180
▁hjemm	-13181
▁image	-13182
▁kjede	-13183
▁komik	-13184
▁korta	-13185
▁kunng	-13186
▁kvite	-13187
▁lavet	-13188
▁makta	-13189
▁mente	-13190
▁mobil	-13191
▁navng	-13192
▁nobel	-13193
▁nogen	-13194
▁obser	-13195
▁occup	-13196
▁oldeb	-13197
▁opdag	-13198
▁polis	-13199
▁promo	-13200
▁påbeg	-13201
▁sales	-13202
▁satsa	-13203
▁score	-13204
▁sixth	-13205
▁slapp	-13206
▁small	-13207
▁snitt	-13208
▁stede	-13209
▁säker	-13210
▁sålde	-13211
▁sökte	-13212
▁tabte	-13213
▁talar	-13214
▁teken	-13215
▁turne	-13216
▁typer	-13217
▁usage	-13218
▁vegen	-13219
▁vidar	-13220
▁volum	-13221
▁Åsnes	-13222
▁åpnet	-13223
▁årige	-13224
agement	-13225
egjorde	-13226
ennende	-13227
ersjøen	-13228
företag	-13229
havende	-13230
helmina	-13231
kvarter	-13232
ligaste	-13233
løsning	-13234
miljøet	-13235
rediens	-13236
samfunn	-13237
smannen	-13238
ståande	-13239
ømmerne	-13240
▁Akhtar	-13241
▁Amanda	-13242
▁Ammann	-13243
▁Arnulf	-13244
▁Astley	-13245
▁Audrey	-13246
▁Before	-13247
▁Bladet	-13248
▁Brynäs	-13249
▁Bøkene	-13250
▁Carles	-13251
▁Chiefs	-13252
▁Clouse	-13253
▁Comics	-13254
▁Dinner	-13255
▁Edmund	-13256
▁Empire	-13257
▁Ernest	-13258
▁Family	-13259
▁Gordon	-13260
▁Hamsun	-13261
▁Hannah	-13262
▁Herman	-13263
▁Lonely	-13264
▁Macken	-13265
▁Marion	-13266
▁Monroe	-13267
▁Nordic	-13268
▁Passer	-13269
▁Provin	-13270
▁Public	-13271
▁Reuter	-13272
▁Rollen	-13273
▁Sandra	-13274
▁Senare	-13275
▁Staats	-13276
▁Säsong	-13277
▁Taiwan	-13278
▁Talent	-13279
▁Things	-13280
▁Torres	-13281
▁Utover	-13282
▁Vestre	-13283
▁Västra	-13284
▁Weaver	-13285
▁Zanzib	-13286
▁anatom	-13287
▁antall	-13288
▁arvere	-13289
▁arving	-13290
▁ballet	-13291
▁brasil	-13292
▁busett	-13293
▁butikk	-13294
▁byrjar	-13295
▁börjar	-13296
▁cancer	-13297
▁caused	-13298
▁couple	-13299
▁cruise	-13300
▁dagleg	-13301
▁deaths	-13302
▁decade	-13303
▁doktor	-13304
▁drives	-13305
▁effect	-13306
▁eldest	-13307
▁energi	-13308
▁engasj	-13309
▁engine	-13310
▁erstat	-13311
▁fabrik	-13312
▁finale	-13313
▁finner	-13314
▁format	-13315
▁frågor	-13316
▁gravid	-13317
▁guddom	-13318
▁hensyn	-13319
▁hertil	-13320
▁hittar	-13321
▁hjemme	-13322
▁hotell	-13323
▁hoveds	-13324
▁indfly	-13325
▁inntil	-13326
▁kallar	-13327
▁kejsar	-13328
▁kjerne	-13329
▁komedi	-13330
▁konver	-13331
▁kärlek	-13332
▁lavede	-13333
▁lenker	-13334
▁letter	-13335
▁luther	-13336
▁magten	-13337
▁mannen	-13338
▁meinte	-13339
▁middle	-13340
▁noregs	-13341
▁novels	-13342
▁nämnas	-13343
▁nästan	-13344
▁nævnes	-13345
▁observ	-13346
▁operas	-13347
▁opprør	-13348
▁oppset	-13349
▁opstod	-13350
▁overra	-13351
▁oversk	-13352
▁planer	-13353
▁preget	-13354
▁presum	-13355
▁prøvde	-13356
▁rennet	-13357
▁retain	-13358
▁retten	-13359
▁ringen	-13360
▁räknas	-13361
▁satell	-13362
▁search	-13363
▁sekund	-13364
▁serves	-13365
▁silver	-13366
▁sjunde	-13367
▁sjølve	-13368
▁sonson	-13369
▁sovjet	-13370
▁stated	-13371
▁sterke	-13372
▁studie	-13373
▁styret	-13374
▁suffer	-13375
▁søndag	-13376
▁søstre	-13377
▁though	-13378
▁touren	-13379
▁twelve	-13380
▁utform	-13381
▁utgåva	-13382
▁vilkår	-13383
▁visade	-13384
▁zodiac	-13385
bildning	-13386
essansen	-13387
fotograf	-13388
följande	-13389
følgende	-13390
ibliotek	-13391
jenesten	-13392
kebiskop	-13393
ligheder	-13394
otballer	-13395
partment	-13396
radisjon	-13397
sklubben	-13398
tenstein	-13399
trædende	-13400
utepunkt	-13401
▁Albumet	-13402
▁Alfonso	-13403
▁Arendal	-13404
▁Atlanta	-13405
▁Clinton	-13406
▁Critics	-13407
▁Edwards	-13408
▁Filming	-13409
▁Gottorp	-13410
▁Guillou	-13411
▁Higgins	-13412
▁Jamaica	-13413
▁Jeffrey	-13414
▁Jutland	-13415
▁Kerstin	-13416
▁Kjersti	-13417
▁Kroatia	-13418
▁Larsens	-13419
▁Libanon	-13420
▁Magtens	-13421
▁Masters	-13422
▁Matilda	-13423
▁Mattias	-13424
▁Maxwell	-13425
▁Nations	-13426
▁Nyheter	-13427
▁Omkring	-13428
▁Oranien	-13429
▁Picture	-13430
▁Reading	-13431
▁Rickman	-13432
▁Rusland	-13433
▁Sapporo	-13434
▁Spotify	-13435
▁Sørfold	-13436
▁Tjessem	-13437
▁Ukraine	-13438
▁Youtube	-13439
▁absolut	-13440
▁automat	-13441
▁avholdt	-13442
▁begiven	-13443
▁beholdt	-13444
▁beskrev	-13445
▁brukast	-13446
▁capital	-13447
▁culture	-13448
▁earlier	-13449
▁emerged	-13450
▁enevæld	-13451
▁evangel	-13452
▁figuren	-13453
▁figurer	-13454
▁forbund	-13455
▁formann	-13456
▁fremtid	-13457
▁främsta	-13458
▁helikop	-13459
▁hoppuka	-13460
▁humanit	-13461
▁hurtigt	-13462
▁innvand	-13463
▁invader	-13464
▁islands	-13465
▁kjendis	-13466
▁kommand	-13467
▁kroppen	-13468
▁kvinder	-13469
▁ledamot	-13470
▁mission	-13471
▁mistede	-13472
▁moderen	-13473
▁monarch	-13474
▁monster	-13475
▁mottatt	-13476
▁musiken	-13477
▁natural	-13478
▁norrøne	-13479
▁nærmere	-13480
▁områden	-13481
▁opkaldt	-13482
▁opptred	-13483
▁partner	-13484
▁process	-13485
▁ranking	-13486
▁rediger	-13487
▁regular	-13488
▁rigsfor	-13489
▁rushing	-13490
▁samfund	-13491
▁samlede	-13492
▁seneste	-13493
▁seventh	-13494
▁similar	-13495
▁sjanger	-13496
▁skiftet	-13497
▁skotske	-13498
▁skyldes	-13499
▁station	-13500
▁studere	-13501
▁stället	-13502
▁subject	-13503
▁support	-13504
▁såkalte	-13505
▁telefon	-13506
▁theatre	-13507
▁tidlige	-13508
▁undersk	-13509
▁utnevnt	-13510
▁utvidet	-13511
▁variant	-13512
▁venstre	-13513
▁victory	-13514
▁Åkerman	-13515
alistiske	-13516
historisk	-13517
▁Adkisson	-13518
▁Ahlström	-13519
▁Arkansas	-13520
▁Bohemian	-13521
▁Campbell	-13522
▁Chandler	-13523
▁Cornwall	-13524
▁Dalsland	-13525
▁Derefter	-13526
▁Filmfare	-13527
▁Fältskog	-13528
▁Grundlov	-13529
▁Hønefoss	-13530
▁Institut	-13531
▁Ishikawa	-13532
▁Livgarde	-13533
▁Malmöhus	-13534
▁Napoléon	-13535
▁Northern	-13536
▁Orkester	-13537
▁Pernilla	-13538
▁Ringenes	-13539
▁Robinson	-13540
▁Schlüter	-13541
▁Seacrest	-13542
▁Skotland	-13543
▁Thriller	-13544
▁Zugspitz	-13545
▁accident	-13546
▁allierte	-13547
▁baggrund	-13548
▁benyttes	-13549
▁benyttet	-13550
▁blivande	-13551
▁bystatus	-13552
▁comeback	-13553
▁conflict	-13554
▁deltaget	-13555
▁dessutom	-13556
▁egyptisk	-13557
▁eksister	-13558
▁filosofi	-13559
▁føderale	-13560
▁generelt	-13561
▁grevinde	-13562
▁huvudsak	-13563
▁högskola	-13564
▁inleddes	-13565
▁innspill	-13566
▁internet	-13567
▁intresse	-13568
▁involved	-13569
▁kandidat	-13570
▁kjøpstad	-13571
▁kunnskap	-13572
▁lyckades	-13573
▁meddelte	-13574
▁midnight	-13575
▁ministre	-13576
▁modstand	-13577
▁movement	-13578
▁nederlag	-13579
▁negative	-13580
▁nettverk	-13581
▁osmanske	-13582
▁partiets	-13583
▁pladesel	-13584
▁powerful	-13585
▁rekorden	-13586
▁software	-13587
▁struktur	-13588
▁subpostm	-13589
▁udsendte	-13590
▁varefter	-13591
presentant	-13592
sättningar	-13593
▁Baltimore	-13594
▁Bokstaven	-13595
▁Brasilien	-13596
▁Cavallier	-13597
▁Celebrity	-13598
▁Challenge	-13599
▁Cleveland	-13600
▁Gullruten	-13601
▁Haraldsen	-13602
▁Henrietta	-13603
▁Hjelmeset	-13604
▁Härenstam	-13605
▁Kleopatra	-13606
▁Sebastian	-13607
▁Skildring	-13608
▁Sydafrika	-13609
▁Trondhjem	-13610
▁Vancouver	-13611
▁anthology	-13612
▁antisemit	-13613
▁användare	-13614
▁avsnittet	-13615
▁belönades	-13616
▁betydelse	-13617
▁completed	-13618
▁confirmed	-13619
▁defending	-13620
▁diskusjon	-13621
▁engagerad	-13622
▁expansion	-13623
▁fictional	-13624
▁folkedans	-13625
▁fyrstehus	-13626
▁inspirert	-13627
▁kvindelig	-13628
▁meddelade	-13629
▁musicians	-13630
▁originale	-13631
▁rapporter	-13632
▁registrer	-13633
▁samarbete	-13634
▁sammenlig	-13635
▁stafetten	-13636
▁strekkjer	-13637
▁tegnefilm	-13638
▁teoretisk	-13639
▁touchdown	-13640
▁turnerede	-13641
▁turnering	-13642
▁tvillings	-13643
▁typically	-13644
▁utländska	-13645
▁versjonar	-13646
▁wikipedia	-13647
▁Christians	-13648
▁Geografisk	-13649
▁Indonesien	-13650
▁Kristallen	-13651
▁Romarriket	-13652
▁Wilhelmina	-13653
▁ambassadør	-13654
▁dirigenten	-13655
▁europeiska	-13656
▁framgångar	-13657
▁historiker	-13658
▁indspillet	-13659
▁nordvästra	-13660
▁prosjektet	-13661
▁protestant	-13662
▁regissören	-13663
▁regjerande	-13664
▁sammenheng	-13665
▁skiskyting	-13666
▁stadsdelen	-13667
▁upptäcktes	-13668
▁utdannelse	-13669
▁århundrede	-13670
organisation	-13671
▁Achievement	-13672
▁Aftenposten	-13673
▁Austersjøen	-13674
▁Fredriksson	-13675
▁Gazastripen	-13676
▁Internation	-13677
▁Lejonhjärta	-13678
▁Montealegre	-13679
▁Outstanding	-13680
▁Stoltenberg	-13681
▁Verdenskrig	-13682
▁competition	-13683
▁efterfulgte	-13684
▁efterträdde	-13685
▁fellesstart	-13686
▁forretnings	-13687
▁gennemførte	-13688
▁grandmother	-13689
▁individuelt	-13690
▁innbyggerne	-13691
▁innflytelse	-13692
▁intelligens	-13693
▁rättigheter	-13694
▁storkrossen	-13695
▁studioalbum	-13696
▁traditional	-13697
▁tredjeplass	-13698
▁tronföljare	-13699
▁vitskaplege	-13700
▁Amandaprisen	-13701
▁Springsteens	-13702
▁Svensktoppen	-13703
▁chefredaktør	-13704
▁elektroniske	-13705
▁framträdande	-13706
▁professionel	-13707
▁revolusjonen	-13708
▁entertainment	-13709
▁fylkeskommune	-13710
▁hovedsageligt	-13711
▁innbyggjarane	-13712
▁noregsmeister	-13713
▁Charlottenlund	-13714
▁Christianshavn	-13715
▁Philharmoniker	-13716
▁verdenscuprenn	-13717
▁generalsekretær	-13718
99	-13719
AI	-13720
DE	-13721
DF	-13722
EC	-13723
HF	-13724
ML	-13725
St	-13726
VD	-13727
gy	-13728
no	-13729
oh	-13730
pi	-13731
si	-13732
tz	-13733
yk	-13734
äk	-13735
öö	-13736
üh	-13737
на	-13738
App	-13739
ahr	-13740
amo	-13741
cco	-13742
dre	-13743
edo	-13744
emb	-13745
emo	-13746
enc	-13747
eri	-13748
gat	-13749
hør	-13750
iao	-13751
idt	-13752
ieu	-13753
imi	-13754
ims	-13755
ipa	-13756
jle	-13757
kab	-13758
kok	-13759
kwe	-13760
lod	-13761
mal	-13762
nde	-13763
oda	-13764
odi	-13765
ogt	-13766
okl	-13767
pal	-13768
pes	-13769
pon	-13770
pts	-13771
rel	-13772
shu	-13773
slå	-13774
tag	-13775
thm	-13776
tis	-13777
tok	-13778
ucc	-13779
utg	-13780
vat	-13781
vna	-13782
ygg	-13783
yte	-13784
zia	-13785
äkt	-13786
äss	-13787
æne	-13788
öjd	-13789
øme	-13790
øsk	-13791
▁76	-13792
▁BY	-13793
▁Bh	-13794
▁Kw	-13795
▁MS	-13796
▁Nu	-13797
▁Ok	-13798
▁SK	-13799
▁UN	-13800
▁Vo	-13801
▁cr	-13802
▁gy	-13803
▁Äl	-13804
Mond	-13805
abin	-13806
afer	-13807
akim	-13808
aled	-13809
allt	-13810
alta	-13811
ambo	-13812
anks	-13813
arer	-13814
aria	-13815
aris	-13816
aset	-13817
aves	-13818
avet	-13819
bara	-13820
bare	-13821
bill	-13822
coln	-13823
dans	-13824
elda	-13825
elie	-13826
eney	-13827
ense	-13828
fast	-13829
fost	-13830
født	-13831
gate	-13832
germ	-13833
gern	-13834
gjev	-13835
heds	-13836
hero	-13837
hmen	-13838
htos	-13839
iane	-13840
iard	-13841
iest	-13842
imar	-13843
ints	-13844
irit	-13845
issl	-13846
iøse	-13847
jing	-13848
kend	-13849
kkja	-13850
klin	-13851
laft	-13852
lært	-13853
mack	-13854
mass	-13855
mede	-13856
meld	-13857
mera	-13858
mægt	-13859
mænd	-13860
ndal	-13861
nord	-13862
obby	-13863
ocol	-13864
oler	-13865
onto	-13866
ored	-13867
orff	-13868
osom	-13869
ouri	-13870
pipe	-13871
pler	-13872
pott	-13873
rabb	-13874
rane	-13875
reme	-13876
rigt	-13877
rilj	-13878
sahl	-13879
sjön	-13880
spor	-13881
tekn	-13882
tene	-13883
tsam	-13884
ttes	-13885
uman	-13886
urer	-13887
utch	-13888
vart	-13889
writ	-13890
ying	-13891
zman	-13892
äste	-13893
årsk	-13894
érab	-13895
▁114	-13896
▁143	-13897
▁146	-13898
▁147	-13899
▁157	-13900
▁162	-13901
▁240	-13902
▁242	-13903
▁360	-13904
▁364	-13905
▁Aff	-13906
▁Alt	-13907
▁Bot	-13908
▁Bøl	-13909
▁DVD	-13910
▁Dig	-13911
▁Eag	-13912
▁Fag	-13913
▁Fau	-13914
▁Flo	-13915
▁Gus	-13916
▁Hog	-13917
▁Hær	-13918
▁IOK	-13919
▁IPA	-13920
▁Iam	-13921
▁Ira	-13922
▁Isa	-13923
▁Kin	-13924
▁Klo	-13925
▁Klæ	-13926
▁Lad	-13927
▁Lev	-13928
▁Lys	-13929
▁MCU	-13930
▁MMA	-13931
▁Mai	-13932
▁Mul	-13933
▁NAS	-13934
▁Nut	-13935
▁Paa	-13936
▁Pow	-13937
▁RSS	-13938
▁Raj	-13939
▁Rap	-13940
▁Rid	-13941
▁Rön	-13942
▁Sjö	-13943
▁Soc	-13944
▁Tod	-13945
▁URL	-13946
▁Vis	-13947
▁Viv	-13948
▁Vor	-13949
▁Vår	-13950
▁Was	-13951
▁Wed	-13952
▁Wer	-13953
▁XIV	-13954
▁XXL	-13955
▁ank	-13956
▁bef	-13957
▁bem	-13958
▁bio	-13959
▁bul	-13960
▁båe	-13961
▁dan	-13962
▁ded	-13963
▁esc	-13964
▁grå	-13965
▁hæd	-13966
▁hæv	-13967
▁ion	-13968
▁kav	-13969
▁kne	-13970
▁kos	-13971
▁kør	-13972
▁las	-13973
▁løn	-13974
▁myr	-13975
▁nat	-13976
▁obo	-13977
▁poj	-13978
▁rac	-13979
▁ros	-13980
▁ryt	-13981
▁sej	-13982
▁sug	-13983
▁syr	-13984
▁tju	-13985
▁tæt	-13986
▁uly	-13987
▁utf	-13988
▁utn	-13989
▁vux	-13990
▁Øye	-13991
▁ätt	-13992
afilm	-13993
alane	-13994
alism	-13995
amund	-13996
andal	-13997
anker	-13998
arbet	-13999
ardom	-14000
arter	-14001
asten	-14002
atene	-14003
ators	-14004
aysir	-14005
azaki	-14006
buter	-14007
crant	-14008
dered	-14009
deren	-14010
egori	-14011
eldig	-14012
engen	-14013
ensin	-14014
estad	-14015
estre	-14016
esund	-14017
fader	-14018
falls	-14019
gtede	-14020
hythm	-14021
iansk	-14022
ibati	-14023
icken	-14024
ideos	-14025
iflyg	-14026
ighth	-14027
igned	-14028
igurd	-14029
immer	-14030
imovi	-14031
innen	-14032
ittar	-14033
kehus	-14034
lagte	-14035
linja	-14036
mates	-14037
medel	-14038
miral	-14039
nades	-14040
oende	-14041
offet	-14042
oking	-14043
oning	-14044
ordin	-14045
ottet	-14046
redit	-14047
skaps	-14048
skvin	-14049
släpp	-14050
spart	-14051
stats	-14052
styrt	-14053
synet	-14054
terna	-14055
trätt	-14056
ttere	-14057
uland	-14058
uller	-14059
ultet	-14060
unnel	-14061
urity	-14062
uston	-14063
utvik	-14064
varna	-14065
vised	-14066
värld	-14067
works	-14068
ägare	-14069
ämnda	-14070
ätter	-14071
▁1559	-14072
▁1799	-14073
▁1801	-14074
▁1810	-14075
▁1815	-14076
▁1820	-14077
▁1821	-14078
▁1854	-14079
▁1856	-14080
▁1865	-14081
▁1868	-14082
▁1878	-14083
▁1883	-14084
▁2025	-14085
▁Alto	-14086
▁Amin	-14087
▁Aqua	-14088
▁Bell	-14089
▁Beng	-14090
▁Blad	-14091
▁Bråk	-14092
▁Budd	-14093
▁Bund	-14094
▁Call	-14095
▁Cash	-14096
▁Cato	-14097
▁Cold	-14098
▁Coun	-14099
▁Days	-14100
▁Deut	-14101
▁Fler	-14102
▁Fyra	-14103
▁Gene	-14104
▁Goth	-14105
▁Grac	-14106
▁Gray	-14107
▁Grig	-14108
▁Harr	-14109
▁Horn	-14110
▁Jung	-14111
▁Kapp	-14112
▁Keys	-14113
▁Know	-14114
▁Krog	-14115
▁Luck	-14116
▁Many	-14117
▁Marl	-14118
▁Meek	-14119
▁Mira	-14120
▁Mitt	-14121
▁Muse	-14122
▁Nile	-14123
▁Once	-14124
▁Palæ	-14125
▁Parl	-14126
▁Rein	-14127
▁Rema	-14128
▁Rena	-14129
▁Rund	-14130
▁Ryde	-14131
▁Sarp	-14132
▁Scen	-14133
▁Sean	-14134
▁Sill	-14135
▁Slut	-14136
▁Strü	-14137
▁Suss	-14138
▁Talk	-14139
▁Tall	-14140
▁Tedd	-14141
▁Tine	-14142
▁Toft	-14143
▁Upon	-14144
▁Vang	-14145
▁Vasa	-14146
▁Vene	-14147
▁Venn	-14148
▁allm	-14149
▁appl	-14150
▁arbe	-14151
▁arkt	-14152
▁bisp	-14153
▁bist	-14154
▁blad	-14155
▁cart	-14156
▁dark	-14157
▁dead	-14158
▁decl	-14159
▁disc	-14160
▁dokt	-14161
▁domk	-14162
▁drap	-14163
▁dubb	-14164
▁dyra	-14165
▁dømt	-14166
▁ejer	-14167
▁emot	-14168
▁face	-14169
▁fasc	-14170
▁frie	-14171
▁frig	-14172
▁förm	-14173
▁føde	-14174
▁gavs	-14175
▁gjær	-14176
▁godk	-14177
▁hels	-14178
▁hind	-14179
▁hypp	-14180
▁höll	-14181
▁kick	-14182
▁känt	-14183
▁kärn	-14184
▁less	-14185
▁mole	-14186
▁once	-14187
▁onde	-14188
▁pave	-14189
▁rene	-14190
▁rent	-14191
▁repl	-14192
▁rige	-14193
▁rune	-14194
▁selt	-14195
▁size	-14196
▁sjøm	-14197
▁sleg	-14198
▁stro	-14199
▁stöd	-14200
▁tegn	-14201
▁teke	-14202
▁tone	-14203
▁tons	-14204
▁trib	-14205
▁träd	-14206
▁træk	-14207
▁tung	-14208
▁tårn	-14209
▁ulik	-14210
▁undt	-14211
▁uppe	-14212
▁util	-14213
▁vakt	-14214
▁vice	-14215
▁visa	-14216
▁wide	-14217
▁årre	-14218
abaddi	-14219
addrar	-14220
adrilj	-14221
afamil	-14222
aleava	-14223
amfunn	-14224
asiaat	-14225
bygget	-14226
chanan	-14227
crantz	-14228
dernes	-14229
eboard	-14230
fadern	-14231
forval	-14232
fundet	-14233
givare	-14234
gänget	-14235
hammar	-14236
handel	-14237
hestra	-14238
holmen	-14239
igelse	-14240
klasse	-14241
kongen	-14242
ligvis	-14243
ländsk	-14244
naught	-14245
nerhet	-14246
netegn	-14247
regent	-14248
retter	-14249
ricket	-14250
ringøy	-14251
sanger	-14252
sbjerg	-14253
sburgh	-14254
skiner	-14255
skulen	-14256
spired	-14257
uperte	-14258
utions	-14259
veldet	-14260
vesvis	-14261
værker	-14262
åkning	-14263
▁Aaron	-14264
▁Abdel	-14265
▁Abdul	-14266
▁Again	-14267
▁Arten	-14268
▁Asian	-14269
▁Asien	-14270
▁Begge	-14271
▁Bente	-14272
▁Billy	-14273
▁Blair	-14274
▁Blake	-14275
▁Blich	-14276
▁Brats	-14277
▁Brett	-14278
▁Bøker	-14279
▁Calle	-14280
▁Carey	-14281
▁Corps	-14282
▁Dirch	-14283
▁Dutch	-14284
▁Eddie	-14285
▁Elton	-14286
▁Fight	-14287
▁Fjols	-14288
▁Fjord	-14289
▁Forss	-14290
▁Frans	-14291
▁Frost	-14292
▁Gärde	-14293
▁Gösta	-14294
▁Hills	-14295
▁Ibrah	-14296
▁Jamie	-14297
▁Jæger	-14298
▁Karen	-14299
▁Kelly	-14300
▁Kjeld	-14301
▁Kvamm	-14302
▁Laura	-14303
▁Liech	-14304
▁Løren	-14305
▁MMXXI	-14306
▁Magic	-14307
▁Malek	-14308
▁Malou	-14309
▁Miles	-14310
▁Minik	-14311
▁Mølby	-14312
▁Neill	-14313
▁Obama	-14314
▁Oprin	-14315
▁Order	-14316
▁Papua	-14317
▁Pelle	-14318
▁Perth	-14319
▁Piero	-14320
▁Quest	-14321
▁River	-14322
▁Sally	-14323
▁Sanne	-14324
▁Schøn	-14325
▁Shand	-14326
▁Sicil	-14327
▁Siste	-14328
▁Spain	-14329
▁Steel	-14330
▁Svahn	-14331
▁Sydow	-14332
▁Södra	-14333
▁Techn	-14334
▁Tenny	-14335
▁Thyra	-14336
▁Torsk	-14337
▁Tourn	-14338
▁Vasal	-14339
▁Vejle	-14340
▁Venus	-14341
▁Villa	-14342
▁Wayne	-14343
▁Willy	-14344
▁Witch	-14345
▁alleg	-14346
▁allow	-14347
▁autor	-14348
▁avdel	-14349
▁bebyg	-14350
▁bekre	-14351
▁besid	-14352
▁besto	-14353
▁bestå	-14354
▁bilen	-14355
▁board	-14356
▁bredt	-14357
▁byene	-14358
▁bygge	-14359
▁bytes	-14360
▁cross	-14361
▁digit	-14362
▁drept	-14363
▁døypt	-14364
▁ekspl	-14365
▁ender	-14366
▁facto	-14367
▁false	-14368
▁fokus	-14369
▁frequ	-14370
▁fylte	-14371
▁följd	-14372
▁galan	-14373
▁heavy	-14374
▁heder	-14375
▁herad	-14376
▁heraf	-14377
▁herre	-14378
▁heste	-14379
▁hjælp	-14380
▁innom	-14381
▁islam	-14382
▁julet	-14383
▁kanad	-14384
▁katal	-14385
▁kjemp	-14386
▁knapp	-14387
▁knusk	-14388
▁legge	-14389
▁lærar	-14390
▁majon	-14391
▁mekan	-14392
▁mänsk	-14393
▁naken	-14394
▁neigh	-14395
▁never	-14396
▁næste	-14397
▁ocean	-14398
▁opmær	-14399
▁paret	-14400
▁patri	-14401
▁plads	-14402
▁plant	-14403
▁reser	-14404
▁rival	-14405
▁seder	-14406
▁siger	-14407
▁sigra	-14408
▁skapa	-14409
▁sorte	-14410
▁spark	-14411
▁taket	-14412
▁teori	-14413
▁tilst	-14414
▁timer	-14415
▁topps	-14416
▁trods	-14417
▁trygg	-14418
▁tungt	-14419
▁udvid	-14420
▁utgiv	-14421
▁utgör	-14422
▁varer	-14423
▁varet	-14424
▁varte	-14425
▁vocal	-14426
agelsen	-14427
agerrak	-14428
atedral	-14429
avenius	-14430
ception	-14431
egionen	-14432
egories	-14433
egovina	-14434
etabler	-14435
etesild	-14436
htosalo	-14437
ificant	-14438
imenter	-14439
inental	-14440
iserade	-14441
iserien	-14442
itioner	-14443
ksessen	-14444
ksomhed	-14445
maktene	-14446
ritiker	-14447
sdotter	-14448
selskap	-14449
shandel	-14450
sholder	-14451
skyrkan	-14452
speriod	-14453
sprisen	-14454
ssystem	-14455
station	-14456
studier	-14457
talende	-14458
usjonen	-14459
veksten	-14460
verande	-14461
vitskap	-14462
våpenet	-14463
ydrogen	-14464
érables	-14465
øjtnant	-14466
▁Alanis	-14467
▁Alison	-14468
▁Always	-14469
▁Arktis	-14470
▁Atomic	-14471
▁Avisen	-14472
▁Batten	-14473
▁Battle	-14474
▁Birger	-14475
▁Bromma	-14476
▁Casper	-14477
▁Dallas	-14478
▁Denver	-14479
▁Derfor	-14480
▁Eagles	-14481
▁Edwall	-14482
▁Engell	-14483
▁Fauske	-14484
▁Fredag	-14485
▁Gaysir	-14486
▁Govern	-14487
▁Graham	-14488
▁Hamlet	-14489
▁Hockey	-14490
▁Holste	-14491
▁Honshu	-14492
▁Hooten	-14493
▁Jackie	-14494
▁Joakim	-14495
▁Joanna	-14496
▁Justin	-14497
▁Keegan	-14498
▁Keisha	-14499
▁Kepler	-14500
▁Labour	-14501
▁LeMond	-14502
▁Legend	-14503
▁Mahler	-14504
▁Mattel	-14505
▁Milano	-14506
▁Morgen	-14507
▁Moritz	-14508
▁Møgelt	-14509
▁Niklas	-14510
▁Nordli	-14511
▁Nordre	-14512
▁Opsahl	-14513
▁Pretty	-14514
▁Prisen	-14515
▁Priser	-14516
▁Queens	-14517
▁Result	-14518
▁Ridder	-14519
▁Roller	-14520
▁Rowena	-14521
▁Rudolf	-14522
▁Rumble	-14523
▁Rådhus	-14524
▁Sanger	-14525
▁Schack	-14526
▁Scient	-14527
▁Serbia	-14528
▁Sigurd	-14529
▁Sixtus	-14530
▁Sotsji	-14531
▁Strind	-14532
▁Summer	-14533
▁Svarta	-14534
▁Sylvia	-14535
▁Tidlig	-14536
▁Troels	-14537
▁Trophy	-14538
▁Unmack	-14539
▁Viktor	-14540
▁Wallis	-14541
▁access	-14542
▁afdøde	-14543
▁alltså	-14544
▁angreb	-14545
▁arbeta	-14546
▁argent	-14547
▁begrav	-14548
▁bratsj	-14549
▁brugte	-14550
▁cities	-14551
▁coming	-14552
▁copies	-14553
▁culmin	-14554
▁dansar	-14555
▁drevet	-14556
▁faster	-14557
▁fetter	-14558
▁fiktiv	-14559
▁finske	-14560
▁fjells	-14561
▁folkem	-14562
▁forfat	-14563
▁forsøk	-14564
▁framåt	-14565
▁fredag	-14566
▁gather	-14567
▁grader	-14568
▁guvern	-14569
▁handel	-14570
▁høyere	-14571
▁intens	-14572
▁judisk	-14573
▁kallat	-14574
▁kamper	-14575
▁kanske	-14576
▁kanten	-14577
▁kommet	-14578
▁kronet	-14579
▁kronor	-14580
▁kungar	-14581
▁lengre	-14582
▁listed	-14583
▁losing	-14584
▁master	-14585
▁medier	-14586
▁meteor	-14587
▁moment	-14588
▁morgon	-14589
▁mormor	-14590
▁myster	-14591
▁norrøn	-14592
▁opnået	-14593
▁opplys	-14594
▁parade	-14595
▁passes	-14596
▁pengar	-14597
▁plates	-14598
▁points	-14599
▁prepar	-14600
▁pursue	-14601
▁radios	-14602
▁radiov	-14603
▁sjunga	-14604
▁själva	-14605
▁skivor	-14606
▁skoleg	-14607
▁skudår	-14608
▁sorter	-14609
▁states	-14610
▁streng	-14611
▁strugg	-14612
▁svarte	-14613
▁sykkel	-14614
▁sønnes	-14615
▁tennis	-14616
▁texter	-14617
▁tildel	-14618
▁titlar	-14619
▁totale	-14620
▁ukjent	-14621
▁utgåve	-14622
▁utmerk	-14623
▁utvand	-14624
▁utvida	-14625
▁valget	-14626
▁verdas	-14627
▁verdsc	-14628
▁vinner	-14629
▁værter	-14630
▁ägnade	-14631
▁ønsket	-14632
arbejder	-14633
elskapet	-14634
espiller	-14635
inematic	-14636
iserings	-14637
kommunen	-14638
kulturen	-14639
liggande	-14640
liggende	-14641
ningarna	-14642
pression	-14643
redaktör	-14644
samlinga	-14645
senteret	-14646
singland	-14647
skansler	-14648
sområdet	-14649
ändelser	-14650
ættelsen	-14651
▁Aasiaat	-14652
▁Aukrust	-14653
▁Bahamas	-14654
▁Baptist	-14655
▁Bullock	-14656
▁Calgary	-14657
▁Caprino	-14658
▁Captain	-14659
▁Costner	-14660
▁Diggins	-14661
▁Emperor	-14662
▁Friends	-14663
▁Gasolin	-14664
▁Gerhard	-14665
▁Gjersem	-14666
▁Handler	-14667
▁Hedmark	-14668
▁Horizon	-14669
▁Hundvin	-14670
▁Janeiro	-14671
▁Jenssen	-14672
▁Jessica	-14673
▁Kashmir	-14674
▁Killing	-14675
▁Kjelder	-14676
▁Kjukken	-14677
▁Knutsen	-14678
▁Korleis	-14679
▁Kunglig	-14680
▁Lincoln	-14681
▁Madekwe	-14682
▁Manfred	-14683
▁Nordens	-14684
▁Nystrøm	-14685
▁Paulsen	-14686
▁Prinsen	-14687
▁Runcorn	-14688
▁Seriens	-14689
▁Service	-14690
▁Spillet	-14691
▁Stellan	-14692
▁Suzanne	-14693
▁Sweeney	-14694
▁Søltoft	-14695
▁Therese	-14696
▁Tronføl	-14697
▁Umberto	-14698
▁använde	-14699
▁autonom	-14700
▁betyder	-14701
▁busette	-14702
▁changed	-14703
▁claimed	-14704
▁constit	-14705
▁dengang	-14706
▁dommere	-14707
▁earning	-14708
▁ejendom	-14709
▁fiktive	-14710
▁filming	-14711
▁forfatt	-14712
▁formell	-14713
▁formelt	-14714
▁fotomod	-14715
▁frilans	-14716
▁följdes	-14717
▁gradvis	-14718
▁grænser	-14719
▁however	-14720
▁instead	-14721
▁intelle	-14722
▁kallats	-14723
▁killing	-14724
▁komiske	-14725
▁kvinnan	-14726
▁kvinnor	-14727
▁markeds	-14728
▁moderns	-14729
▁notable	-14730
▁nødvend	-14731
▁oldefar	-14732
▁omstrid	-14733
▁oppdaga	-14734
▁oppfatt	-14735
▁overvej	-14736
▁passing	-14737
▁sannsyn	-14738
▁sjeldan	-14739
▁skiflyg	-14740
▁skildes	-14741
▁skildra	-14742
▁slekten	-14743
▁släkten	-14744
▁songane	-14745
▁sosialt	-14746
▁spawned	-14747
▁stiftet	-14748
▁sydlige	-14749
▁syndrom	-14750
▁teatern	-14751
▁teknikk	-14752
▁teknisk	-14753
▁tekstar	-14754
▁tilgang	-14755
▁tonåren	-14756
▁utdanna	-14757
▁vanligt	-14758
▁vedtatt	-14759
▁Øresund	-14760
▁återkom	-14761
▁åttonde	-14762
ahrenheit	-14763
alfabetet	-14764
arpartiet	-14765
branschen	-14766
forbundet	-14767
ification	-14768
landshold	-14769
president	-14770
produsent	-14771
rigspolit	-14772
styrelsen	-14773
uropeiske	-14774
versjonen	-14775
vetenskap	-14776
▁Albrecht	-14777
▁Anderson	-14778
▁Arkivert	-14779
▁Askepott	-14780
▁Bohuslän	-14781
▁Buchanan	-14782
▁Clouseau	-14783
▁Colombia	-14784
▁Deutsche	-14785
▁Drammens	-14786
▁Eastwood	-14787
▁Eftersom	-14788
▁Ekteskap	-14789
▁Ellemann	-14790
▁Ettersom	-14791
▁Fredriks	-14792
▁Grandios	-14793
▁Granlund	-14794
▁Hellerup	-14795
▁Jakobsen	-14796
▁Kiribati	-14797
▁Kløvedal	-14798
▁McCollum	-14799
▁Missouri	-14800
▁Nittedal	-14801
▁Presleys	-14802
▁Saturday	-14803
▁Sjælland	-14804
▁Stanford	-14805
▁Stauning	-14806
▁Säsongen	-14807
▁Söderman	-14808
▁Thorning	-14809
▁Torbjørn	-14810
▁Törnblom	-14811
▁Vendland	-14812
▁WhatsApp	-14813
▁Zanzibar	-14814
▁artisten	-14815
▁austlege	-14816
▁bachelor	-14817
▁bidragsy	-14818
▁blanding	-14819
▁byområde	-14820
▁centrala	-14821
▁centrale	-14822
▁coverage	-14823
▁datteren	-14824
▁dessuten	-14825
▁division	-14826
▁dramatic	-14827
▁election	-14828
▁episodes	-14829
▁erfaring	-14830
▁etterful	-14831
▁exemplar	-14832
▁faderens	-14833
▁festival	-14834
▁festning	-14835
▁finished	-14836
▁foreldra	-14837
▁forening	-14838
▁forkorta	-14839
▁forsøgte	-14840
▁framført	-14841
▁fremstår	-14842
▁fungerer	-14843
▁försöker	-14844
▁grevinna	-14845
▁gruppens	-14846
▁hertugen	-14847
▁høvesvis	-14848
▁igjennom	-14849
▁infanter	-14850
▁insatser	-14851
▁kategori	-14852
▁komedier	-14853
▁kommende	-14854
▁krogshow	-14855
▁kulturer	-14856
▁mandater	-14857
▁militära	-14858
▁opphavet	-14859
▁oppnådde	-14860
▁oprettet	-14861
▁organist	-14862
▁passerer	-14863
▁passerte	-14864
▁platinum	-14865
▁populära	-14866
▁påbegynd	-14867
▁rankings	-14868
▁revealed	-14869
▁rollerna	-14870
▁romerska	-14871
▁rådgiver	-14872
▁siddende	-14873
▁signerte	-14874
▁sluttede	-14875
▁solsikke	-14876
▁såkaldte	-14877
▁together	-14878
▁trettond	-14879
▁undertry	-14880
▁utbildad	-14881
▁velferds	-14882
▁vintersp	-14883
▁århundre	-14884
▁återigen	-14885
▁övergång	-14886
arlamentet	-14887
bataljonen	-14888
plassering	-14889
skarringen	-14890
österreich	-14891
▁Blanchett	-14892
▁Brokeback	-14893
▁Cinematic	-14894
▁Committee	-14895
▁Connaught	-14896
▁Cristiano	-14897
▁Fjeldstad	-14898
▁Graceland	-14899
▁Gärdestad	-14900
▁Hausgaard	-14901
▁Hillingsø	-14902
▁Historikk	-14903
▁Iamaleava	-14904
▁Kirkegård	-14905
▁Lancaster	-14906
▁Lehtosalo	-14907
▁Lørenskog	-14908
▁Magnusson	-14909
▁Moderater	-14910
▁Mortensen	-14911
▁Nordpolen	-14912
▁Recording	-14913
▁Sarpsborg	-14914
▁Scavenius	-14915
▁Skagerrak	-14916
▁Skådespel	-14917
▁Soukalová	-14918
▁Spielberg	-14919
▁Valentine	-14920
▁Värmlands	-14921
▁aktivitet	-14922
▁astronaut	-14923
▁avslutade	-14924
▁betragtes	-14925
▁betydelig	-14926
▁conflicts	-14927
▁contribut	-14928
▁deriblant	-14929
▁different	-14930
▁dronninga	-14931
▁folketall	-14932
▁forkortet	-14933
▁forskning	-14934
▁fremdeles	-14935
▁friidrett	-14936
▁förlorade	-14937
▁genomgick	-14938
▁giftermål	-14939
▁grundlagt	-14940
▁gymnasium	-14941
▁inaugural	-14942
▁indelning	-14943
▁kinesiske	-14944
▁klassiska	-14945
▁konsernet	-14946
▁kulturell	-14947
▁kærlighed	-14948
▁languages	-14949
▁ligeledes	-14950
▁materiale	-14951
▁nationale	-14952
▁nominerad	-14953
▁organised	-14954
▁producers	-14955
▁promotion	-14956
▁publisert	-14957
▁redaktion	-14958
▁regionale	-14959
▁regularly	-14960
▁repræsent	-14961
▁sedermera	-14962
▁skihoppar	-14963
▁synnerhet	-14964
▁tiltrådte	-14965
▁trollmann	-14966
▁tsjekkisk	-14967
▁uppgifter	-14968
▁vietnames	-14969
▁wrestlers	-14970
▁øygruppen	-14971
konkurranse	-14972
shopprennet	-14973
▁Aleksander	-14974
▁Battenberg	-14975
▁Democratic	-14976
▁Europeiska	-14977
▁Excellence	-14978
▁Heidelberg	-14979
▁Holmenkoll	-14980
▁Hootenanny	-14981
▁Ibrahimovi	-14982
▁Kjerringøy	-14983
▁Korridorer	-14984
▁Kristopher	-14985
▁Misérables	-14986
▁Nottingham	-14987
▁Pittsburgh	-14988
▁Production	-14989
▁Produksjon	-14990
▁Ptolemaios	-14991
▁Referencer	-14992
▁Salomonsen	-14993
▁Samuelsson	-14994
▁Tournament	-14995
▁Vasaloppet	-14996
▁abdicerede	-14997
▁avslutades	-14998
▁beliggende	-14999
▁categories	-15000
▁delstatene	-15001
▁elektriske	-15002
▁engagemang	-15003
▁erstatning	-15004
▁forsknings	-15005
▁föräldrars	-15006
▁føderasjon	-15007
▁grunnlaget	-15008
▁historical	-15009
▁ingrediens	-15010
▁komponeret	-15011
▁konstruert	-15012
▁kortfilmen	-15013
▁kungafamil	-15014
▁kungariket	-15015
▁kunngjorde	-15016
▁kvaliteter	-15017
▁kvinnelege	-15018
▁næstældste	-15019
▁omfattande	-15020
▁prædikater	-15021
▁rockbandet	-15022
▁soundtrack	-15023
▁säsongerna	-15024
▁technology	-15025
▁tettsteder	-15026
▁theatrical	-15027
▁tilhørende	-15028
▁utbildades	-15029
▁videreført	-15030
konkurransen	-15031
mesterskapet	-15032
plasseringar	-15033
riksminister	-15034
skådespelare	-15035
▁Dronningens	-15036
▁Hercegovina	-15037
▁Hovedstaden	-15038
▁Hälsingland	-15039
▁Musikverein	-15040
▁Møgeltønder	-15041
▁Norrbottens	-15042
▁Tramteatret	-15043
▁administrer	-15044
▁directorial	-15045
▁documentary	-15046
▁folkeskolen	-15047
▁institusjon	-15048
▁kommersiell	-15049
▁lillesøster	-15050
▁medlemmarna	-15051
▁oprindelige	-15052
▁produktions	-15053
▁sangerinden	-15054
▁significant	-15055
▁tilsvarende	-15056
▁Bjørnstjerne	-15057
▁Universitets	-15058
▁artistnavnet	-15059
▁befolkningst	-15060
▁folkegrupper	-15061
▁fremtrædende	-15062
▁humoristiske	-15063
▁julekalender	-15064
▁konkurransen	-15065
▁normalbakken	-15066
▁opprinnelige	-15067
▁presidential	-15068
▁produksjoner	-15069
▁tilgjengelig	-15070
▁tittelrollen	-15071
▁tradisjonell	-15072
organisationen	-15073
▁Liechtenstein	-15074
▁Napoleonskrig	-15075
▁championships	-15076
▁collaboration	-15077
▁debutalbummet	-15078
▁meisterskapen	-15079
▁underhållning	-15080
▁Drottningholms	-15081
▁Rikshospitalet	-15082
▁fylkeskommunen	-15083
▁kronprinsparet	-15084
▁originaltittel	-15085
▁sammenslåingen	-15086
▁subpostmasters	-15087
▁foredragsholder	-15088
89	-15089
AA	-15090
AR	-15091
CN	-15092
DL	-15093
ES	-15094
GC	-15095
OH	-15096
bn	-15097
bs	-15098
[...]
