<unk>	0
<s>	0
</s>	0
<0x00>	0
<0x01>	0
<0x02>	0
<0x03>	0
<0x04>	0
<0x05>	0
<0x06>	0
<0x07>	0
<0x08>	0
<0x09>	0
<0x0A>	0
<0x0B>	0
<0x0C>	0
<0x0D>	0
<0x0E>	0
<0x0F>	0
<0x10>	0
<0x11>	0
<0x12>	0
<0x13>	0
<0x14>	0
<0x15>	0
<0x16>	0
<0x17>	0
<0x18>	0
<0x19>	0
<0x1A>	0
<0x1B>	0
<0x1C>	0
<0x1D>	0
<0x1E>	0
<0x1F>	0
<0x20>	0
<0x21>	0
<0x22>	0
<0x23>	0
<0x24>	0
<0x25>	0
<0x26>	0
<0x27>	0
<0x28>	0
<0x29>	0
<0x2A>	0
<0x2B>	0
<0x2C>	0
<0x2D>	0
<0x2E>	0
<0x2F>	0
<0x30>	0
<0x31>	0
<0x32>	0
<0x33>	0
<0x34>	0
<0x35>	0
<0x36>	0
<0x37>	0
<0x38>	0
<0x39>	0
<0x3A>	0
<0x3B>	0
<0x3C>	0
<0x3D>	0
<0x3E>	0
<0x3F>	0
<0x40>	0
<0x41>	0
<0x42>	0
<0x43>	0
<0x44>	0
<0x45>	0
<0x46>	0
<0x47>	0
<0x48>	0
<0x49>	0
<0x4A>	0
<0x4B>	0
<0x4C>	0
<0x4D>	0
<0x4E>	0
<0x4F>	0
<0x50>	0
<0x51>	0
<0x52>	0
<0x53>	0
<0x54>	0
<0x55>	0
<0x56>	0
<0x57>	0
<0x58>	0
<0x59>	0
<0x5A>	0
<0x5B>	0
<0x5C>	0
<0x5D>	0
<0x5E>	0
<0x5F>	0
<0x60>	0
<0x61>	0
<0x62>	0
<0x63>	0
<0x64>	0
<0x65>	0
<0x66>	0
<0x67>	0
<0x68>	0
<0x69>	0
<0x6A>	0
<0x6B>	0
<0x6C>	0
<0x6D>	0
<0x6E>	0
<0x6F>	0
<0x70>	0
<0x71>	0
<0x72>	0
<0x73>	0
<0x74>	0
<0x75>	0
<0x76>	0
<0x77>	0
<0x78>	0
<0x79>	0
<0x7A>	0
<0x7B>	0
<0x7C>	0
<0x7D>	0
<0x7E>	0
<0x7F>	0
<0x80>	0
<0x81>	0
<0x82>	0
<0x83>	0
<0x84>	0
<0x85>	0
<0x86>	0
<0x87>	0
<0x88>	0
<0x89>	0
<0x8A>	0
<0x8B>	0
<0x8C>	0
<0x8D>	0
<0x8E>	0
<0x8F>	0
<0x90>	0
<0x91>	0
<0x92>	0
<0x93>	0
<0x94>	0
<0x95>	0
<0x96>	0
<0x97>	0
<0x98>	0
<0x99>	0
<0x9A>	0
<0x9B>	0
<0x9C>	0
<0x9D>	0
<0x9E>	0
<0x9F>	0
<0xA0>	0
<0xA1>	0
<0xA2>	0
<0xA3>	0
<0xA4>	0
<0xA5>	0
<0xA6>	0
<0xA7>	0
<0xA8>	0
<0xA9>	0
<0xAA>	0
<0xAB>	0
<0xAC>	0
<0xAD>	0
<0xAE>	0
<0xAF>	0
<0xB0>	0
<0xB1>	0
<0xB2>	0
<0xB3>	0
<0xB4>	0
<0xB5>	0
<0xB6>	0
<0xB7>	0
<0xB8>	0
<0xB9>	0
<0xBA>	0
<0xBB>	0
<0xBC>	0
<0xBD>	0
<0xBE>	0
<0xBF>	0
<0xC0>	0
<0xC1>	0
<0xC2>	0
<0xC3>	0
<0xC4>	0
<0xC5>	0
<0xC6>	0
<0xC7>	0
<0xC8>	0
<0xC9>	0
<0xCA>	0
<0xCB>	0
<0xCC>	0
<0xCD>	0
<0xCE>	0
<0xCF>	0
<0xD0>	0
<0xD1>	0
<0xD2>	0
<0xD3>	0
<0xD4>	0
<0xD5>	0
<0xD6>	0
<0xD7>	0
<0xD8>	0
<0xD9>	0
<0xDA>	0
<0xDB>	0
<0xDC>	0
<0xDD>	0
<0xDE>	0
<0xDF>	0
<0xE0>	0
<0xE1>	0
<0xE2>	0
<0xE3>	0
<0xE4>	0
<0xE5>	0
<0xE6>	0
<0xE7>	0
<0xE8>	0
<0xE9>	0
<0xEA>	0
<0xEB>	0
<0xEC>	0
<0xED>	0
<0xEE>	0
<0xEF>	0
<0xF0>	0
<0xF1>	0
<0xF2>	0
<0xF3>	0
<0xF4>	0
<0xF5>	0
<0xF6>	0
<0xF7>	0
<0xF8>	0
<0xF9>	0
<0xFA>	0
<0xFB>	0
<0xFC>	0
<0xFD>	0
<0xFE>	0
<0xFF>	0
-	0
--	0
---	0
----	0
-----	0
------	0
-------	0
--------	0
----------	0
------------	0
----------------	0
-.	0
.-	0
..	0
...	0
....	0
.....	0
........	0
................	0
AN	0
AS	0
All	0
App	0
BI	0
BS	0
BU	0
Be	0
CA	0
CC	0
CE	0
CN	0
CS	0
Cap	0
Cloud	0
DB	0
DC	0
DF	0
DI	0
DL	0
DO	0
DR	0
DS	0
EL	0
EM	0
ES	0
ET	0
GC	0
Ge	0
ICE	0
IF	0
IL	0
IM	0
LA	0
LM	0
LS	0
ML	0
Media	0
Q	0
RI	0
RL	0
SP	0
ST	0
SV	0
Sing	0
St	0
Station	0
TA	0
TC	0
VID	0
VP	0
_	0
aal	0
abad	0
abeth	0
ability	0
able	0
ables	0
ablo	0
ably	0
aces	0
ached	0
aching	0
achusetts	0
acia	0
acion	0
acter	0
actly	0
adas	0
addy	0
aded	0
adem	0
ading	0
ados	0
adrat	0
adu	0
agement	0
aggio	0
agh	0
aging	0
agner	0
ague	0
agues	0
ahren	0
aint	0
airs	0
aked	0
akh	0
akter	0
album	0
alg	0
aling	0
alis	0
ality	0
alla	0
allas	0
alle	0
alled	0
allen	0
aller	0
alph	0
amb	0
amba	0
amente	0
aming	0
amm	0
amma	0
ammen	0
amount	0
ampion	0
ams	0
amt	0
anc	0
ance	0
ancer	0
ances	0
anch	0
anche	0
ancy	0
andid	0
andra	0
andro	0
anel	0
anes	0
anga	0
angel	0
anie	0
ann	0
anna	0
anne	0
anned	0
annel	0
anner	0
anni	0
anny	0
anta	0
anten	0
antly	0
apest	0
aps	0
aqu	0
aram	0
arch	0
archy	0
arded	0
arden	0
arding	0
ario	0
arm	0
arn	0
arna	0
arr	0
ars	0
asc	0
ashion	0
asia	0
asion	0
asons	0
asp	0
asso	0
asted	0
astro	0
asure	0
atal	0
atan	0
atch	0
ated	0
atern	0
ateur	0
athan	0
atherine	0
ating	0
ational	0
atom	0
ator	0
ators	0
atory	0
atr	0
atri	0
atti	0
attle	0
atu	0
atur	0
ature	0
auer	0
avi	0
avy	0
azar	0
azine	0
azz	0
bag	0
bahn	0
bank	0
beck	0
beit	0
bell	0
berry	0
bers	0
bild	0
bind	0
bit	0
blem	0
bn	0
bold	0
book	0
boot	0
born	0
borough	0
bot	0
bourne	0
bow	0
box	0
brand	0
bridge	0
bs	0
bud	0
bur	0
burn	0
bye	0
cam	0
card	0
cast	0
castle	0
cca	0
ccess	0
cell	0
cent	0
cep	0
ception	0
cess	0
chan	0
change	0
char	0
chor	0
chron	0
chte	0
cies	0
cil	0
cing	0
ció	0
cl	0
cles	0
clone	0
clusion	0
col	0
coln	0
cont	0
cord	0
cover	0
craft	0
cted	0
ctor	0
cular	0
cup	0
czy	0
cé	0
dem	0
dern	0
ders	0
dess	0
dim	0
dire	0
dog	0
dorf	0
drag	0
earch	0
ears	0
ebru	0
ect	0
eding	0
edly	0
edo	0
ega	0
elines	0
ella	0
ellan	0
elle	0
ellen	0
eller	0
elles	0
ellig	0
elling	0
ello	0
ellow	0
elly	0
elm	0
eln	0
elve	0
emark	0
emb	0
ember	0
emed	0
emon	0
emp	0
empl	0
enburg	0
enc	0
ence	0
encer	0
ences	0
ency	0
ended	0
ending	0
ends	0
ening	0
enn	0
enne	0
ennes	0
ennis	0
ension	0
enson	0
ental	0
ential	0
entin	0
ention	0
ently	0
entre	0
eper	0
ern	0
erna	0
erne	0
ers	0
erv	0
esis	0
ested	0
estival	0
estone	0
estr	0
ethe	0
etic	0
etime	0
eting	0
etto	0
ex	0
face	0
fare	0
fast	0
ference	0
field	0
fil	0
film	0
fin	0
final	0
fire	0
fit	0
flag	0
fold	0
folk	0
fon	0
for	0
ford	0
fore	0
form	0
format	0
former	0
forms	0
fort	0
fr	0
fred	0
front	0
ful	0
full	0
fun	0
fur	0
gency	0
gener	0
gers	0
gest	0
ghan	0
god	0
gress	0
gro	0
ground	0
grund	0
gun	0
hab	0
had	0
hall	0
handler	0
haus	0
head	0
heast	0
heid	0
heim	0
heimer	0
heit	0
helm	0
here	0
hind	0
hit	0
holm	0
hor	0
horn	0
hot	0
house	0
hren	0
iac	0
iale	0
iami	0
iao	0
iat	0
iate	0
ibe	0
iber	0
ibility	0
ically	0
ican	0
iced	0
ices	0
icia	0
ician	0
icles	0
ico	0
icode	0
ics	0
ict	0
icted	0
iction	0
icy	0
idd	0
ideo	0
ief	0
iej	0
ielle	0
iem	0
ience	0
ienne	0
ierra	0
iers	0
iety	0
ieu	0
iffer	0
ific	0
ifica	0
ification	0
ified	0
ifier	0
iform	0
iful	0
igh	0
ighed	0
ight	0
ighth	0
ights	0
igr	0
igue	0
ii	0
ijk	0
ijn	0
ilities	0
illa	0
illas	0
ille	0
illed	0
iller	0
illes	0
ilty	0
imal	0
imat	0
imately	0
imedia	0
imen	0
iments	0
imes	0
imeter	0
imm	0
immer	0
imo	0
imore	0
import	0
ims	0
inburgh	0
inc	0
indi	0
indust	0
inea	0
ingham	0
ingly	0
ingu	0
inity	0
inn	0
innen	0
inner	0
iod	0
ional	0
iop	0
iously	0
ipedia	0
ipping	0
ique	0
irect	0
ires	0
iring	0
irit	0
irl	0
iro	0
irst	0
isc	0
ished	0
isher	0
ishop	0
ising	0
ision	0
ismo	0
ison	0
isp	0
issen	0
istan	0
istic	0
isz	0
itable	0
itan	0
itar	0
itat	0
itation	0
itch	0
ited	0
ites	0
ither	0
ities	0
itime	0
iting	0
itionally	0
itions	0
itor	0
itted	0
ittel	0
itting	0
ittle	0
itu	0
itude	0
iture	0
itzer	0
ité	0
ivalent	0
ively	0
ivers	0
iverse	0
ivid	0
ivil	0
iving	0
ixed	0
iy	0
ization	0
ized	0
izes	0
izon	0
jd	0
ject	0
jed	0
jel	0
jär	0
ktor	0
ktur	0
leans	0
lee	0
lement	0
lers	0
leton	0
light	0
lista	0
load	0
loaded	0
lock	0
major	0
maker	0
mann	0
mart	0
mass	0
media	0
mers	0
mid	0
mile	0
miss	0
mod	0
model	0
most	0
mouth	0
move	0
mul	0
mun	0
nam	0
name	0
names	0
nat	0
ners	0
nex	0
nick	0
nitt	0
not	0
nut	0
obb	0
obe	0
obi	0
ocal	0
ockey	0
ocus	0
ogen	0
ogle	0
ograph	0
ographic	0
ographical	0
ography	0
oid	0
oin	0
oint	0
oked	0
oker	0
oking	0
okrat	0
olar	0
olia	0
ollow	0
ology	0
olph	0
omb	0
omed	0
omet	0
ometer	0
omin	0
omm	0
omo	0
oms	0
onda	0
onel	0
onna	0
onym	0
onymous	0
oph	0
ops	0
opsis	0
oral	0
order	0
ording	0
ored	0
orer	0
orf	0
ories	0
orig	0
orious	0
orld	0
orm	0
orn	0
orno	0
orp	0
orr	0
orrow	0
ors	0
osc	0
osing	0
osoph	0
osp	0
ospel	0
ospital	0
ota	0
otal	0
other	0
oto	0
otta	0
otte	0
otto	0
ouch	0
ough	0
ould	0
ounced	0
ounter	0
ource	0
ources	0
ouri	0
ournal	0
ours	0
ouver	0
oved	0
overn	0
ová	0
ower	0
pan	0
panel	0
pass	0
pat	0
pect	0
pected	0
pend	0
person	0
pert	0
pez	0
phabet	0
phan	0
phy	0
plant	0
pon	0
port	0
post	0
pres	0
present	0
press	0
pression	0
pret	0
prise	0
produ	0
program	0
ptember	0
put	0
quad	0
qual	0
quare	0
quel	0
ques	0
rab	0
ract	0
radio	0
raf	0
raham	0
rap	0
read	0
recht	0
reen	0
rees	0
regon	0
reich	0
rence	0
resp	0
respond	0
rics	0
rif	0
right	0
rip	0
riter	0
riv	0
rock	0
rod	0
roid	0
roller	0
room	0
rost	0
rote	0
rough	0
round	0
rupt	0
say	0
season	0
sec	0
selves	0
send	0
sequ	0
sequently	0
serv	0
sing	0
skip	0
social	0
spect	0
spl	0
spring	0
stan	0
stand	0
standing	0
stat	0
station	0
stats	0
status	0
sted	0
stein	0
stell	0
sterdam	0
sters	0
ston	0
stone	0
stream	0
strip	0
stud	0
sur	0
sys	0
system	0
teen	0
tem	0
tern	0
ternal	0
ters	0
thers	0
thing	0
thm	0
though	0
thur	0
tocol	0
typ	0
type	0
ube	0
ublic	0
ucky	0
ued	0
uelle	0
uese	0
ufact	0
ugh	0
uj	0
ulated	0
ulation	0
ules	0
ulle	0
ultan	0
ultur	0
ulty	0
ulu	0
ulus	0
umb	0
umed	0
uments	0
umm	0
umn	0
ums	0
unch	0
union	0
univers	0
unn	0
unnel	0
unte	0
uper	0
uras	0
urb	0
urch	0
ureau	0
uring	0
urity	0
urn	0
uro	0
urop	0
urope	0
urs	0
uru	0
usalem	0
usch	0
uses	0
ushing	0
using	0
usta	0
utch	0
uther	0
ution	0
uto	0
utton	0
uvud	0
vars	0
velop	0
vement	0
vention	0
vern	0
vers	0
version	0
video	0
vil	0
ville	0
vision	0
visor	0
viv	0
vre	0
vt	0
wald	0
wall	0
wan	0
war	0
watch	0
water	0
web	0
wed	0
ween	0
weg	0
weight	0
werk	0
western	0
where	0
wich	0
wick	0
wide	0
wig	0
wiki	0
wing	0
wise	0
wo	0
work	0
works	0
world	0
worth	0
writ	0
writer	0
ydro	0
year	0
ymbol	0
yond	0
yp	0
ystem	0
yt	0
Ä	0
Æ	0
á	0
ák	0
án	0
ár	0
ás	0
äft	0
äm	0
änger	0
è	0
ège	0
ència	0
ère	0
èse	0
ève	0
í	0
ía	0
ín	0
ít	0
ó	0
ón	0
ór	0
öd	0
ü	0
ück	0
üh	0
ün	0
ür	0
ā	0
ō	0
ə	0
ɪ	0
ˈ	0
ː	0
α	0
λ	0
ς	0
а	0
ан	0
е	0
ер	0
и	0
ин	0
н	0
на	0
но	0
о	0
ор	0
р	0
ра	0
ри	0
ا	0
ال	0
ل	0
م	0
er	-0
en	-1
▁s	-2
an	-3
▁.	-4
ar	-5
▁,	-6
▁o	-7
in	-8
▁t	-9
et	-10
▁d	-11
▁a	-12
▁i	-13
st	-14
▁h	-15
▁m	-16
on	-17
ed	-18
▁1	-19
▁b	-20
▁f	-21
▁v	-22
il	-23
▁og	-24
re	-25
▁p	-26
▁k	-27
om	-28
el	-29
and	-30
sk	-31
▁2	-32
or	-33
al	-34
▁H	-35
▁S	-36
es	-37
▁19	-38
ing	-39
le	-40
he	-41
▁20	-42
▁D	-43
ik	-44
ig	-45
at	-46
▁A	-47
un	-48
it	-49
▁M	-50
▁som	-51
de	-52
▁av	-53
▁l	-54
▁til	-55
▁g	-56
ol	-57
▁T	-58
ch	-59
▁n	-60
▁en	-61
as	-62
▁the	-63
▁F	-64
▁B	-65
is	-66
▁med	-67
▁på	-68
▁I	-69
▁N	-70
▁in	-71
▁var	-72
▁er	-73
id	-74
am	-75
▁e	-76
▁P	-77
▁K	-78
ter	-79
▁C	-80
te	-81
▁L	-82
ag	-83
▁E	-84
▁and	-85
us	-86
ist	-87
▁R	-88
▁den	-89
▁G	-90
▁och	-91
▁st	-92
ut	-93
ør	-94
år	-95
ad	-96
pp	-97
▁J	-98
ver	-99
▁of	-100
▁han	-101
▁w	-102
▁re	-103
▁de	-104
▁r	-105
▁V	-106
ör	-107
är	-108
isk	-109
▁sk	-110
▁har	-111
▁O	-112
▁201	-113
▁ble	-114
▁at	-115
est	-116
ge	-117
ent	-118
▁200	-119
▁af	-120
av	-121
der	-122
ak	-123
▁to	-124
▁W	-125
ck	-126
▁j	-127
▁c	-128
▁det	-129
▁Han	-130
land	-131
ir	-132
ens	-133
ion	-134
ro	-135
ul	-136
ning	-137
se	-138
▁et	-139
ud	-140
ere	-141
art	-142
ste	-143
ød	-144
iv	-145
ke	-146
▁U	-147
ng	-148
are	-149
ot	-150
▁199	-151
ia	-152
ru	-153
eg	-154
ong	-155
▁år	-156
ær	-157
kt	-158
ins	-159
▁ut	-160
▁202	-161
nd	-162
lig	-163
ang	-164
ord	-165
▁för	-166
▁om	-167
ie	-168
ark	-169
sen	-170
ansk	-171
ur	-172
ert	-173
og	-174
▁sp	-175
ic	-176
la	-177
▁till	-178
ron	-179
ien	-180
▁sin	-181
rins	-182
▁Fr	-183
▁198	-184
je	-185
ok	-186
▁blev	-187
ade	-188
ven	-189
▁un	-190
ne	-191
ene	-192
▁Ch	-193
▁197	-194
▁an	-195
▁å	-196
yr	-197
▁The	-198
▁der	-199
os	-200
▁ein	-201
od	-202
▁är	-203
▁fød	-204
ill	-205
if	-206
ov	-207
▁3	-208
mer	-209
ap	-210
ian	-211
org	-212
▁is	-213
▁was	-214
jon	-215
▁18	-216
em	-217
▁by	-218
ra	-219
ss	-220
ly	-221
im	-222
▁kon	-223
fter	-224
und	-225
ett	-226
ige	-227
ust	-228
ikk	-229
▁del	-230
▁bl	-231
▁tid	-232
▁før	-233
▁al	-234
00	-235
ug	-236
ek	-237
▁196	-238
tt	-239
▁Det	-240
så	-241
ede	-242
iske	-243
sl	-244
ten	-245
▁as	-246
▁on	-247
▁født	-248
▁ved	-249
ore	-250
▁Mar	-251
▁be	-252
ld	-253
uar	-254
▁under	-255
▁men	-256
mark	-257
▁over	-258
▁sl	-259
▁Dan	-260
ess	-261
itt	-262
▁opp	-263
▁tr	-264
op	-265
rik	-266
ling	-267
▁Den	-268
rist	-269
ant	-270
ger	-271
▁land	-272
ay	-273
ow	-274
ith	-275
▁De	-276
ende	-277
kk	-278
eder	-279
▁fl	-280
▁Jo	-281
end	-282
rå	-283
um	-284
ard	-285
▁mus	-286
▁Al	-287
ort	-288
anuar	-289
▁br	-290
oll	-291
all	-292
att	-293
esp	-294
▁In	-295
øn	-296
▁att	-297
ab	-298
▁gr	-299
▁Danmark	-300
▁An	-301
▁u	-302
▁ver	-303
old	-304
ks	-305
yl	-306
▁se	-307
øl	-308
arl	-309
▁Un	-310
▁th	-311
än	-312
ån	-313
▁with	-314
▁He	-315
ske	-316
pr	-317
▁5	-318
yn	-319
▁4	-320
▁også	-321
▁ser	-322
▁dansk	-323
▁his	-324
▁194	-325
▁prins	-326
br	-327
▁195	-328
▁gj	-329
▁kom	-330
ass	-331
ane	-332
gg	-333
▁vart	-334
del	-335
ve	-336
ande	-337
tr	-338
ets	-339
▁Sk	-340
ater	-341
ub	-342
▁Y	-343
ier	-344
▁wh	-345
▁januar	-346
øy	-347
arb	-348
▁Br	-349
sp	-350
▁le	-351
ta	-352
erg	-353
▁hun	-354
▁reg	-355
▁Sver	-356
▁sam	-357
avn	-358
▁he	-359
▁man	-360
th	-361
sta	-362
gr	-363
son	-364
▁ud	-365
▁første	-366
ation	-367
▁efter	-368
▁etter	-369
▁op	-370
ies	-371
▁2023	-372
▁;	-373
ive	-374
▁eit	-375
ald	-376
▁Ar	-377
amil	-378
▁sig	-379
▁8	-380
ock	-381
▁dei	-382
▁seg	-383
kke	-384
ip	-385
▁Hun	-386
▁kan	-387
▁sj	-388
▁her	-389
▁hv	-390
ele	-391
borg	-392
äl	-393
ich	-394
asjon	-395
ast	-396
ift	-397
▁Gr	-398
ser	-399
▁pro	-400
istor	-401
▁verd	-402
▁så	-403
▁kv	-404
ct	-405
vensk	-406
▁kj	-407
▁tre	-408
▁Christ	-409
ung	-410
▁6	-411
▁ä	-412
rig	-413
▁sid	-414
▁dag	-415
min	-416
▁TV	-417
ick	-418
orge	-419
▁hans	-420
▁kl	-421
of	-422
▁Joh	-423
▁193	-424
ind	-425
▁or	-426
ce	-427
▁9	-428
▁15	-429
na	-430
▁tal	-431
by	-432
▁hon	-433
▁17	-434
ysk	-435
rev	-436
gen	-437
ew	-438
rupp	-439
▁7	-440
ine	-441
▁te	-442
ål	-443
▁hav	-444
▁best	-445
▁El	-446
▁pl	-447
ka	-448
ister	-449
▁nord	-450
▁andre	-451
▁Sverige	-452
ns	-453
▁Le	-454
esse	-455
alt	-456
▁vid	-457
lem	-458
ans	-459
▁Re	-460
▁svensk	-461
▁su	-462
ster	-463
opp	-464
ack	-465
eld	-466
elt	-467
ond	-468
skap	-469
ler	-470
▁mot	-471
▁per	-472
▁upp	-473
sh	-474
ker	-475
ell	-476
jer	-477
ket	-478
olit	-479
▁mest	-480
io	-481
ale	-482
ina	-483
net	-484
▁pr	-485
▁Amer	-486
berg	-487
yd	-488
åd	-489
ronning	-490
ades	-491
lay	-492
man	-493
▁16	-494
var	-495
iet	-496
res	-497
ts	-498
▁sen	-499
▁kong	-500
ring	-501
▁ett	-502
▁bru	-503
akt	-504
▁ma	-505
ish	-506
▁konge	-507
ole	-508
▁10	-509
▁da	-510
alen	-511
leg	-512
▁14	-513
pril	-514
▁jul	-515
▁vær	-516
▁musik	-517
up	-518
▁Norge	-519
▁Prins	-520
lag	-521
▁ei	-522
▁art	-523
▁ind	-524
▁Nord	-525
▁hvor	-526
▁Å	-527
ång	-528
▁off	-529
anger	-530
arbe	-531
▁Freder	-532
▁Sch	-533
▁Christian	-534
änd	-535
uni	-536
▁dr	-537
øb	-538
ingen	-539
ou	-540
enh	-541
ah	-542
▁beg	-543
▁lag	-544
▁deb	-545
ikansk	-546
▁stor	-547
dag	-548
ike	-549
vis	-550
▁famil	-551
ath	-552
eter	-553
▁192	-554
ate	-555
atter	-556
▁tv	-557
▁juni	-558
▁spel	-559
aren	-560
hus	-561
jen	-562
gel	-563
▁bet	-564
▁Frederik	-565
▁ny	-566
▁It	-567
▁då	-568
▁Th	-569
▁Fil	-570
kl	-571
oun	-572
▁Bi	-573
sten	-574
▁ö	-575
ære	-576
▁Se	-577
ach	-578
ner	-579
▁Ø	-580
▁fyl	-581
men	-582
▁New	-583
▁13	-584
▁y	-585
▁Ol	-586
uesp	-587
▁lig	-588
af	-589
age	-590
une	-591
ugust	-592
ats	-593
els	-594
lige	-595
▁april	-596
rem	-597
▁Tr	-598
▁amer	-599
▁gift	-600
▁Ho	-601
ken	-602
▁tron	-603
▁polit	-604
för	-605
else	-606
iser	-607
prins	-608
▁stør	-609
▁Sp	-610
▁En	-611
▁US	-612
iska	-613
▁død	-614
espel	-615
råd	-616
stad	-617
▁amerikansk	-618
iss	-619
ise	-620
les	-621
uss	-622
ball	-623
ings	-624
ity	-625
our	-626
▁11	-627
iere	-628
▁Pr	-629
▁Kong	-630
▁ø	-631
000	-632
illion	-633
ild	-634
▁Eng	-635
▁2018	-636
au	-637
ga	-638
ikt	-639
▁medlem	-640
ib	-641
▁där	-642
iz	-643
▁søn	-644
kon	-645
▁Osl	-646
▁kron	-647
itet	-648
▁Hon	-649
▁Biog	-650
▁skuesp	-651
led	-652
▁Sh	-653
lege	-654
▁far	-655
iker	-656
orbr	-657
ue	-658
▁Ro	-659
▁sel	-660
▁2022	-661
▁nov	-662
▁2017	-663
ds	-664
eng	-665
▁ad	-666
ear	-667
▁des	-668
▁bland	-669
▁dronning	-670
▁Te	-671
▁band	-672
me	-673
▁191	-674
▁pop	-675
øg	-676
▁X	-677
før	-678
ika	-679
▁danske	-680
ix	-681
ollen	-682
▁2008	-683
▁Hans	-684
ja	-685
pl	-686
▁12	-687
▁km	-688
▁gre	-689
▁blir	-690
▁II	-691
▁For	-692
føl	-693
▁Z	-694
▁ho	-695
▁2020	-696
▁Oslo	-697
▁även	-698
▁talet	-699
ial	-700
met	-701
ott	-702
▁Ad	-703
▁Ma	-704
sson	-705
▁2007	-706
▁delt	-707
▁Hol	-708
▁2019	-709
ningen	-710
▁has	-711
▁son	-712
ire	-713
vik	-714
åde	-715
▁ikke	-716
▁play	-717
▁sitt	-718
edan	-719
▁juli	-720
ool	-721
▁2005	-722
minister	-723
▁sc	-724
▁2004	-725
ank	-726
▁lang	-727
hav	-728
▁Her	-729
▁2009	-730
▁2011	-731
▁siden	-732
▁okt	-733
orde	-734
ester	-735
▁Carl	-736
own	-737
ton	-738
▁2021	-739
▁Ed	-740
▁Ind	-741
▁histor	-742
ime	-743
▁2014	-744
des	-745
▁USA	-746
▁all	-747
elsen	-748
otball	-749
ide	-750
per	-751
▁end	-752
▁fle	-753
▁John	-754
▁fyr	-755
▁start	-756
▁ha	-757
▁fem	-758
ys	-759
▁kn	-760
▁And	-761
bo	-762
str	-763
▁Gl	-764
▁ar	-765
▁2012	-766
▁million	-767
▁Bl	-768
▁kr	-769
▁arbe	-770
med	-771
▁2010	-772
▁2006	-773
åt	-774
▁mon	-775
▁tit	-776
▁2015	-777
fl	-778
iste	-779
▁sør	-780
▁2013	-781
øm	-782
oreg	-783
▁2000	-784
▁2016	-785
▁På	-786
▁flere	-787
▁30	-788
▁000	-789
▁dec	-790
ongen	-791
▁Is	-792
eret	-793
▁190	-794
▁gen	-795
▁engel	-796
so	-797
ama	-798
▁År	-799
▁tidlig	-800
vent	-801
▁which	-802
nia	-803
ral	-804
try	-805
ätt	-806
▁24	-807
▁sol	-808
▁series	-809
▁største	-810
åg	-811
▁bas	-812
øbenh	-813
▁stad	-814
ådespel	-815
øbenhavn	-816
amp	-817
fatt	-818
▁Som	-819
tet	-820
▁liv	-821
▁it	-822
tter	-823
▁led	-824
▁1990	-825
▁både	-826
yskland	-827
ff	-828
era	-829
▁mange	-830
va	-831
ice	-832
▁Ja	-833
ment	-834
ile	-835
▁Sl	-836
▁Noreg	-837
▁store	-838
▁København	-839
rt	-840
igt	-841
▁första	-842
ame	-843
kkje	-844
▁Krist	-845
ork	-846
▁that	-847
▁con	-848
▁senere	-849
fess	-850
▁she	-851
▁navn	-852
▁rele	-853
▁sine	-854
▁debut	-855
▁august	-856
ange	-857
▁part	-858
▁act	-859
▁blei	-860
aget	-861
verk	-862
sc	-863
este	-864
▁1980	-865
▁skådespel	-866
▁So	-867
bygg	-868
ette	-869
ørn	-870
▁mil	-871
▁Ha	-872
▁one	-873
▁also	-874
▁kronprins	-875
▁Am	-876
hold	-877
▁com	-878
olf	-879
▁21	-880
▁Bo	-881
sam	-882
▁She	-883
▁havde	-884
nes	-885
▁Mon	-886
▁kung	-887
▁Ing	-888
▁Tyskland	-889
err	-890
ilt	-891
▁are	-892
▁bruk	-893
liga	-894
olog	-895
▁Mus	-896
▁who	-897
ull	-898
▁VM	-899
▁int	-900
▁vok	-901
▁2024	-902
▁fødd	-903
▁grupp	-904
▁releas	-905
▁serien	-906
ite	-907
istr	-908
▁utg	-909
▁Under	-910
▁tidligere	-911
råk	-912
ey	-913
ll	-914
iär	-915
vær	-916
bl	-917
▁0	-918
ash	-919
ret	-920
▁hal	-921
▁skrev	-922
inga	-923
▁2002	-924
▁Film	-925
ley	-926
ska	-927
ølv	-928
▁Alb	-929
▁2001	-930
ri	-931
ake	-932
stru	-933
anske	-934
▁song	-935
▁Histor	-936
mp	-937
over	-938
▁hert	-939
▁ikkje	-940
▁25	-941
▁fo	-942
▁få	-943
▁kun	-944
lud	-945
▁22	-946
▁popul	-947
ary	-948
ubl	-949
▁sh	-950
ical	-951
rike	-952
▁1995	-953
▁1999	-954
▁Erik	-955
▁reger	-956
▁Ny	-957
▁Ph	-958
az	-959
äst	-960
▁Sc	-961
▁me	-962
▁min	-963
▁Fred	-964
gt	-965
elige	-966
▁1997	-967
ain	-968
ete	-969
erte	-970
▁fik	-971
jord	-972
uter	-973
▁Wal	-974
areer	-975
▁Will	-976
▁brit	-977
▁fikk	-978
ipp	-979
▁Mo	-980
▁Or	-981
arar	-982
▁rev	-983
▁vär	-984
▁prinsesse	-985
cer	-986
ife	-987
▁sm	-988
▁bör	-989
▁eks	-990
▁rol	-991
▁Aust	-992
▁hand	-993
▁landet	-994
▁æ	-995
jem	-996
arly	-997
iden	-998
▁Hen	-999
▁1998	-1000
▁Har	-1001
ensen	-1002
▁1982	-1003
▁slut	-1004
▁fylke	-1005
rn	-1006
▁ber	-1007
äs	-1008
▁26	-1009
ondon	-1010
▁tysk	-1011
▁vært	-1012
▁London	-1013
æl	-1014
òg	-1015
▁Pa	-1016
▁òg	-1017
aret	-1018
▁Jul	-1019
nings	-1020
orges	-1021
▁vest	-1022
▁Charl	-1023
▁Efter	-1024
gd	-1025
▁ch	-1026
iver	-1027
▁Med	-1028
▁verdens	-1029
agn	-1030
ård	-1031
▁sy	-1032
ligt	-1033
▁fick	-1034
jø	-1035
ola	-1036
▁tok	-1037
▁kjent	-1038
▁sedan	-1039
ha	-1040
eks	-1041
rid	-1042
yrk	-1043
▁Co	-1044
rott	-1045
▁ans	-1046
▁1996	-1047
▁selv	-1048
qu	-1049
▁31	-1050
▁skal	-1051
▁gjorde	-1052
lar	-1053
▁2003	-1054
▁fö	-1055
▁län	-1056
▁1970	-1057
▁1994	-1058
▁vert	-1059
▁över	-1060
▁grens	-1061
▁profess	-1062
▁23	-1063
▁ned	-1064
ition	-1065
▁börj	-1066
▁musikk	-1067
▁Em	-1068
▁ofte	-1069
▁dette	-1070
ari	-1071
off	-1072
▁no	-1073
▁nok	-1074
▁yng	-1075
▁1991	-1076
uk	-1077
äng	-1078
▁värld	-1079
het	-1080
▁ac	-1081
▁eg	-1082
▁Fol	-1083
▁bes	-1084
▁tek	-1085
▁1973	-1086
▁Norges	-1087
äx	-1088
alm	-1089
▁As	-1090
▁Land	-1091
▁Mich	-1092
▁kort	-1093
▁Andre	-1094
▁known	-1095
▁januari	-1096
aw	-1097
ynd	-1098
▁nu	-1099
▁mor	-1100
▁Margr	-1101
kte	-1102
øde	-1103
▁VI	-1104
▁co	-1105
▁maj	-1106
▁vis	-1107
endes	-1108
ida	-1109
let	-1110
ree	-1111
▁el	-1112
▁Lou	-1113
▁app	-1114
▁Vest	-1115
▁coun	-1116
▁blant	-1117
öm	-1118
▁28	-1119
▁hø	-1120
▁ord	-1121
ev	-1122
ider	-1123
inde	-1124
▁skådespelare	-1125
ob	-1126
iar	-1127
▁Ser	-1128
▁have	-1129
▁prem	-1130
▁rece	-1131
▁career	-1132
øre	-1133
ager	-1134
▁Osc	-1135
▁York	-1136
▁tred	-1137
fatter	-1138
len	-1139
▁Dr	-1140
▁gam	-1141
endt	-1142
lands	-1143
RK	-1144
▁Ö	-1145
lin	-1146
▁Bj	-1147
elig	-1148
irke	-1149
▁aust	-1150
▁Frank	-1151
▁monark	-1152
äv	-1153
▁ol	-1154
▁Der	-1155
▁bok	-1156
▁1972	-1157
reg	-1158
▁1993	-1159
▁ul	-1160
atte	-1161
oman	-1162
▁NRK	-1163
▁Sør	-1164
▁Wik	-1165
luding	-1166
ma	-1167
ced	-1168
til	-1169
ubb	-1170
▁fe	-1171
ilde	-1172
undt	-1173
▁Gold	-1174
▁Marie	-1175
▁Fl	-1176
▁du	-1177
ived	-1178
▁100	-1179
▁Bak	-1180
▁Dei	-1181
▁hel	-1182
ident	-1183
▁1992	-1184
▁trad	-1185
vel	-1186
▁29	-1187
▁Me	-1188
▁sø	-1189
inal	-1190
▁1989	-1191
▁Januar	-1192
sm	-1193
ekk	-1194
tal	-1195
uld	-1196
ates	-1197
▁Col	-1198
▁inv	-1199
▁sit	-1200
▁van	-1201
essan	-1202
▁tele	-1203
▁time	-1204
eb	-1205
▁øy	-1206
agen	-1207
▁gje	-1208
▁after	-1209
ön	-1210
ure	-1211
▁Val	-1212
ering	-1213
rådet	-1214
▁været	-1215
▁tredje	-1216
iga	-1217
its	-1218
ium	-1219
oss	-1220
ions	-1221
▁utan	-1222
uf	-1223
øp	-1224
rog	-1225
▁tills	-1226
▁released	-1227
red	-1228
▁Da	-1229
▁må	-1230
alien	-1231
▁Johan	-1232
▁rollen	-1233
▁received	-1234
ym	-1235
▁sn	-1236
▁Pro	-1237
▁Brit	-1238
▁ligg	-1239
▁teater	-1240
da	-1241
dal	-1242
gan	-1243
uth	-1244
▁gu	-1245
iges	-1246
▁Bro	-1247
▁mål	-1248
ninger	-1249
▁Etter	-1250
▁beste	-1251
▁sanger	-1252
nt	-1253
gte	-1254
eren	-1255
▁går	-1256
▁när	-1257
▁sang	-1258
▁fleire	-1259
▁engelsk	-1260
oc	-1261
rit	-1262
grupp	-1263
▁mens	-1264
▁Dette	-1265
▁saman	-1266
▁England	-1267
tes	-1268
års	-1269
▁Don	-1270
▁sær	-1271
ander	-1272
nien	-1273
▁ses	-1274
▁krig	-1275
▁datter	-1276
▁January	-1277
ala	-1278
ship	-1279
▁Phil	-1280
▁drama	-1281
▁først	-1282
▁their	-1283
be	-1284
▁Sv	-1285
▁ra	-1286
▁ro	-1287
olen	-1288
ress	-1289
▁Kon	-1290
▁Man	-1291
▁två	-1292
▁års	-1293
▁1960	-1294
▁artik	-1295
kn	-1296
dom	-1297
▁27	-1298
▁ty	-1299
ldre	-1300
oria	-1301
▁Con	-1302
▁Ein	-1303
▁Hel	-1304
skrig	-1305
▁kendt	-1306
▁Sveriges	-1307
ena	-1308
irk	-1309
ned	-1310
▁my	-1311
▁hus	-1312
▁1987	-1313
▁kont	-1314
▁life	-1315
▁same	-1316
samling	-1317
▁verden	-1318
ara	-1319
vig	-1320
▁omk	-1321
enter	-1322
▁mark	-1323
alender	-1324
vid	-1325
▁Kr	-1326
▁åt	-1327
▁mer	-1328
▁ock	-1329
▁1981	-1330
▁1984	-1331
▁King	-1332
▁gang	-1333
▁känd	-1334
▁være	-1335
▁Teater	-1336
▁At	-1337
▁Gö	-1338
lagt	-1339
ovud	-1340
▁His	-1341
ather	-1342
etter	-1343
▁were	-1344
▁begyn	-1345
▁ligger	-1346
▁Dec	-1347
▁May	-1348
▁fekk	-1349
▁genom	-1350
mus	-1351
▁Kn	-1352
▁eld	-1353
▁Karl	-1354
▁Danmarks	-1355
uc	-1356
én	-1357
sel	-1358
usk	-1359
unen	-1360
▁nær	-1361
▁ret	-1362
ative	-1363
▁1964	-1364
▁mind	-1365
▁Adolf	-1366
▁Dronning	-1367
ry	-1368
ave	-1369
iam	-1370
ius	-1371
one	-1372
band	-1373
▁189	-1374
▁Marg	-1375
ningar	-1376
ael	-1377
▁My	-1378
gang	-1379
▁Fra	-1380
▁Sam	-1381
▁Ac	-1382
▁Fo	-1383
▁bi	-1384
▁Wil	-1385
▁rik	-1386
▁Eliz	-1387
▁Oscar	-1388
▁rundt	-1389
▁hertug	-1390
sv	-1391
▁Ir	-1392
▁res	-1393
havet	-1394
▁1985	-1395
▁halv	-1396
▁sidan	-1397
▁debuter	-1398
▁Prinsesse	-1399
ph	-1400
kap	-1401
▁Po	-1402
unkt	-1403
▁1977	-1404
▁bror	-1405
▁vant	-1406
use	-1407
▁Fa	-1408
▁bak	-1409
erade	-1410
ingar	-1411
jonen	-1412
landet	-1413
▁Peter	-1414
▁också	-1415
▁Pe	-1416
▁Sal	-1417
▁sent	-1418
▁året	-1419
▁fyrste	-1420
als	-1421
▁1968	-1422
▁1986	-1423
▁vikt	-1424
▁britiske	-1425
den	-1426
▁By	-1427
▁but	-1428
▁føl	-1429
▁1947	-1430
▁1979	-1431
ations	-1432
skapet	-1433
▁organ	-1434
▁Michael	-1435
▁medverk	-1436
öp	-1437
ica	-1438
ome	-1439
▁50	-1440
▁Cl	-1441
ført	-1442
▁Tid	-1443
▁ele	-1444
▁tog	-1445
inger	-1446
▁event	-1447
▁Ingrid	-1448
ny	-1449
sj	-1450
rum	-1451
▁Ab	-1452
▁Er	-1453
▁OL	-1454
▁ly	-1455
igur	-1456
arane	-1457
▁1976	-1458
▁Russ	-1459
▁hver	-1460
▁music	-1461
▁artist	-1462
▁tronen	-1463
▁country	-1464
ali	-1465
app	-1466
rep	-1467
udd	-1468
ames	-1469
ktiv	-1470
part	-1471
▁bed	-1472
▁sch	-1473
▁1967	-1474
▁1975	-1475
▁1988	-1476
▁inte	-1477
erc	-1478
▁Ne	-1479
▁ab	-1480
▁id	-1481
ader	-1482
iken	-1483
▁arb	-1484
ikken	-1485
▁Pres	-1486
▁serie	-1487
▁three	-1488
lø	-1489
fer	-1490
vard	-1491
▁Opp	-1492
▁Par	-1493
▁mai	-1494
▁udg	-1495
▁Band	-1496
▁Year	-1497
▁Early	-1498
▁ulike	-1499
▁Filmen	-1500
▁senare	-1501
▁Fredrik	-1502
▁football	-1503
ec	-1504
ti	-1505
▁sv	-1506
▁ti	-1507
iana	-1508
▁mån	-1509
▁vin	-1510
▁blitt	-1511
▁appear	-1512
▁Historie	-1513
we	-1514
far	-1515
▁di	-1516
skab	-1517
▁gav	-1518
▁låt	-1519
▁1945	-1520
▁deres	-1521
▁slott	-1522
▁består	-1523
ren	-1524
set	-1525
ult	-1526
▁Om	-1527
aden	-1528
ästa	-1529
▁par	-1530
▁Øst	-1531
▁flera	-1532
ministr	-1533
▁August	-1534
▁Golden	-1535
ederland	-1536
asse	-1537
omas	-1538
▁Gre	-1539
▁Liv	-1540
▁ham	-1541
▁hos	-1542
▁its	-1543
▁British	-1544
▁började	-1545
▁spelade	-1546
▁Kristian	-1547
ahl	-1548
ese	-1549
hed	-1550
▁Ak	-1551
▁Eg	-1552
▁No	-1553
▁Ut	-1554
ktør	-1555
rett	-1556
▁Ole	-1557
▁red	-1558
▁Hand	-1559
▁Jose	-1560
▁vore	-1561
▁kjend	-1562
▁Austral	-1563
▁Margaret	-1564
äd	-1565
akk	-1566
▁Ly	-1567
▁Bow	-1568
▁You	-1569
▁syn	-1570
▁tro	-1571
skole	-1572
▁Bill	-1573
▁gull	-1574
▁show	-1575
▁After	-1576
▁School	-1577
▁arbeid	-1578
ney	-1579
ous	-1580
ove	-1581
▁up	-1582
andt	-1583
slag	-1584
▁nye	-1585
▁rek	-1586
konom	-1587
ktion	-1588
▁jord	-1589
▁seks	-1590
▁språk	-1591
▁Harald	-1592
rottning	-1593
▁Frankrike	-1594
ho	-1595
ånd	-1596
▁La	-1597
▁fj	-1598
▁hj	-1599
▁186	-1600
itter	-1601
▁1969	-1602
▁Lund	-1603
▁role	-1604
▁hovud	-1605
▁ingen	-1606
▁församling	-1607
ått	-1608
gård	-1609
orth	-1610
▁Ang	-1611
▁1971	-1612
▁Kron	-1613
▁Hø	-1614
amat	-1615
vest	-1616
▁187	-1617
▁Jon	-1618
▁roles	-1619
▁navnet	-1620
▁omkring	-1621
par	-1622
sje	-1623
▁188	-1624
▁Cla	-1625
▁För	-1626
▁Jan	-1627
▁Per	-1628
▁säs	-1629
▁före	-1630
▁sett	-1631
▁klass	-1632
▁plass	-1633
▁siste	-1634
▁Albert	-1635
▁Charles	-1636
sy	-1637
ög	-1638
hef	-1639
kel	-1640
ons	-1641
ori	-1642
ule	-1643
älv	-1644
chen	-1645
året	-1646
▁fly	-1647
▁små	-1648
▁1974	-1649
▁1983	-1650
▁Louise	-1651
▁millioner	-1652
ty	-1653
urr	-1654
▁Ni	-1655
erer	-1656
▁bli	-1657
▁gif	-1658
▁str	-1659
▁Mary	-1660
▁gikk	-1661
▁mindre	-1662
▁nasjon	-1663
▁regjer	-1664
ej	-1665
ux	-1666
kst	-1667
nas	-1668
ved	-1669
äll	-1670
▁la	-1671
atin	-1672
olan	-1673
ueen	-1674
ament	-1675
board	-1676
▁Olav	-1677
▁gång	-1678
ac	-1679
yg	-1680
mar	-1681
▁Sj	-1682
lymp	-1683
publ	-1684
▁Ann	-1685
▁1946	-1686
▁Mart	-1687
▁four	-1688
▁medv	-1689
▁kalender	-1690
rg	-1691
ldr	-1692
▁Pl	-1693
▁si	-1694
▁so	-1695
ielt	-1696
iens	-1697
ilte	-1698
uden	-1699
▁VII	-1700
▁kat	-1701
assen	-1702
isten	-1703
▁tidl	-1704
rollen	-1705
syn	-1706
elen	-1707
lish	-1708
▁Før	-1709
▁Mad	-1710
▁Rad	-1711
▁hum	-1712
▁Anne	-1713
▁Folk	-1714
▁Jack	-1715
▁offic	-1716
▁sjølv	-1717
▁yngre	-1718
▁svenska	-1719
kj	-1720
ada	-1721
oven	-1722
slut	-1723
usin	-1724
▁Can	-1725
▁Mel	-1726
▁Ved	-1727
▁sty	-1728
huset	-1729
▁1963	-1730
▁1978	-1731
▁styr	-1732
▁Olsen	-1733
▁meter	-1734
▁father	-1735
BC	-1736
æv	-1737
lov	-1738
sak	-1739
ænd	-1740
▁Ul	-1741
▁bo	-1742
▁ca	-1743
råde	-1744
ånga	-1745
▁Car	-1746
▁Nil	-1747
▁Sol	-1748
▁met	-1749
▁rel	-1750
▁øst	-1751
▁been	-1752
▁stör	-1753
▁berre	-1754
▁kunst	-1755
▁milit	-1756
▁tiden	-1757
ekt	-1758
ris	-1759
æng	-1760
▁ta	-1761
spel	-1762
▁Fin	-1763
▁Upp	-1764
fjord	-1765
▁Music	-1766
▁brukt	-1767
▁gamle	-1768
▁utvik	-1769
▁Thomas	-1770
ino	-1771
int	-1772
▁40	-1773
▁Vi	-1774
ække	-1775
▁anv	-1776
▁ten	-1777
ksjon	-1778
ldste	-1779
▁sønn	-1780
entlig	-1781
▁Bakgr	-1782
▁Wales	-1783
▁Henrik	-1784
▁played	-1785
öt	-1786
▁!	-1787
▁Go	-1788
▁Od	-1789
▁ed	-1790
▁lå	-1791
▁po	-1792
back	-1793
▁høg	-1794
inare	-1795
sborg	-1796
ående	-1797
▁1950	-1798
▁Part	-1799
▁West	-1800
▁døde	-1801
▁tilh	-1802
▁arbet	-1803
▁medan	-1804
▁begynd	-1805
▁William	-1806
ays	-1807
her	-1808
▁Mc	-1809
lekt	-1810
rest	-1811
stid	-1812
▁Son	-1813
▁held	-1814
▁själv	-1815
▁skrevet	-1816
gj	-1817
tid	-1818
▁Et	-1819
▁Kl	-1820
▁Sm	-1821
▁någ	-1822
▁väx	-1823
elser	-1824
gende	-1825
▁Magn	-1826
▁back	-1827
▁made	-1828
▁eneste	-1829
▁instru	-1830
▁English	-1831
my	-1832
ata	-1833
bru	-1834
ual	-1835
ury	-1836
▁Ri	-1837
▁Wh	-1838
▁Nov	-1839
▁byr	-1840
▁får	-1841
atten	-1842
▁Cali	-1843
teborg	-1844
▁bandet	-1845
▁administr	-1846
bj	-1847
pe	-1848
ase	-1849
▁We	-1850
▁ky	-1851
▁us	-1852
bund	-1853
▁pla	-1854
▁1952	-1855
▁britt	-1856
▁konst	-1857
▁stort	-1858
▁Nederland	-1859
eh	-1860
aft	-1861
amn	-1862
bro	-1863
tar	-1864
▁Gu	-1865
▁Reg	-1866
ionen	-1867
ström	-1868
▁Malm	-1869
▁Grupp	-1870
▁bästa	-1871
▁delen	-1872
▁årene	-1873
▁familie	-1874
▁musiker	-1875
FL	-1876
ati	-1877
bak	-1878
▁ge	-1879
gjen	-1880
▁Sil	-1881
▁sju	-1882
▁Park	-1883
▁later	-1884
▁family	-1885
▁drottning	-1886
sø	-1887
ora	-1888
rel	-1889
▁Op	-1890
▁gl	-1891
enst	-1892
▁Tel	-1893
▁1940	-1894
▁1962	-1895
▁Wien	-1896
▁besk	-1897
▁rett	-1898
▁ungd	-1899
▁Philip	-1900
▁hendes	-1901
▁regiss	-1902
▁school	-1903
öl	-1904
alk	-1905
nad	-1906
val	-1907
▁To	-1908
▁vi	-1909
arts	-1910
ivet	-1911
▁Bru	-1912
▁Dag	-1913
▁Dis	-1914
▁Vid	-1915
▁kol	-1916
▁mag	-1917
▁tru	-1918
famil	-1919
følge	-1920
▁Paul	-1921
▁Tron	-1922
▁gong	-1923
▁sina	-1924
▁slik	-1925
staden	-1926
▁North	-1927
▁olika	-1928
▁rekke	-1929
▁Serien	-1930
▁Presley	-1931
▁italien	-1932
▁Göteborg	-1933
wn	-1934
ost	-1935
▁Je	-1936
blad	-1937
hand	-1938
iket	-1939
▁Ski	-1940
▁rom	-1941
dagen	-1942
erede	-1943
▁1936	-1944
▁Rock	-1945
▁børn	-1946
▁kjem	-1947
▁revy	-1948
▁roll	-1949
▁topp	-1950
▁Maria	-1951
byggere	-1952
out	-1953
rop	-1954
tog	-1955
yal	-1956
abet	-1957
aven	-1958
svar	-1959
unde	-1960
▁184	-1961
▁Ver	-1962
▁pol	-1963
▁Lind	-1964
▁ofta	-1965
▁sång	-1966
▁dagen	-1967
▁gjekk	-1968
▁gjort	-1969
▁Magnus	-1970
▁opphav	-1971
rd	-1972
ied	-1973
igg	-1974
ogn	-1975
▁am	-1976
delt	-1977
irig	-1978
▁him	-1979
▁lok	-1980
▁når	-1981
▁tol	-1982
ologi	-1983
sberg	-1984
▁bygg	-1985
▁kvar	-1986
▁aktiv	-1987
▁betyd	-1988
▁tidig	-1989
▁prinsessan	-1990
äg	-1991
øt	-1992
ios	-1993
lund	-1994
▁181	-1995
▁ang	-1996
▁bil	-1997
▁lær	-1998
▁rec	-1999
▁val	-2000
▁arve	-2001
▁inkl	-2002
▁like	-2003
▁scen	-2004
lingen	-2005
▁inter	-2006
▁tyske	-2007
▁växte	-2008
▁while	-2009
▁spilte	-2010
▁On	-2011
akon	-2012
kker	-2013
rgen	-2014
▁Bod	-2015
▁Oct	-2016
▁San	-2017
▁Van	-2018
▁len	-2019
▁ski	-2020
essen	-2021
▁nett	-2022
ledare	-2023
▁Angel	-2024
fe	-2025
iew	-2026
lev	-2027
aler	-2028
▁Nik	-2029
▁Sof	-2030
▁alt	-2031
▁dom	-2032
▁eng	-2033
ansen	-2034
isjon	-2035
▁1955	-2036
▁Play	-2037
▁Tour	-2038
▁solo	-2039
mester	-2040
▁Joach	-2041
fattare	-2042
sa	-2043
det	-2044
som	-2045
▁Ag	-2046
▁Bu	-2047
▁bø	-2048
▁fa	-2049
gång	-2050
rael	-2051
reak	-2052
▁Bon	-2053
▁avs	-2054
▁udd	-2055
▁Hall	-2056
▁comp	-2057
▁står	-2058
▁sølv	-2059
▁James	-2060
▁många	-2061
▁verda	-2062
odespel	-2063
▁Haakon	-2064
bok	-2065
itz	-2066
ory	-2067
▁36	-2068
▁ep	-2069
ents	-2070
iten	-2071
spir	-2072
tain	-2073
▁Bir	-2074
▁Kar	-2075
▁Syd	-2076
▁Tom	-2077
▁Ung	-2078
▁top	-2079
▁und	-2080
alder	-2081
ymnas	-2082
refter	-2083
▁Paris	-2084
▁roman	-2085
▁blandt	-2086
▁Football	-2087
▁regering	-2088
ana	-2089
kom	-2090
way	-2091
▁Øy	-2092
tede	-2093
▁Sve	-2094
▁kar	-2095
▁kil	-2096
▁lik	-2097
indel	-2098
▁1957	-2099
▁Bowl	-2100
▁Love	-2101
▁publ	-2102
▁voks	-2103
▁Trond	-2104
▁Joseph	-2105
▁viktig	-2106
cc	-2107
høg	-2108
urt	-2109
väx	-2110
▁Du	-2111
▁Kv	-2112
lade	-2113
sert	-2114
▁Fød	-2115
▁Jac	-2116
▁Men	-2117
▁byg	-2118
▁eig	-2119
▁præ	-2120
▁utd	-2121
ligen	-2122
▁1953	-2123
▁crit	-2124
▁egen	-2125
▁inom	-2126
▁into	-2127
▁russ	-2128
▁Famil	-2129
▁offis	-2130
▁verds	-2131
▁Martin	-2132
▁eldste	-2133
▁seinare	-2134
▁politiker	-2135
yld	-2136
▁Sa	-2137
sent	-2138
æren	-2139
▁Mal	-2140
▁Sel	-2141
▁slä	-2142
▁vel	-2143
▁City	-2144
▁team	-2145
▁when	-2146
▁rolle	-2147
▁række	-2148
▁Hendes	-2149
▁action	-2150
▁tilhør	-2151
▁Finland	-2152
▁actress	-2153
▁komiker	-2154
▁familien	-2155
▁politisk	-2156
▁sesongen	-2157
▁Billboard	-2158
ato	-2159
ber	-2160
erm	-2161
ird	-2162
kes	-2163
ted	-2164
▁Di	-2165
▁Do	-2166
▁Ke	-2167
▁Kim	-2168
▁døm	-2169
▁luf	-2170
avnet	-2171
gaard	-2172
plass	-2173
ubben	-2174
▁cons	-2175
▁hopp	-2176
▁lead	-2177
▁spes	-2178
illing	-2179
▁based	-2180
▁dermed	-2181
▁Joachim	-2182
▁premiär	-2183
▁debuterte	-2184
ft	-2185
ira	-2186
örn	-2187
▁im	-2188
ikar	-2189
uset	-2190
▁Jør	-2191
▁Mag	-2192
▁bec	-2193
ained	-2194
leder	-2195
▁Coun	-2196
▁Ital	-2197
▁Miss	-2198
▁Slot	-2199
▁lång	-2200
▁skil	-2201
▁such	-2202
venske	-2203
▁låtsk	-2204
ärefter	-2205
▁britisk	-2206
ju	-2207
▁z	-2208
deb	-2209
isa	-2210
ros	-2211
vet	-2212
äck	-2213
▁Ex	-2214
▁Hå	-2215
▁än	-2216
amen	-2217
roll	-2218
tade	-2219
▁Cup	-2220
▁Fel	-2221
▁hem	-2222
▁pos	-2223
▁sal	-2224
▁six	-2225
▁täv	-2226
▁ung	-2227
▁via	-2228
førte	-2229
▁1939	-2230
▁fyra	-2231
▁star	-2232
▁kring	-2233
▁varit	-2234
▁Andrew	-2235
▁använd	-2236
▁blevet	-2237
▁samarbe	-2238
▁tidigare	-2239
▁Kronprins	-2240
▁amerikanske	-2241
ony	-2242
rar	-2243
upp	-2244
▁do	-2245
▁mi	-2246
inst	-2247
▁180	-2248
▁Atl	-2249
▁III	-2250
▁Mor	-2251
▁Ron	-2252
▁abd	-2253
▁von	-2254
aland	-2255
eland	-2256
▁1965	-2257
▁Sand	-2258
▁hele	-2259
▁mand	-2260
▁Grand	-2261
▁India	-2262
▁andet	-2263
▁manus	-2264
▁sever	-2265
▁äldre	-2266
▁gruppen	-2267
▁svenske	-2268
han	-2269
jet	-2270
▁Id	-2271
▁nr	-2272
▁nå	-2273
▁pe	-2274
gren	-2275
uder	-2276
▁Aar	-2277
▁Rom	-2278
▁bos	-2279
▁mak	-2280
▁1900	-2281
▁1934	-2282
▁1956	-2283
▁Knud	-2284
▁grev	-2285
senter	-2286
▁Mette	-2287
▁along	-2288
▁Edvard	-2289
▁musikal	-2290
▁Kongelige	-2291
ai	-2292
föl	-2293
vin	-2294
amer	-2295
idig	-2296
ised	-2297
kket	-2298
sker	-2299
vist	-2300
▁age	-2301
▁1961	-2302
▁Grøn	-2303
▁igen	-2304
▁inst	-2305
▁skap	-2306
ington	-2307
▁April	-2308
▁Elvis	-2309
▁child	-2310
▁gifte	-2311
▁langr	-2312
▁Årets	-2313
▁Landet	-2314
▁Russland	-2315
▁skodespel	-2316
æt	-2317
oen	-2318
▁Lo	-2319
▁gå	-2320
▁ål	-2321
ures	-2322
▁Hot	-2323
▁Inn	-2324
▁Los	-2325
▁Mär	-2326
▁Tor	-2327
▁kap	-2328
▁meg	-2329
▁old	-2330
ction	-2331
▁1966	-2332
▁fått	-2333
▁grad	-2334
▁hjem	-2335
▁meir	-2336
▁nest	-2337
▁well	-2338
▁South	-2339
▁titel	-2340
▁hertig	-2341
▁økonom	-2342
▁College	-2343
▁several	-2344
▁tildelt	-2345
▁medverkade	-2346
▁?	-2347
ose	-2348
tak	-2349
▁60	-2350
▁ve	-2351
aste	-2352
aten	-2353
reet	-2354
▁185	-2355
▁Far	-2356
▁Nor	-2357
▁bod	-2358
▁gik	-2359
▁opt	-2360
▁syd	-2361
anser	-2362
anska	-2363
anter	-2364
organ	-2365
ument	-2366
▁June	-2367
▁Leon	-2368
▁Mark	-2369
▁Väst	-2370
▁hust	-2371
▁mere	-2372
▁early	-2373
▁leder	-2374
▁stora	-2375
▁augusti	-2376
▁grenser	-2377
▁området	-2378
VI	-2379
ee	-2380
ady	-2381
vok	-2382
yrd	-2383
▁70	-2384
▁Ry	-2385
asil	-2386
bror	-2387
▁NFL	-2388
▁Net	-2389
▁rad	-2390
prung	-2391
▁1948	-2392
▁1954	-2393
▁Song	-2394
▁hold	-2395
▁more	-2396
▁åter	-2397
asjons	-2398
▁Bjørn	-2399
▁Siden	-2400
▁areal	-2401
▁elekt	-2402
▁livet	-2403
▁numer	-2404
▁fotball	-2405
▁landets	-2406
▁popular	-2407
▁Handling	-2408
sd	-2409
ped	-2410
uel	-2411
van	-2412
▁ur	-2413
▁én	-2414
essa	-2415
kene	-2416
oung	-2417
quar	-2418
vært	-2419
åtte	-2420
▁Ras	-2421
▁Sen	-2422
▁cre	-2423
orden	-2424
▁Jens	-2425
▁Prem	-2426
▁bron	-2427
▁dock	-2428
▁guld	-2429
▁hund	-2430
▁plan	-2431
▁terr	-2432
▁vera	-2433
▁Märth	-2434
▁flert	-2435
▁meste	-2436
erefter	-2437
varande	-2438
▁yngste	-2439
▁ældste	-2440
lg	-2441
væ	-2442
går	-2443
kar	-2444
ont	-2445
pel	-2446
ude	-2447
øyd	-2448
▁Då	-2449
ient	-2450
orte	-2451
växt	-2452
▁Gud	-2453
▁Mid	-2454
▁Nam	-2455
▁bel	-2456
▁1958	-2457
▁July	-2458
▁kald	-2459
▁side	-2460
▁staf	-2461
▁uten	-2462
▁latin	-2463
gruppen	-2464
▁Nikola	-2465
▁deltok	-2466
▁inspir	-2467
aks	-2468
get	-2469
gje	-2470
ima	-2471
kra	-2472
mål	-2473
nen	-2474
rol	-2475
æst	-2476
▁Ra	-2477
aust	-2478
azel	-2479
▁Fyl	-2480
▁Mil	-2481
▁Nap	-2482
▁ben	-2483
▁lar	-2484
▁new	-2485
▁set	-2486
▁spr	-2487
andin	-2488
isert	-2489
▁bass	-2490
▁kamp	-2491
▁parl	-2492
spunkt	-2493
▁delar	-2494
▁igjen	-2495
▁relig	-2496
▁slekt	-2497
▁tekst	-2498
usiness	-2499
▁Island	-2500
▁dramat	-2501
▁hustru	-2502
▁medvir	-2503
▁desuden	-2504
▁största	-2505
▁begyndte	-2506
▁populære	-2507
▁kalenderen	-2508
oh	-2509
bol	-2510
lor	-2511
vek	-2512
arth	-2513
chie	-2514
cket	-2515
inen	-2516
kten	-2517
leis	-2518
rlin	-2519
▁Fær	-2520
▁Hal	-2521
▁Min	-2522
▁War	-2523
▁dis	-2524
▁föl	-2525
▁out	-2526
satte	-2527
ynyrd	-2528
▁1959	-2529
▁Anna	-2530
▁borg	-2531
▁dans	-2532
▁five	-2533
▁gick	-2534
▁oper	-2535
▁spec	-2536
▁Carol	-2537
▁Melod	-2538
▁årets	-2539
fjorden	-2540
▁Disney	-2541
▁Israel	-2542
▁Svensk	-2543
asjonale	-2544
▁grensar	-2545
▁stafett	-2546
ls	-2547
su	-2548
ags	-2549
jar	-2550
liv	-2551
sar	-2552
ært	-2553
øya	-2554
▁80	-2555
▁Gj	-2556
▁Ka	-2557
feld	-2558
ksam	-2559
kurr	-2560
åren	-2561
▁Day	-2562
▁Lin	-2563
▁Til	-2564
▁fys	-2565
inget	-2566
joner	-2567
ønder	-2568
▁1944	-2569
▁Sund	-2570
▁dist	-2571
▁hatt	-2572
▁infl	-2573
▁kyrk	-2574
▁oppr	-2575
▁than	-2576
▁tilb	-2577
▁ægte	-2578
fattar	-2579
▁Malmö	-2580
▁kvart	-2581
▁laget	-2582
▁rekna	-2583
▁title	-2584
▁vandt	-2585
azelina	-2586
▁Indian	-2587
▁Angeles	-2588
▁release	-2589
▁inkluder	-2590
gå	-2591
ée	-2592
kan	-2593
kje	-2594
▁Sn	-2595
▁ag	-2596
▁cr	-2597
avær	-2598
erad	-2599
heng	-2600
jøen	-2601
play	-2602
side	-2603
styr	-2604
▁182	-2605
▁Bil	-2606
▁arv	-2607
▁lev	-2608
▁tar	-2609
▁øya	-2610
anden	-2611
figur	-2612
▁1943	-2613
▁Hert	-2614
▁krit	-2615
▁leng	-2616
▁noko	-2617
▁prov	-2618
itetet	-2619
slaget	-2620
▁Diana	-2621
▁detta	-2622
▁dømes	-2623
asjonen	-2624
▁Aarhus	-2625
▁vinter	-2626
▁begynte	-2627
lt	-2628
læ	-2629
ät	-2630
øs	-2631
agt	-2632
hal	-2633
hen	-2634
ign	-2635
izz	-2636
las	-2637
pen	-2638
ray	-2639
▁Af	-2640
▁ne	-2641
▁sa	-2642
aker	-2643
ense	-2644
etta	-2645
iell	-2646
ired	-2647
iskt	-2648
▁500	-2649
▁ven	-2650
▁vit	-2651
alend	-2652
entet	-2653
kning	-2654
oppen	-2655
rauss	-2656
under	-2657
▁1930	-2658
▁Asia	-2659
▁Wash	-2660
▁haft	-2661
▁ster	-2662
▁they	-2663
▁uden	-2664
skolan	-2665
▁begge	-2666
quarter	-2667
▁Märtha	-2668
▁början	-2669
▁indtil	-2670
▁Jackson	-2671
▁tronføl	-2672
▁Vazelina	-2673
▁därefter	-2674
▁Washington	-2675
aga	-2676
egn	-2677
mär	-2678
▁Hj	-2679
▁sæ	-2680
ativ	-2681
erud	-2682
flix	-2683
gori	-2684
ills	-2685
iner	-2686
äldr	-2687
▁Cro	-2688
▁Gun	-2689
▁Ros	-2690
▁Soc	-2691
laget	-2692
older	-2693
strid	-2694
▁Barb	-2695
▁eget	-2696
▁helt	-2697
▁läng	-2698
▁stil	-2699
▁tett	-2700
▁then	-2701
▁tida	-2702
histor	-2703
▁lands	-2704
▁deltog	-2705
▁fleste	-2706
▁større	-2707
▁säsong	-2708
familien	-2709
▁Leonard	-2710
▁Netflix	-2711
▁gregori	-2712
▁artikler	-2713
▁engelske	-2714
kv	-2715
hem	-2716
▁32	-2717
▁45	-2718
▁Av	-2719
▁Cr	-2720
▁pa	-2721
hald	-2722
ists	-2723
rige	-2724
vend	-2725
▁Art	-2726
▁BBC	-2727
▁Del	-2728
▁Frå	-2729
▁Gro	-2730
▁Tre	-2731
▁bor	-2732
▁lov	-2733
inter	-2734
▁Elis	-2735
▁døyd	-2736
▁mang	-2737
▁slog	-2738
▁tjen	-2739
▁Rosen	-2740
▁Royal	-2741
▁Venst	-2742
▁havet	-2743
▁hvert	-2744
▁third	-2745
isation	-2746
▁Irland	-2747
▁region	-2748
▁spelar	-2749
▁staden	-2750
▁history	-2751
▁quarter	-2752
▁parlament	-2753
▁verdenskrig	-2754
sb	-2755
wa	-2756
ban	-2757
ein	-2758
ior	-2759
ism	-2760
nom	-2761
oft	-2762
▁Ba	-2763
▁Ju	-2764
▁ev	-2765
andr	-2766
hopp	-2767
olin	-2768
ther	-2769
▁Off	-2770
▁Vik	-2771
▁aga	-2772
▁fot	-2773
▁pre	-2774
▁tra	-2775
byggj	-2776
fabet	-2777
▁1800	-2778
▁Jørg	-2779
▁Kung	-2780
▁stod	-2781
▁verk	-2782
▁Louis	-2783
▁dagar	-2784
▁great	-2785
▁kateg	-2786
▁kilde	-2787
▁kontr	-2788
▁skild	-2789
▁ålder	-2790
▁Konger	-2791
▁Rasmus	-2792
▁vanleg	-2793
▁videre	-2794
▁startet	-2795
▁brittisk	-2796
▁Australia	-2797
▁italiensk	-2798
▁Københavns	-2799
to	-2800
gar	-2801
lab	-2802
tre	-2803
änn	-2804
ægt	-2805
▁Kj	-2806
ente	-2807
iger	-2808
kast	-2809
ksom	-2810
rnad	-2811
stäl	-2812
unes	-2813
▁Bar	-2814
▁Bla	-2815
▁Fal	-2816
▁Got	-2817
▁Lud	-2818
▁När	-2819
▁One	-2820
▁tak	-2821
angen	-2822
ieren	-2823
▁1905	-2824
▁game	-2825
▁kval	-2826
▁laga	-2827
▁pian	-2828
▁Holly	-2829
▁Progr	-2830
▁Sofia	-2831
▁davær	-2832
▁eldre	-2833
▁honom	-2834
▁måtte	-2835
▁olymp	-2836
▁trans	-2837
▁viser	-2838
▁gained	-2839
▁republ	-2840
▁säsongen	-2841
▁daværende	-2842
▁millionar	-2843
▁quarterback	-2844
kr	-2845
øj	-2846
enk	-2847
ham	-2848
mel	-2849
ood	-2850
pos	-2851
ukt	-2852
unk	-2853
unt	-2854
atar	-2855
eten	-2856
irka	-2857
olde	-2858
sett	-2859
ådde	-2860
▁Bay	-2861
▁Max	-2862
▁bro	-2863
▁dok	-2864
▁kor	-2865
▁lyd	-2866
▁thr	-2867
aktør	-2868
isser	-2869
▁1910	-2870
▁1929	-2871
▁1933	-2872
▁Byen	-2873
▁Merc	-2874
▁fest	-2875
▁förs	-2876
▁only	-2877
▁rank	-2878
skolen	-2879
▁Olymp	-2880
▁Radio	-2881
▁anden	-2882
▁byrja	-2883
▁nokre	-2884
▁spela	-2885
▁spilt	-2886
▁stift	-2887
▁virke	-2888
irigent	-2889
▁Astrid	-2890
▁Hansen	-2891
▁Italia	-2892
▁avslut	-2893
▁døydde	-2894
▁giftet	-2895
▁konger	-2896
▁område	-2897
▁Nilsson	-2898
▁begynder	-2899
▁deretter	-2900
▁familjen	-2901
▁historie	-2902
▁Jørgensen	-2903
▁kronprinsesse	-2904
gs	-2905
aim	-2906
lle	-2907
nte	-2908
ush	-2909
veg	-2910
öll	-2911
▁90	-2912
▁Sy	-2913
▁ef	-2914
▁em	-2915
▁fø	-2916
▁ga	-2917
ally	-2918
anse	-2919
ious	-2920
ople	-2921
tatt	-2922
tion	-2923
▁183	-2924
▁Köp	-2925
▁här	-2926
▁hög	-2927
▁tur	-2928
▁1920	-2929
▁1951	-2930
▁Emmy	-2931
▁Rose	-2932
▁Salt	-2933
▁Sles	-2934
▁bort	-2935
▁geog	-2936
▁prim	-2937
▁sist	-2938
▁skot	-2939
▁tekn	-2940
▁this	-2941
▁åren	-2942
artist	-2943
▁Sedan	-2944
▁langu	-2945
▁meget	-2946
▁until	-2947
asjoner	-2948
▁enligt	-2949
▁kontin	-2950
▁resten	-2951
▁sesong	-2952
▁særleg	-2953
▁søster	-2954
▁Slesvig	-2955
▁billion	-2956
▁musical	-2957
▁Grønland	-2958
AF	-2959
ep	-2960
æn	-2961
ös	-2962
öv	-2963
fød	-2964
ias	-2965
iel	-2966
næv	-2967
ygg	-2968
▁33	-2969
▁IX	-2970
▁Lu	-2971
▁NM	-2972
▁øv	-2973
alth	-2974
anda	-2975
ards	-2976
hund	-2977
lert	-2978
nade	-2979
omen	-2980
rikt	-2981
▁Arn	-2982
▁Fre	-2983
▁God	-2984
▁Maj	-2985
▁Rik	-2986
▁ork	-2987
▁sek	-2988
▁sik	-2989
▁åra	-2990
sjekt	-2991
skola	-2992
▁1935	-2993
▁Busk	-2994
▁Jord	-2995
▁Just	-2996
▁Ukra	-2997
▁bety	-2998
▁init	-2999
▁luft	-3000
▁riks	-3001
▁Henry	-3002
▁Scott	-3003
▁being	-3004
▁førte	-3005
▁inden	-3006
▁krist	-3007
▁skole	-3008
alderen	-3009
▁Holmen	-3010
▁Namnet	-3011
▁calend	-3012
▁Premier	-3013
▁arbeidet	-3014
▁medvirket	-3015
æk	-3016
die	-3017
een	-3018
ønt	-3019
itte	-3020
rale	-3021
usen	-3022
øpet	-3023
▁Act	-3024
▁Old	-3025
▁Red	-3026
▁Rog	-3027
▁Spr	-3028
▁XVI	-3029
▁ald	-3030
▁ass	-3031
▁bar	-3032
▁est	-3033
▁fag	-3034
▁høy	-3035
▁kej	-3036
▁sub	-3037
▁Arbe	-3038
▁bare	-3039
▁hånd	-3040
▁inde	-3041
▁main	-3042
▁plat	-3043
▁vind	-3044
▁Folke	-3045
▁Marit	-3046
▁break	-3047
▁figur	-3048
▁found	-3049
▁huset	-3050
▁lever	-3051
▁wrest	-3052
▁basert	-3053
▁litter	-3054
▁player	-3055
▁sangsk	-3056
▁stadig	-3057
▁vidare	-3058
▁playing	-3059
▁engelska	-3060
li	-3061
apt	-3062
erk	-3063
hål	-3064
via	-3065
øbt	-3066
▁ja	-3067
bert	-3068
cces	-3069
kort	-3070
oper	-3071
pris	-3072
satt	-3073
▁Ant	-3074
▁Com	-3075
▁Gra	-3076
▁Høj	-3077
▁Lab	-3078
▁ark	-3079
▁enk	-3080
▁jur	-3081
▁sem	-3082
ergöt	-3083
holdt	-3084
idens	-3085
jerde	-3086
▁1937	-3087
▁Bond	-3088
▁Inst	-3089
▁Port	-3090
▁VIII	-3091
▁Wind	-3092
▁blod	-3093
▁noen	-3094
▁sjuk	-3095
iserte	-3096
▁kirke	-3097
▁lande	-3098
▁overt	-3099
fabetet	-3100
ktioner	-3101
▁Napole	-3102
▁bedste	-3103
▁fylket	-3104
▁mycket	-3105
▁offent	-3106
▁succes	-3107
▁Buskerud	-3108
▁regisser	-3109
▁professor	-3110
▁författare	-3111
▁skodespelar	-3112
nar	-3113
nny	-3114
rad	-3115
træ	-3116
ues	-3117
åne	-3118
▁00	-3119
▁bu	-3120
▁dy	-3121
amas	-3122
edes	-3123
ones	-3124
oret	-3125
ören	-3126
▁Ass	-3127
▁Bol	-3128
▁Kan	-3129
▁Vil	-3130
▁ant	-3131
▁ing	-3132
▁stj	-3133
▁sup	-3134
▁veg	-3135
ledes	-3136
språk	-3137
utive	-3138
▁1938	-3139
▁Cent	-3140
▁Kina	-3141
▁Kore	-3142
▁Roll	-3143
▁This	-3144
▁adel	-3145
▁kalt	-3146
▁prev	-3147
▁took	-3148
▁åtte	-3149
følgen	-3150
opphøg	-3151
▁Erich	-3152
▁Håkon	-3153
▁Søren	-3154
▁bokst	-3155
▁cirka	-3156
▁mykje	-3157
▁sæson	-3158
værende	-3159
▁Jensen	-3160
▁acting	-3161
▁gånger	-3162
▁result	-3163
▁songen	-3164
▁tradis	-3165
▁premier	-3166
▁slutten	-3167
▁calendar	-3168
▁nordvest	-3169
rs	-3170
giv	-3171
iti	-3172
jän	-3173
sat	-3174
øst	-3175
▁UK	-3176
ages	-3177
isme	-3178
pool	-3179
▁Are	-3180
▁Bul	-3181
▁Lee	-3182
▁Out	-3183
▁Rev	-3184
▁Vol	-3185
▁day	-3186
▁lav	-3187
▁ska	-3188
▁vän	-3189
▁ått	-3190
aster	-3191
äster	-3192
▁Dies	-3193
▁Fore	-3194
▁Time	-3195
▁bygd	-3196
▁enda	-3197
▁live	-3198
▁språ	-3199
▁sänd	-3200
▁tolv	-3201
▁vara	-3202
enborg	-3203
▁Chris	-3204
▁Darts	-3205
▁Musik	-3206
▁death	-3207
▁femte	-3208
▁heile	-3209
▁Øster	-3210
▁Canada	-3211
▁Fødsel	-3212
▁deltag	-3213
▁fjerde	-3214
▁junior	-3215
▁kongen	-3216
▁Johnson	-3217
▁Kingdom	-3218
▁Mercury	-3219
▁handels	-3220
▁startede	-3221
70	-3222
pa	-3223
abr	-3224
ges	-3225
län	-3226
nde	-3227
nie	-3228
sty	-3229
utt	-3230
yra	-3231
öck	-3232
ønd	-3233
▁EP	-3234
▁Fe	-3235
▁IS	-3236
arte	-3237
boll	-3238
cert	-3239
isen	-3240
uner	-3241
▁Rig	-3242
▁kro	-3243
▁Öst	-3244
taget	-3245
vækst	-3246
▁1912	-3247
▁1949	-3248
▁Fran	-3249
▁educ	-3250
▁them	-3251
amgång	-3252
område	-3253
▁Polit	-3254
▁achie	-3255
▁ident	-3256
▁influ	-3257
▁parti	-3258
istiske	-3259
tertain	-3260
▁Köpenh	-3261
▁danska	-3262
▁publik	-3263
▁spelte	-3264
▁världs	-3265
▁likevel	-3266
▁Nordland	-3267
▁appeared	-3268
▁klassisk	-3269
▁premiere	-3270
▁världens	-3271
▁Bilopphøg	-3272
▁offentlig	-3273
▁politiske	-3274
▁gregorianske	-3275
60	-3276
bu	-3277
sf	-3278
ya	-3279
ivå	-3280
pro	-3281
rer	-3282
yll	-3283
öst	-3284
▁Rh	-3285
▁Tw	-3286
▁XX	-3287
▁ni	-3288
▁ow	-3289
ason	-3290
brud	-3291
kken	-3292
legg	-3293
uten	-3294
øtte	-3295
▁Cam	-3296
▁Pre	-3297
▁Rod	-3298
▁Tay	-3299
elege	-3300
ksess	-3301
leiar	-3302
medal	-3303
orgen	-3304
ovjet	-3305
råder	-3306
rådte	-3307
stend	-3308
▁1901	-3309
▁1918	-3310
▁Matt	-3311
▁rang	-3312
▁stre	-3313
bladet	-3314
ldrene	-3315
serien	-3316
▁House	-3317
▁Liver	-3318
▁Oppen	-3319
▁arver	-3320
▁grand	-3321
▁greve	-3322
▁stage	-3323
▁svært	-3324
▁Sveits	-3325
▁bliver	-3326
▁sidste	-3327
▁Uppväxt	-3328
▁kategor	-3329
▁sångare	-3330
▁världen	-3331
▁miljoner	-3332
▁Margareta	-3333
▁underhold	-3334
20	-3335
ræ	-3336
arv	-3337
erl	-3338
olk	-3339
rat	-3340
una	-3341
▁35	-3342
▁Pu	-3343
▁ak	-3344
▁ke	-3345
atet	-3346
bruk	-3347
erry	-3348
rede	-3349
smål	-3350
talt	-3351
unst	-3352
▁Ele	-3353
▁Kro	-3354
▁Nør	-3355
▁Rol	-3356
▁Sib	-3357
▁Sid	-3358
▁Tro	-3359
▁add	-3360
▁fær	-3361
▁låg	-3362
▁rig	-3363
▁slo	-3364
▁syv	-3365
delen	-3366
offer	-3367
ually	-3368
▁1926	-3369
▁1942	-3370
▁Sach	-3371
▁bliv	-3372
▁døbt	-3373
▁epis	-3374
▁gjen	-3375
▁hela	-3376
▁kjøp	-3377
▁kyst	-3378
igaste	-3379
irchen	-3380
lertid	-3381
▁Polen	-3382
▁inled	-3383
▁revol	-3384
▁Dramat	-3385
▁Ludvig	-3386
▁ganger	-3387
▁krigen	-3388
▁regent	-3389
▁romant	-3390
▁signed	-3391
▁songar	-3392
▁starta	-3393
▁Venstre	-3394
▁arbetade	-3395
▁efterføl	-3396
▁kongelige	-3397
▁medlemmer	-3398
▁betydninger	-3399
po	-3400
vi	-3401
øv	-3402
aki	-3403
bes	-3404
dik	-3405
eds	-3406
ela	-3407
ged	-3408
hör	-3409
jef	-3410
kab	-3411
ode	-3412
ona	-3413
præ	-3414
tin	-3415
▁Ud	-3416
▁sö	-3417
▁we	-3418
▁øn	-3419
alet	-3420
asin	-3421
elag	-3422
eres	-3423
erie	-3424
iews	-3425
inge	-3426
tens	-3427
▁300	-3428
▁BAF	-3429
▁Bag	-3430
▁Ott	-3431
▁Sug	-3432
▁bør	-3433
▁fad	-3434
▁gud	-3435
▁hen	-3436
▁ill	-3437
▁jød	-3438
▁noe	-3439
▁tea	-3440
▁teg	-3441
elebr	-3442
ikker	-3443
udios	-3444
åring	-3445
▁1924	-3446
▁Anth	-3447
▁Over	-3448
▁Poul	-3449
▁Wahl	-3450
▁sold	-3451
istrib	-3452
▁Great	-3453
▁Niels	-3454
▁Smith	-3455
▁bodde	-3456
▁coach	-3457
▁følge	-3458
▁heilt	-3459
▁langs	-3460
▁ledde	-3461
▁løpet	-3462
▁month	-3463
▁riket	-3464
▁uttry	-3465
prindel	-3466
▁Brasil	-3467
▁Gruppe	-3468
▁Sønder	-3469
▁Taylor	-3470
▁bestod	-3471
▁betegn	-3472
▁raised	-3473
årsdagen	-3474
▁Partenk	-3475
▁föräldr	-3476
▁militær	-3477
▁tilbake	-3478
ergötland	-3479
▁Napoleon	-3480
▁business	-3481
▁language	-3482
▁Köpenhamn	-3483
▁Liverpool	-3484
▁regeringstid	-3485
bi	-3486
dy	-3487
ye	-3488
bet	-3489
ckl	-3490
elf	-3491
ody	-3492
skj	-3493
ula	-3494
ætt	-3495
øse	-3496
▁Bø	-3497
▁hö	-3498
alan	-3499
chef	-3500
ikte	-3501
issa	-3502
kter	-3503
sons	-3504
tein	-3505
▁Bra	-3506
▁Jak	-3507
▁Pol	-3508
▁Sec	-3509
▁Way	-3510
▁leg	-3511
▁ton	-3512
▁utv	-3513
▁vir	-3514
bjørn	-3515
bland	-3516
ioner	-3517
lings	-3518
tries	-3519
▁1919	-3520
▁Bjør	-3521
▁Frid	-3522
▁Lyng	-3523
▁Rand	-3524
▁last	-3525
▁lite	-3526
▁tatt	-3527
▁vald	-3528
banden	-3529
gangen	-3530
▁Lasse	-3531
▁Mange	-3532
▁Roman	-3533
▁deler	-3534
▁först	-3535
▁gange	-3536
▁kolon	-3537
▁medal	-3538
▁områd	-3539
▁tyska	-3540
▁udnæv	-3541
▁Republ	-3542
▁bronse	-3543
▁gymnas	-3544
▁kysten	-3545
▁recogn	-3546
▁regnes	-3547
▁tidleg	-3548
▁Holsten	-3549
▁klassen	-3550
▁mangler	-3551
▁således	-3552
▁tradisj	-3553
▁numerous	-3554
▁Partenkirchen	-3555
di	-3556
ré	-3557
bas	-3558
okk	-3559
uka	-3560
urg	-3561
yst	-3562
▁AB	-3563
▁Si	-3564
▁Ta	-3565
▁ek	-3566
▁go	-3567
▁äg	-3568
aken	-3569
ante	-3570
atab	-3571
erat	-3572
leks	-3573
test	-3574
▁Big	-3575
▁Let	-3576
▁Luc	-3577
▁Mat	-3578
▁Nyn	-3579
▁bek	-3580
▁sat	-3581
▁såk	-3582
arten	-3583
mbrud	-3584
parti	-3585
rolle	-3586
▁1700	-3587
▁1921	-3588
▁1922	-3589
▁Birg	-3590
▁Från	-3591
▁Gran	-3592
▁Guld	-3593
▁Gull	-3594
▁Inge	-3595
▁Mess	-3596
▁Mikk	-3597
▁Prix	-3598
▁Sven	-3599
▁brød	-3600
▁dikt	-3601
▁eitt	-3602
▁elev	-3603
▁gitt	-3604
▁kons	-3605
▁regi	-3606
▁sket	-3607
▁utgj	-3608
ercial	-3609
lingar	-3610
▁Skott	-3611
▁bøker	-3612
▁ledet	-3613
▁liten	-3614
▁regel	-3615
▁skift	-3616
▁släpp	-3617
▁udgav	-3618
▁Parker	-3619
▁Wilson	-3620
▁gruppe	-3621
▁gången	-3622
▁klasse	-3623
▁serier	-3624
▁slutet	-3625
▁talent	-3626
▁vokste	-3627
▁Freddie	-3628
▁Gruppen	-3629
▁Sachsen	-3630
▁against	-3631
▁artikel	-3632
▁betydel	-3633
▁grupper	-3634
▁monarki	-3635
▁russisk	-3636
▁tronföl	-3637
▁dirigent	-3638
▁dokument	-3639
▁medverkat	-3640
▁regjering	-3641
ba	-3642
bø	-3643
fyl	-3644
lut	-3645
skt	-3646
tad	-3647
änt	-3648
▁58	-3649
▁Ei	-3650
▁Ga	-3651
▁IV	-3652
▁NA	-3653
▁Og	-3654
▁Ox	-3655
▁sä	-3656
azon	-3657
hild	-3658
oden	-3659
site	-3660
sätt	-3661
träd	-3662
weiz	-3663
ærer	-3664
▁Dre	-3665
▁Lid	-3666
▁McC	-3667
▁Mov	-3668
▁Sir	-3669
▁acc	-3670
▁due	-3671
▁ens	-3672
▁mar	-3673
▁mat	-3674
▁mød	-3675
▁råd	-3676
endte	-3677
grens	-3678
itler	-3679
jande	-3680
rebro	-3681
still	-3682
▁1906	-3683
▁Back	-3684
▁Emil	-3685
▁Emma	-3686
▁Maud	-3687
▁Olof	-3688
▁Oper	-3689
▁Ragn	-3690
▁Tony	-3691
▁Wall	-3692
▁chef	-3693
▁føre	-3694
▁hvis	-3695
▁some	-3696
bakken	-3697
erades	-3698
istisk	-3699
▁Björn	-3700
▁gresk	-3701
▁humor	-3702
▁lange	-3703
▁liste	-3704
▁låten	-3705
▁minst	-3706
▁några	-3707
▁scene	-3708
▁åring	-3709
▁Amazon	-3710
▁Hertug	-3711
▁ansatt	-3712
▁kjente	-3713
▁religi	-3714
▁fotboll	-3715
▁klubben	-3716
▁populær	-3717
▁skandin	-3718
▁verksam	-3719
▁monarken	-3720
▁alfabetet	-3721
▁offisielt	-3722
▁samarbeid	-3723
▁tradition	-3724
▁Olsenbanden	-3725
BA	-3726
på	-3727
aff	-3728
atn	-3729
ink	-3730
när	-3731
sor	-3732
vor	-3733
zen	-3734
ägg	-3735
▁38	-3736
abel	-3737
akta	-3738
ansl	-3739
bout	-3740
ible	-3741
inje	-3742
ippe	-3743
lude	-3744
länd	-3745
mand	-3746
osof	-3747
sats	-3748
sels	-3749
skog	-3750
ting	-3751
uren	-3752
▁Des	-3753
▁Ern	-3754
▁Hed	-3755
▁Lov	-3756
▁Pal	-3757
▁gör	-3758
▁try	-3759
aften	-3760
etten	-3761
ismen	-3762
spill	-3763
øyane	-3764
▁1928	-3765
▁Dahl	-3766
▁Disk	-3767
▁Fame	-3768
▁Holm	-3769
▁Lady	-3770
▁Show	-3771
▁disk	-3772
▁krim	-3773
▁lagt	-3774
▁sida	-3775
▁skol	-3776
▁youn	-3777
▁årig	-3778
erlath	-3779
irkede	-3780
ylland	-3781
▁Abies	-3782
▁André	-3783
▁Einar	-3784
▁Jones	-3785
▁Trønd	-3786
▁disse	-3787
▁enkel	-3788
▁ordet	-3789
▁seven	-3790
▁slægt	-3791
▁tilkn	-3792
nedikte	-3793
partiet	-3794
▁Diesen	-3795
▁Ronald	-3796
▁truleg	-3797
▁Nielsen	-3798
▁partiet	-3799
▁suksess	-3800
byggjarar	-3801
▁critical	-3802
▁derefter	-3803
▁greatest	-3804
▁orkester	-3805
▁regissör	-3806
▁ægteskab	-3807
▁Josephine	-3808
▁Trøndelag	-3809
▁Frederiksen	-3810
40	-3811
dr	-3812
sn	-3813
vä	-3814
ås	-3815
ök	-3816
ail	-3817
ben	-3818
dan	-3819
ita	-3820
iør	-3821
tig	-3822
vär	-3823
äns	-3824
ära	-3825
ået	-3826
åra	-3827
▁Ah	-3828
▁Nr	-3829
▁Su	-3830
▁Sø	-3831
▁ko	-3832
▁mø	-3833
abab	-3834
enta	-3835
føre	-3836
hard	-3837
isar	-3838
line	-3839
oice	-3840
olds	-3841
rman	-3842
rätt	-3843
yrer	-3844
årst	-3845
øper	-3846
øver	-3847
▁178	-3848
▁179	-3849
▁400	-3850
▁Bok	-3851
▁Bre	-3852
▁Eks	-3853
▁End	-3854
▁Gar	-3855
▁Isa	-3856
▁Wat	-3857
▁akt	-3858
▁beh	-3859
▁can	-3860
▁fer	-3861
▁fir	-3862
andre	-3863
atens	-3864
ceret	-3865
esten	-3866
itets	-3867
usjon	-3868
▁1941	-3869
▁Alan	-3870
▁Jean	-3871
▁Lang	-3872
▁Mari	-3873
▁Moun	-3874
▁Viet	-3875
▁With	-3876
▁grøn	-3877
▁host	-3878
▁long	-3879
▁make	-3880
▁rose	-3881
▁vist	-3882
gruppe	-3883
instru	-3884
▁Alice	-3885
▁Class	-3886
▁Kirke	-3887
▁Konge	-3888
▁Skåne	-3889
▁fjord	-3890
▁katol	-3891
▁nådde	-3892
▁plats	-3893
▁spelt	-3894
▁trone	-3895
▁tyder	-3896
▁Öster	-3897
▁Diskog	-3898
▁Donald	-3899
▁Wiener	-3900
▁ansvar	-3901
▁artikk	-3902
▁compet	-3903
▁events	-3904
▁farfar	-3905
▁kilder	-3906
▁kroner	-3907
▁særlig	-3908
ortinget	-3909
▁Andreas	-3910
▁distrib	-3911
▁parents	-3912
▁starten	-3913
▁udgivet	-3914
▁utvikla	-3915
▁Leonardo	-3916
▁achieved	-3917
▁historia	-3918
▁russiske	-3919
▁tilhørte	-3920
prungligen	-3921
▁opphavleg	-3922
▁Australien	-3923
▁parlamentar	-3924
48	-3925
50	-3926
HL	-3927
fø	-3928
ij	-3929
oy	-3930
äk	-3931
air	-3932
alb	-3933
arp	-3934
fir	-3935
köp	-3936
nem	-3937
pla	-3938
rts	-3939
▁43	-3940
▁Ep	-3941
▁Up	-3942
▁Ze	-3943
▁cm	-3944
▁dø	-3945
▁tw	-3946
▁vå	-3947
aged	-3948
ateg	-3949
grep	-3950
ssel	-3951
utin	-3952
▁Air	-3953
▁Ham	-3954
▁Kap	-3955
▁Ren	-3956
▁Sig	-3957
▁Tal	-3958
▁Tru	-3959
▁bol	-3960
▁fod	-3961
▁mel	-3962
▁pap	-3963
▁sjø	-3964
▁sos	-3965
achel	-3966
heten	-3967
heter	-3968
inden	-3969
resse	-3970
revet	-3971
rigen	-3972
sjekk	-3973
strup	-3974
▁1000	-3975
▁1927	-3976
▁Borg	-3977
▁Ford	-3978
▁Prim	-3979
▁area	-3980
▁curr	-3981
▁ekst	-3982
▁elva	-3983
▁hvem	-3984
▁jule	-3985
▁many	-3986
▁nærm	-3987
▁rekl	-3988
▁satt	-3989
ensson	-3990
▁Album	-3991
▁Brian	-3992
▁Broad	-3993
▁Donau	-3994
▁Grund	-3995
▁among	-3996
▁deras	-3997
▁inför	-3998
▁langt	-3999
▁oppst	-4000
▁place	-4001
▁posit	-4002
▁skilt	-4003
ologisk	-4004
skrigen	-4005
▁Hessen	-4006
▁Schles	-4007
▁Social	-4008
▁Walter	-4009
▁brukte	-4010
▁länder	-4011
▁större	-4012
▁Country	-4013
▁Italien	-4014
▁bassist	-4015
▁einaste	-4016
▁manager	-4017
▁sentrum	-4018
▁voksede	-4019
visninger	-4020
▁egentlig	-4021
▁professi	-4022
författare	-4023
▁Skottland	-4024
▁brittiska	-4025
▁countries	-4026
▁premiered	-4027
▁Prinsessan	-4028
▁tronfølger	-4029
bt	-4030
co	-4031
go	-4032
hn	-4033
ids	-4034
imp	-4035
ipe	-4036
mes	-4037
omp	-4038
rup	-4039
see	-4040
skl	-4041
teg	-4042
ønn	-4043
▁46	-4044
▁EU	-4045
▁Li	-4046
▁Mr	-4047
▁Sw	-4048
▁XI	-4049
▁læ	-4050
edag	-4051
emst	-4052
evin	-4053
ippi	-4054
sida	-4055
sågs	-4056
vert	-4057
▁Arm	-4058
▁Bal	-4059
▁Bor	-4060
▁Eve	-4061
▁Joe	-4062
▁Kil	-4063
▁Lux	-4064
▁Met	-4065
▁Nye	-4066
▁Res	-4067
▁Skj	-4068
▁Vir	-4069
▁Vär	-4070
▁deg	-4071
▁kin	-4072
▁ref	-4073
▁win	-4074
itten	-4075
musik	-4076
ruise	-4077
skild	-4078
ånare	-4079
▁East	-4080
▁Midt	-4081
▁Tina	-4082
▁bred	-4083
▁böck	-4084
▁just	-4085
▁skiv	-4086
▁tilt	-4087
▁vare	-4088
▁Året	-4089
ababes	-4090
inally	-4091
medlem	-4092
ningst	-4093
▁Dansk	-4094
▁Sound	-4095
▁Young	-4096
▁etapp	-4097
▁fyrst	-4098
▁solgt	-4099
▁songs	-4100
▁still	-4101
▁tider	-4102
▁yards	-4103
▁Johnny	-4104
▁Navnet	-4105
▁Odense	-4106
▁Sovjet	-4107
▁Watson	-4108
▁alltid	-4109
▁dagens	-4110
▁enkelt	-4111
▁grensa	-4112
▁people	-4113
▁sangen	-4114
▁uppmär	-4115
▁århund	-4116
▁Amalien	-4117
▁America	-4118
▁Amerika	-4119
▁Nikolai	-4120
▁konsert	-4121
▁kvindel	-4122
▁politik	-4123
▁reviews	-4124
▁sørvest	-4125
▁konstnär	-4126
▁nordiske	-4127
▁omfatter	-4128
▁Sugababes	-4129
▁alongside	-4130
▁olympiske	-4131
▁arvefølgen	-4132
▁Amalienborg	-4133
FC	-4134
vå	-4135
ani	-4136
bel	-4137
day	-4138
equ	-4139
hip	-4140
hög	-4141
ots	-4142
räd	-4143
tag	-4144
äff	-4145
▁55	-4146
▁99	-4147
▁IP	-4148
▁ph	-4149
avet	-4150
ellt	-4151
fall	-4152
iget	-4153
iggo	-4154
irth	-4155
iven	-4156
lede	-4157
oten	-4158
ross	-4159
sens	-4160
tårs	-4161
▁Arg	-4162
▁Bab	-4163
▁Jag	-4164
▁erh	-4165
▁høj	-4166
▁pal	-4167
▁skj	-4168
▁snø	-4169
andet	-4170
atliv	-4171
jonar	-4172
retær	-4173
skilt	-4174
sspel	-4175
varte	-4176
vende	-4177
▁Face	-4178
▁Flor	-4179
▁Greg	-4180
▁Jaco	-4181
▁Lisa	-4182
▁Mads	-4183
▁Nils	-4184
▁Post	-4185
▁YouT	-4186
▁base	-4187
▁days	-4188
▁ever	-4189
▁teik	-4190
ligere	-4191
▁Anton	-4192
▁Bodil	-4193
▁Brand	-4194
▁Felix	-4195
▁Henri	-4196
▁Kevin	-4197
▁Movie	-4198
▁Ordet	-4199
▁Viggo	-4200
▁alder	-4201
▁avled	-4202
▁boede	-4203
▁flest	-4204
▁indsp	-4205
▁omtal	-4206
▁separ	-4207
▁sonen	-4208
▁uttal	-4209
▁vokal	-4210
steater	-4211
▁Danish	-4212
▁Danske	-4213
▁Højhed	-4214
▁Senere	-4215
▁Silvia	-4216
▁blivit	-4217
▁latter	-4218
▁omfatt	-4219
kalender	-4220
▁Melodif	-4221
▁manliga	-4222
▁utanför	-4223
▁Caroline	-4224
▁Historia	-4225
▁Svensson	-4226
▁invånare	-4227
▁kongehus	-4228
▁oprindel	-4229
▁Rasmussen	-4230
▁historisk	-4231
▁tradisjon	-4232
tertainment	-4233
▁Sønderborg	-4234
asjonssenter	-4235
23	-4236
mi	-4237
ér	-4238
ago	-4239
esh	-4240
fte	-4241
fär	-4242
ips	-4243
uck	-4244
udi	-4245
æld	-4246
▁42	-4247
▁Az	-4248
▁Im	-4249
aldt	-4250
arer	-4251
enes	-4252
idar	-4253
ital	-4254
jekt	-4255
lach	-4256
oder	-4257
skil	-4258
ssed	-4259
tere	-4260
tisk	-4261
ydig	-4262
älla	-4263
æken	-4264
▁Eva	-4265
▁Här	-4266
▁Law	-4267
▁Mac	-4268
▁Mah	-4269
▁Mer	-4270
▁Mot	-4271
▁NHL	-4272
▁Ola	-4273
▁Pap	-4274
▁Tob	-4275
▁Ven	-4276
▁XXX	-4277
▁nem	-4278
▁nya	-4279
▁nyn	-4280
▁skr	-4281
acher	-4282
asser	-4283
elses	-4284
erred	-4285
feldt	-4286
fører	-4287
iskop	-4288
izzie	-4289
kapen	-4290
relse	-4291
ständ	-4292
▁1917	-4293
▁1923	-4294
▁Coll	-4295
▁Laur	-4296
▁Long	-4297
▁Math	-4298
▁Tele	-4299
▁They	-4300
▁allt	-4301
▁each	-4302
▁ekte	-4303
▁gjer	-4304
▁grav	-4305
▁list	-4306
▁stru	-4307
▁test	-4308
errike	-4309
ibland	-4310
▁Assoc	-4311
▁Clark	-4312
▁Huset	-4313
▁Korea	-4314
▁leiar	-4315
▁sista	-4316
▁slått	-4317
▁story	-4318
▁young	-4319
eringen	-4320
▁Career	-4321
▁Dizzie	-4322
▁Græken	-4323
▁Lynyrd	-4324
▁Marvel	-4325
▁Musikk	-4326
▁Samuel	-4327
▁become	-4328
▁gonger	-4329
▁greske	-4330
▁kompos	-4331
▁varier	-4332
asjonalt	-4333
fattaren	-4334
▁Profess	-4335
▁Skynyrd	-4336
▁Windsor	-4337
▁fødsels	-4338
▁initial	-4339
▁konkurr	-4340
▁måneder	-4341
▁prinsen	-4342
▁provins	-4343
sminister	-4344
▁Atlanter	-4345
▁hovudsak	-4346
▁regerings	-4347
atsminister	-4348
▁Austerrike	-4349
▁viktigaste	-4350
▁begyndelsen	-4351
▁efterfølgende	-4352
▁underholdnings	-4353
FA	-4354
TO	-4355
oo	-4356
rk	-4357
bar	-4358
chn	-4359
fäl	-4360
his	-4361
ily	-4362
ini	-4363
lom	-4364
lys	-4365
løs	-4366
omi	-4367
ows	-4368
rek	-4369
rom	-4370
sep	-4371
tår	-4372
unc	-4373
ørs	-4374
▁37	-4375
▁41	-4376
▁88	-4377
▁Na	-4378
▁Ty	-4379
▁cy	-4380
▁jr	-4381
alte	-4382
dsen	-4383
eleg	-4384
hatt	-4385
igen	-4386
ikan	-4387
ines	-4388
sala	-4389
sket	-4390
slen	-4391
udio	-4392
ural	-4393
ustr	-4394
valt	-4395
well	-4396
ände	-4397
▁165	-4398
▁Fyr	-4399
▁Gab	-4400
▁Gal	-4401
▁Hus	-4402
▁Jes	-4403
▁Mia	-4404
▁Pak	-4405
▁Pil	-4406
▁Rep	-4407
▁Ter	-4408
▁Top	-4409
▁kam	-4410
▁log	-4411
▁omd	-4412
▁tio	-4413
▁ute	-4414
akten	-4415
almar	-4416
bunds	-4417
dalen	-4418
erien	-4419
gaver	-4420
idigt	-4421
jinga	-4422
kapet	-4423
loven	-4424
orten	-4425
paret	-4426
qvist	-4427
tiske	-4428
trakt	-4429
undet	-4430
vekst	-4431
yrkan	-4432
ældre	-4433
▁1500	-4434
▁Egon	-4435
▁Grev	-4436
▁Lill	-4437
▁Ring	-4438
▁Rolf	-4439
▁Vamp	-4440
▁Zant	-4441
▁cand	-4442
▁died	-4443
▁fall	-4444
▁glob	-4445
▁klok	-4446
▁late	-4447
▁lyck	-4448
▁männ	-4449
▁næst	-4450
▁pris	-4451
▁rätt	-4452
▁skre	-4453
▁unge	-4454
▁vise	-4455
▁went	-4456
arthqu	-4457
bandet	-4458
bundet	-4459
spelar	-4460
▁Black	-4461
▁Gotha	-4462
▁Moder	-4463
▁Sonja	-4464
▁Tunes	-4465
▁ansat	-4466
▁bedst	-4467
▁desig	-4468
▁energ	-4469
▁føder	-4470
▁kalen	-4471
▁kända	-4472
▁kåret	-4473
▁lokal	-4474
▁lærer	-4475
▁piano	-4476
▁shows	-4477
sterrik	-4478
▁Filmog	-4479
▁Player	-4480
▁berätt	-4481
▁bosatt	-4482
▁delvis	-4483
▁fylker	-4484
▁følger	-4485
▁hundre	-4486
▁jordsk	-4487
▁lokale	-4488
▁making	-4489
▁meddel	-4490
▁senior	-4491
▁ungdom	-4492
▁Örebro	-4493
▁Schweiz	-4494
▁Ukraina	-4495
▁endring	-4496
▁søraust	-4497
▁tillhör	-4498
▁Eriksson	-4499
▁militære	-4500
▁tilhører	-4501
▁Christina	-4502
▁Rosenborg	-4503
▁bestående	-4504
▁dåvarande	-4505
▁flertydig	-4506
▁Grækenland	-4507
▁debuterade	-4508
▁medvirkede	-4509
▁regeringen	-4510
▁Christiansborg	-4511
cr	-4512
hi	-4513
ky	-4514
æg	-4515
add	-4516
byg	-4517
ely	-4518
hop	-4519
lon	-4520
løp	-4521
ova	-4522
ulf	-4523
ves	-4524
▁85	-4525
▁Gi	-4526
▁Jr	-4527
▁mo	-4528
aman	-4529
cean	-4530
dest	-4531
gift	-4532
igan	-4533
inem	-4534
isin	-4535
kins	-4536
leik	-4537
mene	-4538
ness	-4539
ppen	-4540
skon	-4541
uelt	-4542
ugis	-4543
uted	-4544
yrka	-4545
ører	-4546
▁177	-4547
▁365	-4548
▁800	-4549
▁Hug	-4550
▁Jön	-4551
▁Kir	-4552
▁Les	-4553
▁Møl	-4554
▁Når	-4555
▁Pet	-4556
▁Rem	-4557
▁Row	-4558
▁Sjå	-4559
▁Tøn	-4560
▁Vin	-4561
▁dig	-4562
▁eff	-4563
▁ish	-4564
▁kär	-4565
▁løb	-4566
▁nav	-4567
▁non	-4568
▁sjå	-4569
▁sym	-4570
amför	-4571
atisk	-4572
bergs	-4573
eteor	-4574
ikere	-4575
neipp	-4576
ordet	-4577
serie	-4578
▁1908	-4579
▁1925	-4580
▁Arne	-4581
▁Card	-4582
▁Chic	-4583
▁Ever	-4584
▁Hard	-4585
▁Ivan	-4586
▁Jesp	-4587
▁Live	-4588
▁Mike	-4589
▁Mont	-4590
▁Nick	-4591
▁Popp	-4592
▁allm	-4593
▁betr	-4594
▁eige	-4595
▁flyg	-4596
▁makt	-4597
▁mill	-4598
▁spør	-4599
▁term	-4600
▁Åles	-4601
angert	-4602
arbeid	-4603
ctions	-4604
ligare	-4605
linger	-4606
sanger	-4607
udover	-4608
▁Asker	-4609
▁Bland	-4610
▁Dagen	-4611
▁Eleon	-4612
▁Heart	-4613
▁Jacob	-4614
▁Karin	-4615
▁Salah	-4616
▁Troll	-4617
▁blive	-4618
▁compl	-4619
▁invol	-4620
▁lenge	-4621
▁nokon	-4622
▁udvik	-4623
▁varje	-4624
▁viste	-4625
asjonal	-4626
området	-4627
▁Første	-4628
▁Gymnas	-4629
▁celebr	-4630
▁familj	-4631
▁kjende	-4632
▁omtalt	-4633
▁plater	-4634
▁solgte	-4635
▁spelat	-4636
▁sprint	-4637
▁vanlig	-4638
▁Holmenk	-4639
▁Opvækst	-4640
▁Ronaldo	-4641
▁Svenska	-4642
▁breakth	-4643
▁handlar	-4644
▁skihopp	-4645
▁Ålesund	-4646
▁Broadway	-4647
▁Sørensen	-4648
▁nasjonal	-4649
▁prosjekt	-4650
▁bokstaven	-4651
▁tidspunkt	-4652
▁debuterede	-4653
▁instruktør	-4654
▁världskrig	-4655
▁Christoffer	-4656
▁Kronprinsesse	-4657
▁x	-4658
ads	-4659
ava	-4660
bra	-4661
bre	-4662
ded	-4663
dig	-4664
iff	-4665
ila	-4666
kka	-4667
lek	-4668
lly	-4669
lod	-4670
owe	-4671
sek	-4672
sik	-4673
ærl	-4674
øne	-4675
▁75	-4676
▁82	-4677
▁Ap	-4678
▁Oh	-4679
▁dj	-4680
▁ov	-4681
bart	-4682
iend	-4683
ilog	-4684
keri	-4685
lgia	-4686
løst	-4687
nant	-4688
oren	-4689
owns	-4690
äder	-4691
▁ABC	-4692
▁Ark	-4693
▁Auk	-4694
▁Dem	-4695
▁Fog	-4696
▁Has	-4697
▁Hep	-4698
▁Ses	-4699
▁Tea	-4700
▁Von	-4701
▁Wes	-4702
▁bra	-4703
▁fif	-4704
▁stå	-4705
▁tår	-4706
arius	-4707
bring	-4708
eligt	-4709
endal	-4710
inese	-4711
kjent	-4712
linga	-4713
ynast	-4714
▁1814	-4715
▁1916	-4716
▁1932	-4717
▁Arts	-4718
▁Arve	-4719
▁Blue	-4720
▁Brig	-4721
▁Hood	-4722
▁Iran	-4723
▁Jane	-4724
▁Kari	-4725
▁Kass	-4726
▁Team	-4727
▁bara	-4728
▁defe	-4729
▁gått	-4730
▁half	-4731
▁hjæl	-4732
▁kone	-4733
▁line	-4734
▁læng	-4735
▁mynd	-4736
▁nära	-4737
▁skog	-4738
▁slag	-4739
▁tids	-4740
▁uppt	-4741
▁vere	-4742
gjorde	-4743
ifiser	-4744
ingane	-4745
relsen	-4746
sløper	-4747
trädde	-4748
▁Crash	-4749
▁Engel	-4750
▁Faren	-4751
▁Gabri	-4752
▁Kroat	-4753
▁Meckl	-4754
▁Rigsh	-4755
▁Willi	-4756
▁deira	-4757
▁föret	-4758
▁heldt	-4759
▁kusin	-4760
▁längd	-4761
▁mater	-4762
▁måned	-4763
▁plate	-4764
▁suver	-4765
▁svart	-4766
▁trekk	-4767
▁vissa	-4768
▁våren	-4769
asjonar	-4770
ationer	-4771
ikanske	-4772
▁Bandet	-4773
▁Cooper	-4774
▁brukar	-4775
▁fylkes	-4776
▁titlen	-4777
▁utgitt	-4778
▁øvrige	-4779
retnings	-4780
▁Andrews	-4781
▁Anthony	-4782
▁Chinese	-4783
▁Uppsala	-4784
▁fylkesk	-4785
▁udnævnt	-4786
▁Eleonora	-4787
▁artiklar	-4788
▁elektron	-4789
▁musikken	-4790
▁positive	-4791
▁spesielt	-4792
▁historien	-4793
▁amerikanska	-4794
19	-4795
TV	-4796
nu	-4797
vo	-4798
ze	-4799
åk	-4800
aug	-4801
bæk	-4802
fag	-4803
gin	-4804
har	-4805
lan	-4806
osa	-4807
sjö	-4808
uns	-4809
åda	-4810
ørk	-4811
▁44	-4812
▁47	-4813
▁63	-4814
▁Au	-4815
▁Fj	-4816
▁MM	-4817
▁Ve	-4818
▁ir	-4819
▁qu	-4820
ayed	-4821
elis	-4822
ikon	-4823
mans	-4824
ourg	-4825
rone	-4826
skin	-4827
uxen	-4828
vald	-4829
▁150	-4830
▁176	-4831
▁Aqu	-4832
▁Dam	-4833
▁Där	-4834
▁Eit	-4835
▁Hem	-4836
▁Inc	-4837
▁Lau	-4838
▁Led	-4839
▁Mod	-4840
▁Set	-4841
▁Sup	-4842
▁Syl	-4843
▁alk	-4844
▁any	-4845
▁gem	-4846
▁ide	-4847
▁loc	-4848
▁née	-4849
▁opn	-4850
▁sär	-4851
▁vol	-4852
▁ænd	-4853
arbet	-4854
ropol	-4855
staur	-4856
undes	-4857
verka	-4858
øtter	-4859
▁1600	-4860
▁1931	-4861
▁Adam	-4862
▁Anni	-4863
▁Bodø	-4864
▁Camp	-4865
▁Cast	-4866
▁Club	-4867
▁Fair	-4868
▁Fram	-4869
▁Game	-4870
▁Life	-4871
▁Otto	-4872
▁Puig	-4873
▁Serb	-4874
▁What	-4875
▁Your	-4876
▁adop	-4877
▁begr	-4878
▁fame	-4879
▁fart	-4880
▁gård	-4881
▁home	-4882
▁mænd	-4883
▁pron	-4884
▁real	-4885
▁vari	-4886
ektive	-4887
eringa	-4888
skabet	-4889
skilde	-4890
spolit	-4891
▁Bruck	-4892
▁Molde	-4893
▁Viken	-4894
▁about	-4895
▁altså	-4896
▁anses	-4897
▁broad	-4898
▁eigen	-4899
▁fandt	-4900
▁hæren	-4901
▁konfl	-4902
▁mødte	-4903
▁poäng	-4904
▁prakt	-4905
▁regul	-4906
▁sange	-4907
▁sikre	-4908
▁skala	-4909
▁skudd	-4910
isjonen	-4911
oration	-4912
▁Fylket	-4913
▁Marien	-4914
▁Willie	-4915
▁compos	-4916
▁dramas	-4917
▁ekonom	-4918
▁igenom	-4919
▁kejser	-4920
▁landsk	-4921
▁oppdag	-4922
▁rekord	-4923
▁skreiv	-4924
▁titles	-4925
▁Contest	-4926
▁officer	-4927
▁restaur	-4928
▁special	-4929
▁started	-4930
▁tilsvar	-4931
▁upptäck	-4932
▁Margrete	-4933
▁landslag	-4934
▁latinske	-4935
▁sentrale	-4936
▁Donaldson	-4937
▁education	-4938
▁nederland	-4939
▁nuvarande	-4940
▁nuværende	-4941
▁prinsessa	-4942
▁Österrike	-4943
▁kongehuset	-4944
▁hovudsakleg	-4945
▁världskriget	-4946
▁verdensmester	-4947
▁kronprinsessan	-4948
NU	-4949
do	-4950
hu	-4951
oj	-4952
tj	-4953
öj	-4954
øk	-4955
arg	-4956
bil	-4957
egr	-4958
fat	-4959
fug	-4960
ize	-4961
kil	-4962
kur	-4963
løy	-4964
oks	-4965
olt	-4966
vir	-4967
wen	-4968
▁34	-4969
▁56	-4970
▁Bæ	-4971
▁Ce	-4972
▁Es	-4973
▁FC	-4974
▁Lø	-4975
▁fi	-4976
▁Ør	-4977
akes	-4978
ania	-4979
even	-4980
gran	-4981
hood	-4982
kant	-4983
ktis	-4984
lagd	-4985
last	-4986
skar	-4987
stre	-4988
▁Bob	-4989
▁Høy	-4990
▁Ill	-4991
▁Kam	-4992
▁Ken	-4993
▁Kol	-4994
▁Pac	-4995
▁Roy	-4996
▁Sea	-4997
▁aud	-4998
▁dat	-4999
▁hed	-5000
▁law	-5001
▁psy	-5002
▁påb	-5003
▁sak	-5004
▁spe	-5005
▁ter	-5006
▁vår	-5007
▁äld	-5008
bjerg	-5009
eslag	-5010
herre	-5011
ikten	-5012
jänst	-5013
naden	-5014
nande	-5015
niens	-5016
ocken	-5017
onien	-5018
punkt	-5019
terte	-5020
trent	-5021
ubile	-5022
usive	-5023
änder	-5024
ärare	-5025
ætter	-5026
▁1907	-5027
▁ABBA	-5028
▁Chat	-5029
▁Hver	-5030
▁Juan	-5031
▁Khan	-5032
▁Mass	-5033
▁Rick	-5034
▁Värm	-5035
▁Walt	-5036
▁anti	-5037
▁båda	-5038
▁dage	-5039
▁dels	-5040
▁fikt	-5041
▁grew	-5042
▁høve	-5043
▁lett	-5044
▁open	-5045
▁sign	-5046
▁skid	-5047
▁skud	-5048
▁used	-5049
▁vatn	-5050
▁wife	-5051
istent	-5052
nelsen	-5053
owever	-5054
ventyr	-5055
▁Fritz	-5056
▁Galen	-5057
▁Heide	-5058
▁Hæren	-5059
▁Irish	-5060
▁Julia	-5061
▁Norén	-5062
▁Tills	-5063
▁atten	-5064
▁fifth	-5065
▁förek	-5066
▁hende	-5067
▁imper	-5068
▁indre	-5069
▁låtar	-5070
▁minor	-5071
▁often	-5072
▁repla	-5073
▁repræ	-5074
▁sette	-5075
▁skyld	-5076
▁spill	-5077
▁vorte	-5078
avanger	-5079
debuter	-5080
elhavet	-5081
eretter	-5082
meister	-5083
stendig	-5084
stället	-5085
▁Ifølge	-5086
▁Kilmer	-5087
▁Portug	-5088
▁aldrig	-5089
▁beslut	-5090
▁female	-5091
▁kunstn	-5092
▁lenger	-5093
▁rekkje	-5094
▁stader	-5095
▁sändes	-5096
▁utgang	-5097
▁Charlie	-5098
▁Laborde	-5099
▁Toblach	-5100
▁människ	-5101
▁områder	-5102
▁registr	-5103
▁Tønsberg	-5104
▁interess	-5105
▁kontroll	-5106
▁relation	-5107
▁romantic	-5108
▁släpptes	-5109
▁Galenskap	-5110
▁Kristians	-5111
▁Mikkelsen	-5112
▁kvarandre	-5113
▁medlemmar	-5114
▁musikalen	-5115
▁regissert	-5116
▁Australian	-5117
▁Margaretha	-5118
▁Nyårsdagen	-5119
▁landslaget	-5120
▁musikalske	-5121
▁fyrstehuset	-5122
▁recognition	-5123
▁utgangspunkt	-5124
▁Atlanterhavet	-5125
▁Västergötland	-5126
▁kongefamilien	-5127
▁administrative	-5128
15	-5129
24	-5130
30	-5131
BN	-5132
ef	-5133
oe	-5134
ano	-5135
asm	-5136
dre	-5137
fæl	-5138
ibl	-5139
iva	-5140
kal	-5141
læg	-5142
nev	-5143
oke	-5144
oth	-5145
ric	-5146
ucc	-5147
ött	-5148
øen	-5149
▁CO	-5150
▁Ek	-5151
▁Ev	-5152
▁Hy	-5153
adet	-5154
antz	-5155
cken	-5156
ekon	-5157
hert	-5158
iter	-5159
løse	-5160
oget	-5161
olpe	-5162
ovak	-5163
rand	-5164
rded	-5165
rich	-5166
rika	-5167
ssad	-5168
star	-5169
tysk	-5170
uell	-5171
verd	-5172
vrig	-5173
øren	-5174
▁Ath	-5175
▁Bas	-5176
▁Cop	-5177
▁Dal	-5178
▁Dee	-5179
▁Ett	-5180
▁Fem	-5181
▁Fri	-5182
▁Høg	-5183
▁Lie	-5184
▁Lis	-5185
▁Nat	-5186
▁Naz	-5187
▁Nel	-5188
▁Sun	-5189
▁Ted	-5190
▁Vas	-5191
▁bid	-5192
▁döp	-5193
▁inf	-5194
▁jud	-5195
▁lys	-5196
▁ras	-5197
▁rem	-5198
▁ste	-5199
▁vik	-5200
aksen	-5201
downs	-5202
estin	-5203
ferds	-5204
gelig	-5205
ifter	-5206
inder	-5207
istar	-5208
lande	-5209
luded	-5210
ninga	-5211
orgia	-5212
sjøen	-5213
slags	-5214
srett	-5215
start	-5216
unane	-5217
▁1863	-5218
▁1872	-5219
▁1915	-5220
▁Army	-5221
▁Bjer	-5222
▁Både	-5223
▁Halv	-5224
▁Hill	-5225
▁Ikke	-5226
▁Mold	-5227
▁NATO	-5228
▁Oliv	-5229
▁Open	-5230
▁Plot	-5231
▁Simp	-5232
▁Suss	-5233
▁data	-5234
▁dato	-5235
▁dele	-5236
▁fisk	-5237
▁left	-5238
▁meld	-5239
▁mist	-5240
▁måte	-5241
▁phil	-5242
▁raud	-5243
▁runt	-5244
▁shar	-5245
▁snak	-5246
▁tale	-5247
▁utgå	-5248
▁utve	-5249
▁väst	-5250
▁whom	-5251
albard	-5252
amleis	-5253
aparte	-5254
atiser	-5255
avheng	-5256
deling	-5257
gående	-5258
navnet	-5259
▁Bruce	-5260
▁Bærum	-5261
▁Detta	-5262
▁Group	-5263
▁Inter	-5264
▁Party	-5265
▁Sande	-5266
▁Verde	-5267
▁aldri	-5268
▁birth	-5269
▁gamla	-5270
▁gifta	-5271
▁human	-5272
▁klubb	-5273
▁melod	-5274
▁neder	-5275
▁orden	-5276
▁punkt	-5277
▁raskt	-5278
▁spent	-5279
▁sprog	-5280
▁stopp	-5281
▁style	-5282
▁vises	-5283
▁äkten	-5284
andrine	-5285
aveland	-5286
konkurr	-5287
ländska	-5288
▁Arnold	-5289
▁Hitler	-5290
▁Ivanho	-5291
▁Majest	-5292
▁Melodi	-5293
▁Salten	-5294
▁Sloven	-5295
▁Spring	-5296
▁afslut	-5297
▁därmed	-5298
▁gruppa	-5299
▁høyrer	-5300
▁ifølge	-5301
▁invest	-5302
▁kaldet	-5303
▁kyrkja	-5304
▁months	-5305
▁placer	-5306
▁skilde	-5307
▁titler	-5308
▁utsågs	-5309
▁vatten	-5310
▁äldste	-5311
sspelare	-5312
▁Florida	-5313
▁Harvard	-5314
▁History	-5315
▁Indones	-5316
▁Tidlige	-5317
▁Zealand	-5318
▁enkelte	-5319
▁eventyr	-5320
▁flertal	-5321
▁husband	-5322
▁kontakt	-5323
▁organis	-5324
▁sentral	-5325
▁traditi	-5326
enborgske	-5327
terligare	-5328
▁Karlsson	-5329
▁Kristoff	-5330
▁Michigan	-5331
▁Svalbard	-5332
▁artister	-5333
▁musikere	-5334
▁nordaust	-5335
▁nordlege	-5336
▁redaktør	-5337
▁Gymnasium	-5338
▁Johansson	-5339
▁regerande	-5340
▁Kongeriket	-5341
▁verdskrigen	-5342
▁skådespelaren	-5343
▁manusförfattare	-5344
sg	-5345
tb	-5346
EFA	-5347
bor	-5348
cel	-5349
che	-5350
chi	-5351
cks	-5352
hov	-5353
jan	-5354
ksh	-5355
osf	-5356
ran	-5357
rio	-5358
röm	-5359
ses	-5360
tek	-5361
the	-5362
tod	-5363
uly	-5364
ump	-5365
æss	-5366
ømm	-5367
▁48	-5368
▁81	-5369
▁87	-5370
▁Ax	-5371
▁Så	-5372
▁Tj	-5373
▁VG	-5374
▁ob	-5375
asje	-5376
ehål	-5377
emen	-5378
erin	-5379
espe	-5380
hets	-5381
håll	-5382
inte	-5383
ione	-5384
irée	-5385
itau	-5386
itta	-5387
kamp	-5388
kest	-5389
kong	-5390
kont	-5391
lane	-5392
nsen	-5393
onde	-5394
onwe	-5395
till	-5396
tive	-5397
vind	-5398
▁158	-5399
▁169	-5400
▁Aud	-5401
▁But	-5402
▁Cle	-5403
▁Cra	-5404
▁Dir	-5405
▁Flå	-5406
▁Gaz	-5407
▁Jer	-5408
▁Kal	-5409
▁Luf	-5410
▁Pop	-5411
▁Sko	-5412
▁Sus	-5413
▁Tra	-5414
▁XII	-5415
▁aut	-5416
▁big	-5417
▁bus	-5418
▁dyr	-5419
▁etn	-5420
▁hov	-5421
▁key	-5422
▁mei	-5423
▁mov	-5424
▁pen	-5425
▁rej	-5426
▁rum	-5427
▁sån	-5428
▁tyd	-5429
▁öpp	-5430
banen	-5431
deles	-5432
depar	-5433
eheld	-5434
elvis	-5435
fsson	-5436
gjort	-5437
inale	-5438
inten	-5439
råket	-5440
shold	-5441
siden	-5442
sinde	-5443
skift	-5444
sprog	-5445
øyene	-5446
▁1808	-5447
▁1882	-5448
▁Alab	-5449
▁Brun	-5450
▁Dess	-5451
▁Elle	-5452
▁Fast	-5453
▁Færø	-5454
▁Godz	-5455
▁Home	-5456
▁ISBN	-5457
▁Mand	-5458
▁Side	-5459
▁berg	-5460
▁egne	-5461
▁foun	-5462
▁gren	-5463
▁hjäl	-5464
▁nine	-5465
▁nivå	-5466
▁oppn	-5467
▁page	-5468
▁semi	-5469
▁tolk	-5470
▁åtta	-5471
egrupp	-5472
iggins	-5473
landsk	-5474
samisk	-5475
ställd	-5476
verket	-5477
▁Brown	-5478
▁Bästa	-5479
▁Found	-5480
▁Franz	-5481
▁Games	-5482
▁Josef	-5483
▁Messi	-5484
▁Roger	-5485
▁Sankt	-5486
▁Skole	-5487
▁Tamil	-5488
▁Women	-5489
▁abdic	-5490
▁alene	-5491
▁crime	-5492
▁estab	-5493
▁fører	-5494
▁holdt	-5495
▁landa	-5496
▁large	-5497
▁levde	-5498
▁lærte	-5499
▁novel	-5500
▁opera	-5501
▁optræ	-5502
▁redan	-5503
▁runde	-5504
▁satte	-5505
▁udkom	-5506
▁varav	-5507
ecutive	-5508
ensborg	-5509
ikation	-5510
landske	-5511
▁County	-5512
▁Erling	-5513
▁Nelson	-5514
▁biolog	-5515
▁bokmål	-5516
▁brukes	-5517
▁endast	-5518
▁ranked	-5519
▁scient	-5520
malderen	-5521
onwealth	-5522
orkester	-5523
tyskland	-5524
▁Actress	-5525
▁Alabama	-5526
▁används	-5527
▁baserad	-5528
▁giftede	-5529
▁inledde	-5530
▁overtog	-5531
▁tillbak	-5532
▁tronarv	-5533
▁tävlade	-5534
▁uavheng	-5535
arthquake	-5536
▁Arbeider	-5537
▁herunder	-5538
▁istället	-5539
▁minister	-5540
▁regionen	-5541
▁skiftede	-5542
▁Dagbladet	-5543
▁selskapet	-5544
▁vanlegvis	-5545
▁wrestling	-5546
▁økonomisk	-5547
▁Marienborg	-5548
▁historiske	-5549
▁instrueret	-5550
▁instrument	-5551
▁kvindelige	-5552
▁landskapet	-5553
▁betegnelsen	-5554
▁oldenborgske	-5555
▁organisation	-5556
▁fotbollsspelare	-5557
du	-5558
hr	-5559
ape	-5560
erb	-5561
gre	-5562
lse	-5563
mir	-5564
ols	-5565
rle	-5566
ror	-5567
sem	-5568
slå	-5569
tat	-5570
øve	-5571
▁49	-5572
▁52	-5573
▁62	-5574
▁67	-5575
▁71	-5576
▁84	-5577
▁91	-5578
▁97	-5579
▁AI	-5580
▁FN	-5581
▁SM	-5582
▁pj	-5583
akte	-5584
cher	-5585
dere	-5586
ding	-5587
edde	-5588
edøm	-5589
emus	-5590
erar	-5591
fart	-5592
gade	-5593
gdag	-5594
gjer	-5595
hæng	-5596
ifte	-5597
ipal	-5598
osse	-5599
ulen	-5600
used	-5601
väst	-5602
årig	-5603
▁Bad	-5604
▁Bur	-5605
▁Død	-5606
▁Eug	-5607
▁Jew	-5608
▁Jos	-5609
▁Kor	-5610
▁Leg	-5611
▁Lor	-5612
▁Lyn	-5613
▁Mir	-5614
▁Nag	-5615
▁Ram	-5616
▁Say	-5617
▁Syr	-5618
▁Tim	-5619
▁ank	-5620
▁che	-5621
▁cop	-5622
▁dip	-5623
▁døg	-5624
▁kop	-5625
▁kän	-5626
▁mur	-5627
▁okk	-5628
▁sve	-5629
▁tag	-5630
▁tsu	-5631
▁vek	-5632
▁ves	-5633
atles	-5634
delse	-5635
enten	-5636
ertal	-5637
inert	-5638
istil	-5639
lades	-5640
områd	-5641
plats	-5642
skede	-5643
unene	-5644
våpen	-5645
▁1889	-5646
▁1913	-5647
▁Ferr	-5648
▁Flem	-5649
▁Good	-5650
▁Leif	-5651
▁Line	-5652
▁Lord	-5653
▁Mach	-5654
▁Mick	-5655
▁Moon	-5656
▁Noir	-5657
▁Også	-5658
▁Real	-5659
▁UEFA	-5660
▁When	-5661
▁biog	-5662
▁drep	-5663
▁grän	-5664
▁henh	-5665
▁hurt	-5666
▁krav	-5667
▁kust	-5668
▁leve	-5669
▁opna	-5670
▁sosi	-5671
▁svar	-5672
▁trio	-5673
▁uppv	-5674
▁will	-5675
edagen	-5676
ensive	-5677
erende	-5678
hattan	-5679
iteten	-5680
köping	-5681
remiär	-5682
usland	-5683
vokset	-5684
årsdag	-5685
▁Ernst	-5686
▁Jesus	-5687
▁Known	-5688
▁Poppe	-5689
▁Refer	-5690
▁Shave	-5691
▁Sibyl	-5692
▁Swift	-5693
▁Union	-5694
▁alkoh	-5695
▁alvor	-5696
▁anven	-5697
▁boken	-5698
▁børne	-5699
▁darts	-5700
▁endra	-5701
▁gjeve	-5702
▁hvore	-5703
▁liges	-5704
▁nordm	-5705
▁något	-5706
▁omkom	-5707
▁sjakk	-5708
▁släkt	-5709
▁strid	-5710
▁såsom	-5711
▁troll	-5712
▁träff	-5713
▁tusen	-5714
▁urval	-5715
▁valde	-5716
amgångs	-5717
eringar	-5718
ordenen	-5719
verkeri	-5720
▁Folket	-5721
▁Fylkes	-5722
▁Indien	-5723
▁Jesper	-5724
▁Lystad	-5725
▁Norden	-5726
▁Virgin	-5727
▁Väster	-5728
▁arkite	-5729
▁daglig	-5730
▁dynast	-5731
▁döptes	-5732
▁fourth	-5733
▁ibland	-5734
▁manusk	-5735
▁perman	-5736
▁relati	-5737
▁samlet	-5738
▁skolan	-5739
▁sterkt	-5740
▁Østrig	-5741
▁Ivanhoe	-5742
▁Nikolaj	-5743
▁Russian	-5744
▁Springs	-5745
▁kanalen	-5746
▁kristne	-5747
▁miniser	-5748
▁månader	-5749
▁selskap	-5750
▁slutade	-5751
▁starter	-5752
▁tilldel	-5753
▁virksom	-5754
▁Business	-5755
▁Deretter	-5756
▁Frankrig	-5757
▁byrjinga	-5758
▁distrikt	-5759
▁mandlige	-5760
▁omfattar	-5761
▁starting	-5762
▁stilling	-5763
▁Manhattan	-5764
▁hvorefter	-5765
▁inkludert	-5766
▁julianske	-5767
▁politikar	-5768
▁regerende	-5769
▁stortings	-5770
▁stadsteater	-5771
▁Entertainment	-5772
▁Frederiksberg	-5773
BO	-5774
DA	-5775
cy	-5776
nn	-5777
ua	-5778
xy	-5779
zy	-5780
és	-5781
▁é	-5782
anz	-5783
aud	-5784
but	-5785
eck	-5786
ekn	-5787
eve	-5788
iby	-5789
nda	-5790
oga	-5791
ogg	-5792
oon	-5793
rib	-5794
sst	-5795
stj	-5796
tra	-5797
ukk	-5798
uts	-5799
äkn	-5800
äkt	-5801
▁51	-5802
▁64	-5803
▁73	-5804
▁78	-5805
▁Ca	-5806
▁Dj	-5807
▁FI	-5808
▁NT	-5809
▁OS	-5810
▁Os	-5811
▁Ru	-5812
▁bj	-5813
▁es	-5814
▁ig	-5815
▁næ	-5816
▁tj	-5817
▁væ	-5818
▁ön	-5819
alls	-5820
amot	-5821
asen	-5822
atis	-5823
bred	-5824
brød	-5825
ined	-5826
insk	-5827
isem	-5828
jare	-5829
lene	-5830
møre	-5831
olda	-5832
omer	-5833
rtil	-5834
sken	-5835
snit	-5836
ssam	-5837
tert	-5838
vare	-5839
▁138	-5840
▁148	-5841
▁170	-5842
▁174	-5843
▁175	-5844
▁250	-5845
▁Aal	-5846
▁Boy	-5847
▁Cas	-5848
▁Fug	-5849
▁Gam	-5850
▁Kla	-5851
▁Lil	-5852
▁Myr	-5853
▁Pla	-5854
▁Små	-5855
▁Säs	-5856
▁Tol	-5857
▁doc	-5858
▁fär	-5859
▁gir	-5860
▁græ	-5861
▁hjå	-5862
▁hol	-5863
▁jeg	-5864
▁kva	-5865
▁kör	-5866
▁lim	-5867
▁nio	-5868
▁pil	-5869
▁ran	-5870
▁ren	-5871
▁sag	-5872
▁suc	-5873
▁sæl	-5874
▁väl	-5875
adian	-5876
delar	-5877
ecial	-5878
enser	-5879
føres	-5880
iellt	-5881
ining	-5882
jente	-5883
ludes	-5884
overh	-5885
rling	-5886
styre	-5887
ställ	-5888
tolem	-5889
▁1903	-5890
▁1909	-5891
▁Bang	-5892
▁Bapt	-5893
▁Bros	-5894
▁Buck	-5895
▁Cher	-5896
▁Fire	-5897
▁From	-5898
▁Maur	-5899
▁Mind	-5900
▁Nash	-5901
▁Salm	-5902
▁Sara	-5903
▁Shak	-5904
▁Sogn	-5905
▁Verd	-5906
▁Want	-5907
▁blot	-5908
▁boka	-5909
▁cond	-5910
▁germ	-5911
▁gram	-5912
▁heil	-5913
▁især	-5914
▁jarl	-5915
▁legg	-5916
▁litt	-5917
▁mess	-5918
▁near	-5919
▁paid	-5920
▁punk	-5921
▁rigs	-5922
▁sete	-5923
▁syng	-5924
▁sätt	-5925
▁tråd	-5926
anskje	-5927
iarder	-5928
idered	-5929
iteter	-5930
neider	-5931
parten	-5932
reland	-5933
ringer	-5934
skuesp	-5935
svaret	-5936
taland	-5937
ørende	-5938
▁Aften	-5939
▁Earth	-5940
▁Filip	-5941
▁Flåkl	-5942
▁Høiby	-5943
▁Jakob	-5944
▁Jonas	-5945
▁Phill	-5946
▁Schau	-5947
▁Schul	-5948
▁Svent	-5949
▁agent	-5950
▁betyr	-5951
▁danse	-5952
▁enter	-5953
▁fader	-5954
▁klart	-5955
▁kunde	-5956
▁låter	-5957
▁older	-5958
▁papir	-5959
▁sentr	-5960
▁snart	-5961
▁stork	-5962
▁stund	-5963
▁trona	-5964
▁visse	-5965
fession	-5966
geloven	-5967
itionen	-5968
sakelig	-5969
årstale	-5970
▁Amanda	-5971
▁Atlant	-5972
▁Barbie	-5973
▁Kassel	-5974
▁Kongen	-5975
▁Svarte	-5976
▁Tsjekk	-5977
▁behand	-5978
▁bygger	-5979
▁böcker	-5980
▁elektr	-5981
▁keiser	-5982
▁marked	-5983
▁områda	-5984
▁online	-5985
▁sjette	-5986
▁slaget	-5987
▁støtte	-5988
▁sønner	-5989
▁utgjer	-5990
▁utgjør	-5991
▁äldsta	-5992
▁Aalborg	-5993
▁Bjørgen	-5994
▁Chicago	-5995
▁Herbert	-5996
▁Kongens	-5997
▁Seinare	-5998
▁Twitter	-5999
▁arbetat	-6000
▁austral	-6001
▁founded	-6002
▁founder	-6003
▁halvøya	-6004
▁kanskje	-6005
▁ligesom	-6006
▁overtok	-6007
▁samiske	-6008
▁teksten	-6009
▁uttrykk	-6010
högskolan	-6011
▁Canadian	-6012
▁Carolina	-6013
▁Götaland	-6014
▁Lyngstad	-6015
▁Ragnhild	-6016
▁Vestland	-6017
▁baseball	-6018
▁landskap	-6019
▁opvokset	-6020
▁särskilt	-6021
▁tjeneste	-6022
▁uppmärks	-6023
▁uppvuxen	-6024
▁Bonaparte	-6025
▁Drottning	-6026
▁Selskapet	-6027
▁gymnasiet	-6028
▁kategorin	-6029
▁kringkast	-6030
▁milliarder	-6031
▁självständ	-6032
organisation	-6033
▁parlamentarisk	-6034
21	-6035
fa	-6036
jl	-6037
nj	-6038
act	-6039
eus	-6040
ici	-6041
idi	-6042
ieg	-6043
imi	-6044
keb	-6045
lik	-6046
lyg	-6047
mei	-6048
mil	-6049
mær	-6050
roe	-6051
sag	-6052
ssp	-6053
syl	-6054
tip	-6055
utd	-6056
æde	-6057
▁01	-6058
▁07	-6059
▁39	-6060
▁69	-6061
▁86	-6062
▁94	-6063
▁96	-6064
▁Dy	-6065
▁Hæ	-6066
▁SN	-6067
▁ej	-6068
▁nä	-6069
▁ry	-6070
▁rö	-6071
ador	-6072
alde	-6073
avar	-6074
brog	-6075
grad	-6076
hjem	-6077
itel	-6078
ives	-6079
mine	-6080
mond	-6081
onia	-6082
opol	-6083
ourt	-6084
rona	-6085
sser	-6086
sång	-6087
udia	-6088
ured	-6089
uthi	-6090
veld	-6091
værd	-6092
åede	-6093
øtre	-6094
▁153	-6095
▁Adr	-6096
▁Ast	-6097
▁Die	-6098
▁Est	-6099
▁Fle	-6100
▁Fru	-6101
▁HBO	-6102
▁Kle	-6103
▁Kos	-6104
▁Mis	-6105
▁Nok	-6106
▁Tur	-6107
▁aks	-6108
▁cap	-6109
▁def	-6110
▁ene	-6111
▁few	-6112
▁fut	-6113
▁hof	-6114
▁lad	-6115
▁moh	-6116
▁mye	-6117
▁net	-6118
▁nev	-6119
▁own	-6120
▁pot	-6121
▁røy	-6122
▁sjö	-6123
▁tel	-6124
aktig	-6125
errik	-6126
kkjer	-6127
oment	-6128
quist	-6129
rayed	-6130
retts	-6131
rikes	-6132
stænd	-6133
vania	-6134
▁1869	-6135
▁1895	-6136
▁1899	-6137
▁Axel	-6138
▁Blod	-6139
▁Cage	-6140
▁Cath	-6141
▁Fant	-6142
▁Gaza	-6143
▁Hell	-6144
▁Hund	-6145
▁Ivar	-6146
▁Kali	-6147
▁Kath	-6148
▁Kjær	-6149
▁Møre	-6150
▁Namn	-6151
▁Paus	-6152
▁Pier	-6153
▁Sayn	-6154
▁Schw	-6155
▁Selv	-6156
▁Sent	-6157
▁Shaw	-6158
▁Till	-6159
▁Trav	-6160
▁Ture	-6161
▁Witt	-6162
▁djup	-6163
▁doll	-6164
▁drev	-6165
▁earl	-6166
▁egna	-6167
▁erkl	-6168
▁fler	-6169
▁grek	-6170
▁leks	-6171
▁oppk	-6172
▁psyk	-6173
▁self	-6174
▁take	-6175
▁trop	-6176
▁tung	-6177
▁Åren	-6178
asinet	-6179
eleine	-6180
hertug	-6181
istens	-6182
musikk	-6183
resund	-6184
sident	-6185
søster	-6186
▁Agder	-6187
▁Anker	-6188
▁Bratt	-6189
▁Desse	-6190
▁Fried	-6191
▁Grace	-6192
▁Kings	-6193
▁Latin	-6194
▁Ocean	-6195
▁Olavs	-6196
▁Their	-6197
▁Volda	-6198
▁bakgr	-6199
▁bolig	-6200
▁confl	-6201
▁døtre	-6202
▁fiske	-6203
▁games	-6204
▁källa	-6205
▁miljø	-6206
▁møtte	-6207
▁north	-6208
▁nåede	-6209
▁owner	-6210
▁poeng	-6211
▁seier	-6212
▁skott	-6213
▁slutt	-6214
▁sterk	-6215
▁styrk	-6216
▁taget	-6217
▁utvid	-6218
▁voice	-6219
atabase	-6220
familie	-6221
rollene	-6222
skiftet	-6223
umenter	-6224
▁Barcel	-6225
▁Carlos	-6226
▁Cruise	-6227
▁Jordan	-6228
▁Julian	-6229
▁Jørgen	-6230
▁Ledger	-6231
▁Marius	-6232
▁Morgan	-6233
▁Rikard	-6234
▁Slovak	-6235
▁Sonder	-6236
▁Viborg	-6237
▁Vinter	-6238
▁across	-6239
▁biskop	-6240
▁bygget	-6241
▁eksped	-6242
▁endret	-6243
▁fødsel	-6244
▁konges	-6245
▁numera	-6246
▁oftast	-6247
▁omgrep	-6248
▁revyer	-6249
▁sister	-6250
▁skotår	-6251
▁språka	-6252
▁tidene	-6253
▁vänner	-6254
rlingske	-6255
sfjorden	-6256
sylvania	-6257
▁Carlsen	-6258
▁Central	-6259
▁Collins	-6260
▁Familie	-6261
▁Området	-6262
▁Oppland	-6263
▁Simpson	-6264
▁Småland	-6265
▁Wittgen	-6266
▁illustr	-6267
▁marknad	-6268
▁omtrent	-6269
▁pageant	-6270
▁tillfäl	-6271
▁vitskap	-6272
neippbrød	-6273
▁Bruckner	-6274
▁Mathilde	-6275
▁Portugal	-6276
▁Schulman	-6277
▁Virginia	-6278
▁kontrakt	-6279
▁kunstner	-6280
▁nordlige	-6281
▁politiet	-6282
▁referred	-6283
▁tillbaka	-6284
▁Madeleine	-6285
▁betydning	-6286
▁inklusive	-6287
▁religiøse	-6288
▁storebror	-6289
▁tronfølge	-6290
▁Østerrike	-6291
▁Folkeparti	-6292
▁Sandefjord	-6293
▁artikkelen	-6294
▁fødselsdag	-6295
▁italienske	-6296
▁Christensen	-6297
▁Holmenkollen	-6298
▁Nederlandene	-6299
▁relationship	-6300
dt	-6301
hl	-6302
jr	-6303
øe	-6304
ace	-6305
awa	-6306
aya	-6307
cia	-6308
hew	-6309
ify	-6310
iki	-6311
ixt	-6312
mag	-6313
oro	-6314
ram	-6315
ril	-6316
ssa	-6317
stå	-6318
trä	-6319
yer	-6320
öld	-6321
öts	-6322
▁05	-6323
▁08	-6324
▁79	-6325
▁95	-6326
▁DN	-6327
▁Ko	-6328
▁Of	-6329
▁lj	-6330
▁vä	-6331
agte	-6332
anen	-6333
anth	-6334
dent	-6335
ells	-6336
eman	-6337
esta	-6338
fisk	-6339
gäng	-6340
gæng	-6341
iant	-6342
imil	-6343
klar	-6344
kole	-6345
ldra	-6346
ndag	-6347
rade	-6348
rane	-6349
rådt	-6350
skid	-6351
uard	-6352
uble	-6353
unar	-6354
unge	-6355
veks	-6356
vere	-6357
ving	-6358
værk	-6359
ønns	-6360
▁160	-6361
▁168	-6362
▁Abb	-6363
▁Att	-6364
▁Bah	-6365
▁Cur	-6366
▁Dak	-6367
▁Dun	-6368
▁Eld	-6369
▁Esp	-6370
▁Gjø	-6371
▁Hum	-6372
▁Jeg	-6373
▁Kas	-6374
▁Lew	-6375
▁Mør	-6376
▁Någ	-6377
▁Odd	-6378
▁Ove	-6379
▁Ret	-6380
▁Sav	-6381
▁Win	-6382
▁bla	-6383
▁blå	-6384
▁etc	-6385
▁fug	-6386
▁hin	-6387
▁imp	-6388
▁kre	-6389
▁lin	-6390
▁mis	-6391
▁nab	-6392
▁pod	-6393
▁pra	-6394
▁run	-6395
▁sil	-6396
▁use	-6397
aimed	-6398
alace	-6399
attar	-6400
bøker	-6401
dende	-6402
entar	-6403
erike	-6404
igert	-6405
lgien	-6406
ligan	-6407
orian	-6408
strøm	-6409
ungen	-6410
vaeus	-6411
väten	-6412
yllup	-6413
ället	-6414
▁1896	-6415
▁Amal	-6416
▁Foss	-6417
▁Gary	-6418
▁Glad	-6419
▁Grek	-6420
▁Haug	-6421
▁Hong	-6422
▁Hopp	-6423
▁Hugo	-6424
▁Jess	-6425
▁Juni	-6426
▁Kate	-6427
▁Kurt	-6428
▁Like	-6429
▁Odin	-6430
▁Parl	-6431
▁Rich	-6432
▁Ruth	-6433
▁Ryan	-6434
▁Tasm	-6435
▁Voss	-6436
▁aner	-6437
▁bord	-6438
▁fant	-6439
▁gent	-6440
▁gjev	-6441
▁kalk	-6442
▁leia	-6443
▁magn	-6444
▁mord	-6445
▁peng	-6446
▁rikt	-6447
▁ring	-6448
▁sats	-6449
▁sitc	-6450
▁slot	-6451
▁sten	-6452
▁vedt	-6453
ariket	-6454
haldet	-6455
holdet	-6456
inemat	-6457
itauen	-6458
jorden	-6459
olding	-6460
republ	-6461
skning	-6462
uksjon	-6463
ælland	-6464
▁Blues	-6465
▁Bonde	-6466
▁Claus	-6467
▁Jason	-6468
▁Julie	-6469
▁Liste	-6470
▁Pippi	-6471
▁Revol	-6472
▁Saman	-6473
▁Slott	-6474
▁Svart	-6475
▁Svein	-6476
▁anled	-6477
▁bruka	-6478
▁duoen	-6479
▁enten	-6480
▁fleir	-6481
▁flykt	-6482
▁helst	-6483
▁samle	-6484
▁skisk	-6485
▁slags	-6486
▁techn	-6487
▁vansk	-6488
▁övrig	-6489
▁øyane	-6490
ationen	-6491
grupper	-6492
iblandt	-6493
jylland	-6494
levende	-6495
minster	-6496
oldsvis	-6497
▁Galile	-6498
▁Ingvar	-6499
▁Jewish	-6500
▁Julius	-6501
▁Nansen	-6502
▁Sangen	-6503
▁Sydney	-6504
▁Vester	-6505
▁Walker	-6506
▁deltak	-6507
▁diplom	-6508
▁domest	-6509
▁ekstra	-6510
▁erhöll	-6511
▁hjælpe	-6512
▁hvorav	-6513
▁kampen	-6514
▁mester	-6515
▁nesten	-6516
▁prædik	-6517
▁terror	-6518
▁toppen	-6519
▁transl	-6520
▁vundet	-6521
▁väster	-6522
itenskap	-6523
ologiske	-6524
sekretær	-6525
▁Ireland	-6526
▁Jylland	-6527
▁Litauen	-6528
▁Machine	-6529
▁Northug	-6530
▁Solberg	-6531
▁Sventon	-6532
▁Tidende	-6533
▁Ulvaeus	-6534
▁current	-6535
▁engager	-6536
▁optaget	-6537
▁pianist	-6538
▁språket	-6539
▁strateg	-6540
▁tilgjen	-6541
▁uppväxt	-6542
▁økonomi	-6543
▁Database	-6544
▁Herefter	-6545
▁Kungliga	-6546
▁Majestæt	-6547
▁Mountain	-6548
▁anvendes	-6549
▁ekteskap	-6550
▁hinanden	-6551
▁keyboard	-6552
▁komposit	-6553
▁kriminal	-6554
▁medaljer	-6555
▁overført	-6556
▁position	-6557
▁regenter	-6558
▁säsonger	-6559
▁utviklet	-6560
▁Derudover	-6561
▁Frederiks	-6562
▁President	-6563
▁Schneider	-6564
▁appearing	-6565
▁föräldrar	-6566
▁initially	-6567
▁officielt	-6568
▁viktigste	-6569
▁egentligen	-6570
▁konfession	-6571
▁sangerinde	-6572
▁tronarving	-6573
▁Fredensborg	-6574
▁Svartehavet	-6575
▁begynnelsen	-6576
▁författaren	-6577
▁henholdsvis	-6578
▁regjeringen	-6579
▁Kristiansand	-6580
▁Frederiksborg	-6581
▁konfessionarius	-6582
fo	-6583
hm	-6584
kh	-6585
vs	-6586
zo	-6587
ado	-6588
atl	-6589
bod	-6590
cal	-6591
gik	-6592
gör	-6593
iks	-6594
lie	-6595
mon	-6596
ods	-6597
olo	-6598
oni	-6599
osl	-6600
røm	-6601
søg	-6602
uba	-6603
uer	-6604
ulk	-6605
väl	-6606
win	-6607
yen	-6608
▁09	-6609
▁54	-6610
▁57	-6611
▁66	-6612
▁72	-6613
▁93	-6614
▁98	-6615
▁DM	-6616
▁FA	-6617
▁Gn	-6618
▁Kh	-6619
▁SS	-6620
▁ka	-6621
▁li	-6622
▁rø	-6623
▁ug	-6624
▁Ås	-6625
▁åp	-6626
▁ær	-6627
adel	-6628
amie	-6629
amin	-6630
andy	-6631
avel	-6632
best	-6633
biog	-6634
bygd	-6635
ered	-6636
haug	-6637
herr	-6638
iano	-6639
ians	-6640
ides	-6641
iffe	-6642
ilda	-6643
ming	-6644
ollo	-6645
onds	-6646
pper	-6647
skol	-6648
stra	-6649
teik	-6650
trøm	-6651
umar	-6652
utan	-6653
ømet	-6654
▁101	-6655
▁136	-6656
▁163	-6657
▁Ala	-6658
▁Cav	-6659
▁Cre	-6660
▁Dyr	-6661
▁Dés	-6662
▁Hag	-6663
▁Haw	-6664
▁Hil	-6665
▁Hög	-6666
▁Imp	-6667
▁Isl	-6668
▁Ker	-6669
▁Lag	-6670
▁Lan	-6671
▁Mos	-6672
▁NBC	-6673
▁Now	-6674
▁Rud	-6675
▁Syn	-6676
▁Tes	-6677
▁Var	-6678
▁arg	-6679
▁bøn	-6680
▁cer	-6681
▁dep	-6682
▁dru	-6683
▁dår	-6684
▁fig	-6685
▁les	-6686
▁løs	-6687
▁män	-6688
▁now	-6689
▁opg	-6690
▁sål	-6691
▁tap	-6692
▁tju	-6693
▁vad	-6694
abrik	-6695
ansas	-6696
arvik	-6697
enden	-6698
ender	-6699
enede	-6700
gaste	-6701
iende	-6702
ingsl	-6703
ippet	-6704
irkus	-6705
istre	-6706
kring	-6707
offic	-6708
onsin	-6709
ordan	-6710
polit	-6711
råkan	-6712
shavn	-6713
shire	-6714
ssons	-6715
ømmer	-6716
ørdag	-6717
▁1100	-6718
▁1660	-6719
▁Aker	-6720
▁Ball	-6721
▁Brad	-6722
▁Conn	-6723
▁Dato	-6724
▁Down	-6725
▁Fort	-6726
▁Frem	-6727
▁Grön	-6728
▁Herm	-6729
▁Inga	-6730
▁Jeff	-6731
▁Kent	-6732
▁Linz	-6733
▁Lise	-6734
▁Lyon	-6735
▁Marc	-6736
▁Moss	-6737
▁NTNU	-6738
▁Nass	-6739
▁Orig	-6740
▁Reed	-6741
▁Sher	-6742
▁Some	-6743
▁That	-6744
▁Tolk	-6745
▁Tyrk	-6746
▁Wolf	-6747
▁amat	-6748
▁cert	-6749
▁conv	-6750
▁coup	-6751
▁down	-6752
▁emer	-6753
▁ende	-6754
▁förl	-6755
▁hald	-6756
▁høgt	-6757
▁jakt	-6758
▁koll	-6759
▁komp	-6760
▁kost	-6761
▁kære	-6762
▁lans	-6763
▁lykk	-6764
▁lyst	-6765
▁oppt	-6766
▁preg	-6767
▁skab	-6768
▁snab	-6769
▁stab	-6770
ailand	-6771
arbete	-6772
elskap	-6773
entzen	-6774
erings	-6775
ringen	-6776
tundes	-6777
vester	-6778
▁Abbey	-6779
▁Aleks	-6780
▁Antar	-6781
▁Blant	-6782
▁Blood	-6783
▁Chart	-6784
▁Child	-6785
▁China	-6786
▁Costa	-6787
▁Crowe	-6788
▁Fayed	-6789
▁Fødde	-6790
▁Guild	-6791
▁Guill	-6792
▁Konst	-6793
▁Lewis	-6794
▁Nokre	-6795
▁Paret	-6796
▁Sidan	-6797
▁Sofie	-6798
▁Sprog	-6799
▁Tomas	-6800
▁adapt	-6801
▁advok	-6802
▁aired	-6803
▁artar	-6804
▁bedre	-6805
▁behöv	-6806
▁beveg	-6807
▁brons	-6808
▁dager	-6809
▁decid	-6810
▁delta	-6811
▁eigne	-6812
▁engag	-6813
▁försö	-6814
▁gamal	-6815
▁gjera	-6816
▁kaldt	-6817
▁kompl	-6818
▁label	-6819
▁moren	-6820
▁någon	-6821
▁resul	-6822
▁skule	-6823
▁Ørsta	-6824
achelor	-6825
amerika	-6826
enhagen	-6827
jeneste	-6828
ksjoner	-6829
ossible	-6830
smedlem	-6831
uctions	-6832
yllands	-6833
▁Lovisa	-6834
▁Monica	-6835
▁Møller	-6836
▁Oliver	-6837
▁Palace	-6838
▁Ptolem	-6839
▁Skuesp	-6840
▁Winter	-6841
▁afsnit	-6842
▁bakken	-6843
▁bruker	-6844
▁etappe	-6845
▁global	-6846
▁gongen	-6847
▁gratis	-6848
▁israel	-6849
▁politi	-6850
▁sitcom	-6851
▁streng	-6852
▁sønnen	-6853
▁tidigt	-6854
▁valdes	-6855
høgskole	-6856
sättning	-6857
▁Désirée	-6858
▁Nordisk	-6859
▁Rowling	-6860
▁Sibylla	-6861
▁Skandin	-6862
▁Special	-6863
▁alkohol	-6864
▁attende	-6865
▁eksamen	-6866
▁fødslen	-6867
▁klokken	-6868
▁koncert	-6869
▁korleis	-6870
▁ledende	-6871
▁lengste	-6872
▁medlemm	-6873
▁militär	-6874
▁motsvar	-6875
▁musikar	-6876
▁nordøst	-6877
▁partici	-6878
▁pronunc	-6879
▁reklame	-6880
▁retning	-6881
▁riksdag	-6882
▁romaner	-6883
▁vanlege	-6884
▁Familien	-6885
▁Færøyane	-6886
▁Ingeborg	-6887
▁Kristina	-6888
▁Kroatien	-6889
▁Oppvekst	-6890
▁Rogaland	-6891
▁Roskilde	-6892
▁Thailand	-6893
▁Wahlgren	-6894
▁artiklen	-6895
▁brukarar	-6896
▁children	-6897
▁composed	-6898
▁genomför	-6899
▁leksikon	-6900
▁monarker	-6901
▁optrådte	-6902
▁publikum	-6903
▁replaced	-6904
▁spelades	-6905
▁strekker	-6906
▁träffade	-6907
▁vinteren	-6908
delalderen	-6909
instrument	-6910
ministeren	-6911
▁Barcelona	-6912
▁Innlandet	-6913
▁Lorentzen	-6914
▁Louisiana	-6915
▁Nordsjøen	-6916
▁austerrik	-6917
▁längdskid	-6918
▁political	-6919
▁provinsen	-6920
▁selvstænd	-6921
▁underhåll	-6922
▁Østlandet	-6923
▁Copenhagen	-6924
▁Kristiania	-6925
▁considered	-6926
▁dronninger	-6927
▁earthquake	-6928
▁soloartist	-6929
eteorologisk	-6930
▁Westminster	-6931
ht	-6932
lk	-6933
si	-6934
afs	-6935
aka	-6936
asj	-6937
bog	-6938
bäv	-6939
erd	-6940
eri	-6941
esj	-6942
eth	-6943
fyr	-6944
hre	-6945
log	-6946
mak	-6947
oku	-6948
ope	-6949
rey	-6950
rin	-6951
smä	-6952
tty	-6953
uke	-6954
ute	-6955
vit	-6956
ydd	-6957
årt	-6958
øtt	-6959
▁03	-6960
▁53	-6961
▁59	-6962
▁68	-6963
▁83	-6964
▁89	-6965
▁Hö	-6966
▁Il	-6967
▁Ky	-6968
▁NO	-6969
▁SI	-6970
▁WW	-6971
▁XV	-6972
▁jo	-6973
▁kg	-6974
▁lo	-6975
▁Ål	-6976
▁ök	-6977
apen	-6978
aude	-6979
ause	-6980
avor	-6981
bein	-6982
ccur	-6983
eden	-6984
ento	-6985
gick	-6986
hing	-6987
ifer	-6988
ifik	-6989
imar	-6990
imin	-6991
leys	-6992
ngen	-6993
olly	-6994
omic	-6995
plan	-6996
rust	-6997
sdag	-6998
sför	-6999
sjef	-7000
sætt	-7001
trar	-7002
ucci	-7003
uced	-7004
uled	-7005
unic	-7006
yler	-7007
äste	-7008
ågan	-7009
ålet	-7010
▁120	-7011
▁145	-7012
▁155	-7013
▁900	-7014
▁AFC	-7015
▁Ash	-7016
▁Bry	-7017
▁Dom	-7018
▁Eid	-7019
▁Eno	-7020
▁Gil	-7021
▁Hov	-7022
▁ISO	-7023
▁Ish	-7024
▁Jay	-7025
▁Jef	-7026
▁Jim	-7027
▁Jun	-7028
▁Kom	-7029
▁Leo	-7030
▁Lib	-7031
▁Mur	-7032
▁Nya	-7033
▁Pan	-7034
▁Sar	-7035
▁Swe	-7036
▁Tok	-7037
▁Tyr	-7038
▁car	-7039
▁cas	-7040
▁dit	-7041
▁dra	-7042
▁dre	-7043
▁fal	-7044
▁fan	-7045
▁hål	-7046
▁idé	-7047
▁lon	-7048
▁naz	-7049
▁oss	-7050
▁sti	-7051
▁udv	-7052
▁øen	-7053
aktör	-7054
asaki	-7055
björn	-7056
bolig	-7057
borgs	-7058
delig	-7059
eater	-7060
geren	-7061
ikael	-7062
ikkar	-7063
inalt	-7064
ivert	-7065
kabet	-7066
klubb	-7067
opold	-7068
opper	-7069
oppet	-7070
orgon	-7071
orter	-7072
plate	-7073
rayal	-7074
rmany	-7075
schef	-7076
ships	-7077
tiple	-7078
usdal	-7079
yrkes	-7080
▁1848	-7081
▁1859	-7082
▁1870	-7083
▁1892	-7084
▁1904	-7085
▁1914	-7086
▁Adel	-7087
▁Ahle	-7088
▁Anka	-7089
▁Bare	-7090
▁Bron	-7091
▁Dark	-7092
▁Falk	-7093
▁Fogh	-7094
▁Gade	-7095
▁Gren	-7096
▁Gyld	-7097
▁Gård	-7098
▁Half	-7099
▁Hawa	-7100
▁Jule	-7101
▁Last	-7102
▁Lena	-7103
▁Lång	-7104
▁Made	-7105
▁Mosk	-7106
▁Oluf	-7107
▁Ryss	-7108
▁Shel	-7109
▁Skol	-7110
▁Teck	-7111
▁Tore	-7112
▁Week	-7113
▁body	-7114
▁date	-7115
▁diam	-7116
▁erob	-7117
▁göra	-7118
▁help	-7119
▁idag	-7120
▁idet	-7121
▁kart	-7122
▁love	-7123
▁magt	-7124
▁male	-7125
▁musl	-7126
▁målt	-7127
▁olje	-7128
▁styl	-7129
▁säga	-7130
▁tank	-7131
▁ting	-7132
▁view	-7133
abrikk	-7134
ansett	-7135
ansier	-7136
handel	-7137
kråkan	-7138
kysten	-7139
lassen	-7140
teater	-7141
undtra	-7142
ästare	-7143
åkning	-7144
▁Agnet	-7145
▁Alger	-7146
▁Arena	-7147
▁Death	-7148
▁Falun	-7149
▁Fargo	-7150
▁Feder	-7151
▁Hamar	-7152
▁Helin	-7153
▁Hilde	-7154
▁Hotel	-7155
▁Inden	-7156
▁Kunst	-7157
▁Lejon	-7158
▁Lippe	-7159
▁Medal	-7160
▁Moore	-7161
▁Myhre	-7162
▁Neder	-7163
▁Orden	-7164
▁Oslof	-7165
▁Sandr	-7166
▁Svend	-7167
▁Wrest	-7168
▁aften	-7169
▁again	-7170
▁brugt	-7171
▁bøger	-7172
▁därpå	-7173
▁guest	-7174
▁hebra	-7175
▁jorda	-7176
▁kanal	-7177
▁klima	-7178
▁kveld	-7179
▁linje	-7180
▁lived	-7181
▁løbet	-7182
▁neste	-7183
▁owned	-7184
▁plays	-7185
▁refer	-7186
▁relea	-7187
▁sched	-7188
▁sider	-7189
▁solok	-7190
▁south	-7191
▁stoff	-7192
▁styrt	-7193
▁sådan	-7194
▁tilbr	-7195
▁tving	-7196
▁utgje	-7197
▁Århus	-7198
▁ældre	-7199
enteret	-7200
förande	-7201
istiska	-7202
ksamhet	-7203
medalje	-7204
tbatten	-7205
ubileum	-7206
usjonen	-7207
▁Advent	-7208
▁Bonnie	-7209
▁Bulgar	-7210
▁Enligt	-7211
▁Gjøvik	-7212
▁Harlem	-7213
▁Helene	-7214
▁Holger	-7215
▁Ingolf	-7216
▁Kalmar	-7217
▁Mikael	-7218
▁Morten	-7219
▁Newton	-7220
▁People	-7221
▁Sesong	-7222
▁Songen	-7223
▁Sverre	-7224
▁Tyrkia	-7225
▁Ungdom	-7226
▁advent	-7227
▁establ	-7228
▁fiolin	-7229
▁förhål	-7230
▁högsta	-7231
▁hösten	-7232
▁ingick	-7233
▁jødisk	-7234
▁kriget	-7235
▁krimin	-7236
▁kungen	-7237
▁listen	-7238
▁mindst	-7239
▁office	-7240
▁oftest	-7241
▁police	-7242
▁scenen	-7243
▁skotsk	-7244
▁solist	-7245
▁stilen	-7246
▁styrke	-7247
▁throne	-7248
▁tjänst	-7249
▁trådte	-7250
▁vendte	-7251
▁Barbara	-7252
▁Britain	-7253
▁Classic	-7254
▁Clausen	-7255
▁Denmark	-7256
▁However	-7257
▁Landets	-7258
▁Poulsen	-7259
▁Program	-7260
▁Salming	-7261
▁artists	-7262
▁medisin	-7263
▁omdirig	-7264
▁opnåede	-7265
▁opvækst	-7266
▁populär	-7267
▁romanen	-7268
▁samling	-7269
▁stundom	-7270
▁svenskt	-7271
▁tilsett	-7272
▁tiltale	-7273
▁viktige	-7274
▁younger	-7275
▁äventyr	-7276
▁ægtefæl	-7277
▁Birgitta	-7278
▁Därefter	-7279
▁Forenede	-7280
▁Fredriks	-7281
▁Nederlän	-7282
▁Nørgaard	-7283
▁Phillips	-7284
▁Politisk	-7285
▁addition	-7286
▁consists	-7287
▁ingeniør	-7288
▁interest	-7289
▁katolske	-7290
▁liknande	-7291
▁någonsin	-7292
▁palestin	-7293
▁republik	-7294
▁residens	-7295
▁resultat	-7296
▁sketchen	-7297
▁sprinten	-7298
▁utgjorde	-7299
instruktør	-7300
▁Administr	-7301
▁Ahlefeldt	-7302
▁Frederick	-7303
▁Gyldendal	-7304
▁Tidligere	-7305
▁arveprins	-7306
▁musikalsk	-7307
▁människor	-7308
▁nasjonald	-7309
▁permanent	-7310
▁äktenskap	-7311
▁Foundation	-7312
▁Kongeriget	-7313
▁Regeringen	-7314
▁Saltkråkan	-7315
▁adaptation	-7316
▁dokumentar	-7317
▁heriblandt	-7318
▁hertuginde	-7319
▁indbyggere	-7320
▁inkluderer	-7321
▁kategorien	-7322
▁nordsamisk	-7323
▁økonomiske	-7324
▁Christiania	-7325
▁Fredrikstad	-7326
▁Mountbatten	-7327
▁distributed	-7328
▁repræsenter	-7329
▁henvisninger	-7330
▁Östergötland	-7331
22	-7332
EN	-7333
XX	-7334
lo	-7335
mo	-7336
nh	-7337
sr	-7338
yo	-7339
ahn	-7340
aku	-7341
alo	-7342
auk	-7343
avs	-7344
bal	-7345
bed	-7346
bir	-7347
byr	-7348
ces	-7349
cka	-7350
con	-7351
eli	-7352
eta	-7353
evn	-7354
gon	-7355
hea	-7356
hic	-7357
jay	-7358
kta	-7359
lat	-7360
lid	-7361
lyn	-7362
mas	-7363
mat	-7364
nan	-7365
oli	-7366
que	-7367
rej	-7368
row	-7369
sky	-7370
sso	-7371
sti	-7372
tro	-7373
uen	-7374
väg	-7375
ält	-7376
åre	-7377
ørt	-7378
▁04	-7379
▁06	-7380
▁Hv	-7381
▁NS	-7382
▁Nu	-7383
▁Ug	-7384
▁if	-7385
▁lø	-7386
▁va	-7387
amet	-7388
anke	-7389
aves	-7390
away	-7391
brug	-7392
ckan	-7393
down	-7394
ekan	-7395
enge	-7396
eted	-7397
felt	-7398
foss	-7399
halv	-7400
iane	-7401
imer	-7402
isha	-7403
makt	-7404
mosf	-7405
odes	-7406
ogue	-7407
olta	-7408
oner	-7409
only	-7410
outh	-7411
phia	-7412
sche	-7413
sene	-7414
show	-7415
ssen	-7416
syns	-7417
tige	-7418
unal	-7419
änts	-7420
ärde	-7421
ølve	-7422
▁115	-7423
▁141	-7424
▁167	-7425
▁Ari	-7426
▁Emp	-7427
▁Fly	-7428
▁Gas	-7429
▁Hor	-7430
▁Ice	-7431
▁Ike	-7432
▁Jug	-7433
▁Kid	-7434
▁Lah	-7435
▁Lim	-7436
▁Mem	-7437
▁Mån	-7438
▁Not	-7439
▁Ord	-7440
▁Ork	-7441
▁Rav	-7442
▁Ray	-7443
▁Rob	-7444
▁Råd	-7445
▁Sab	-7446
▁Sjø	-7447
▁Sud	-7448
▁Tit	-7449
▁Tje	-7450
▁Vla	-7451
▁Väl	-7452
▁Who	-7453
▁Wid	-7454
▁Won	-7455
▁air	-7456
▁bal	-7457
▁dik	-7458
▁flø	-7459
▁hip	-7460
▁hvo	-7461
▁may	-7462
▁nøy	-7463
▁pjä	-7464
▁poj	-7465
▁rød	-7466
▁saw	-7467
▁sle	-7468
▁såg	-7469
▁tab	-7470
▁väg	-7471
▁änd	-7472
aktär	-7473
anley	-7474
edans	-7475
ement	-7476
essig	-7477
etsar	-7478
föret	-7479
fødte	-7480
gande	-7481
gelse	-7482
hamed	-7483
icket	-7484
idige	-7485
igste	-7486
isere	-7487
klass	-7488
kvart	-7489
labor	-7490
levde	-7491
orary	-7492
ridge	-7493
rnard	-7494
slått	-7495
stånd	-7496
tnant	-7497
usine	-7498
usten	-7499
venth	-7500
äknas	-7501
åkare	-7502
øster	-7503
▁1300	-7504
▁1818	-7505
▁1898	-7506
▁Balt	-7507
▁Boys	-7508
▁Bryg	-7509
▁Char	-7510
▁Dead	-7511
▁Deep	-7512
▁Døde	-7513
▁Etym	-7514
▁Gjer	-7515
▁Happ	-7516
▁Krag	-7517
▁Lock	-7518
▁Main	-7519
▁Mort	-7520
▁Nett	-7521
▁Plan	-7522
▁Rain	-7523
▁Roma	-7524
▁Snow	-7525
▁Wald	-7526
▁Wood	-7527
▁acqu	-7528
▁besø	-7529
▁brig	-7530
▁bäst	-7531
▁conn	-7532
▁cred	-7533
▁dags	-7534
▁dart	-7535
▁døgn	-7536
▁enev	-7537
▁hens	-7538
▁kant	-7539
▁klar	-7540
▁klub	-7541
▁kona	-7542
▁konc	-7543
▁krog	-7544
▁käll	-7545
▁lade	-7546
▁lige	-7547
▁lyss	-7548
▁park	-7549
▁prof	-7550
▁rekn	-7551
▁sagt	-7552
▁seri	-7553
▁sjef	-7554
▁spor	-7555
▁strå	-7556
▁suff	-7557
▁tala	-7558
▁tent	-7559
▁trol	-7560
aining	-7561
berett	-7562
father	-7563
konomi	-7564
krigen	-7565
kshire	-7566
ktions	-7567
linjen	-7568
menter	-7569
ningom	-7570
otland	-7571
raying	-7572
regiss	-7573
rström	-7574
ruppen	-7575
skaper	-7576
skende	-7577
styrke	-7578
veksle	-7579
▁Annie	-7580
▁Baden	-7581
▁Cohen	-7582
▁Color	-7583
▁Dessa	-7584
▁Disse	-7585
▁Dream	-7586
▁Force	-7587
▁Gnags	-7588
▁Imper	-7589
▁Ingen	-7590
▁Monte	-7591
▁Never	-7592
▁Några	-7593
▁Opera	-7594
▁Reder	-7595
▁Roald	-7596
▁Scene	-7597
▁Sibir	-7598
▁Sjølv	-7599
▁Solna	-7600
▁Tyler	-7601
▁almin	-7602
▁anerk	-7603
▁angre	-7604
▁beröm	-7605
▁beteg	-7606
▁bevar	-7607
▁condu	-7608
▁descr	-7609
▁endte	-7610
▁firma	-7611
▁kropp	-7612
▁månad	-7613
▁navne	-7614
▁nedst	-7615
▁occur	-7616
▁overh	-7617
▁rolla	-7618
▁sound	-7619
▁synge	-7620
▁these	-7621
▁utbre	-7622
▁utmär	-7623
▁utnem	-7624
▁venst	-7625
▁whose	-7626
▁yrkes	-7627
▁återk	-7628
allment	-7629
atarina	-7630
bolaget	-7631
figuren	-7632
ifisert	-7633
ktionen	-7634
ordning	-7635
rädande	-7636
værdige	-7637
▁Athena	-7638
▁Center	-7639
▁Dagens	-7640
▁Elling	-7641
▁Jugosl	-7642
▁Kanada	-7643
▁Lyngby	-7644
▁Madrid	-7645
▁Master	-7646
▁Medlem	-7647
▁Mickey	-7648
▁Office	-7649
▁Petter	-7650
▁Posten	-7651
▁Ragnar	-7652
▁Shelby	-7653
▁Verden	-7654
▁arbete	-7655
▁behövs	-7656
▁brødre	-7657
▁bøkene	-7658
▁därför	-7659
▁future	-7660
▁förlor	-7661
▁følgje	-7662
▁ganske	-7663
▁gifter	-7664
▁grønne	-7665
▁idrott	-7666
▁lineup	-7667
▁maskin	-7668
▁meldte	-7669
▁mitten	-7670
▁moving	-7671
▁praise	-7672
▁provid	-7673
▁samisk	-7674
▁skedde	-7675
▁sketch	-7676
▁styres	-7677
▁tidiga	-7678
▁titled	-7679
▁trilog	-7680
▁övriga	-7681
adelphia	-7682
delingen	-7683
regionen	-7684
årsaften	-7685
▁Aukland	-7686
▁Claudia	-7687
▁Ferrari	-7688
▁Granger	-7689
▁Islands	-7690
▁Italian	-7691
▁Juliana	-7692
▁Jönsson	-7693
▁Leopold	-7694
▁Lundell	-7695
▁Malmsjö	-7696
▁Matador	-7697
▁Mission	-7698
▁Mohamed	-7699
▁Serbien	-7700
▁Sprogøe	-7701
▁advokat	-7702
▁ansatte	-7703
▁bandets	-7704
▁baseret	-7705
▁ekstrem	-7706
▁længere	-7707
▁nærings	-7708
▁oppstod	-7709
▁partier	-7710
▁primært	-7711
▁prosent	-7712
▁stadium	-7713
▁sørlege	-7714
▁tekster	-7715
▁Atlantic	-7716
▁Birgitte	-7717
▁Dramaten	-7718
▁Erichsen	-7719
▁Familjen	-7720
▁Schwerin	-7721
▁Travolta	-7722
▁anställd	-7723
▁arbeider	-7724
▁arkitekt	-7725
▁arverett	-7726
▁backhopp	-7727
▁competed	-7728
▁domestic	-7729
▁følgende	-7730
▁handling	-7731
▁imperiet	-7732
▁kongelig	-7733
▁overgang	-7734
▁populært	-7735
▁regissør	-7736
▁sentralt	-7737
▁soundtra	-7738
▁spørsmål	-7739
▁startade	-7740
▁wrestler	-7741
▁Østerbro	-7742
▁österrik	-7743
▁østerrik	-7744
debuterade	-7745
stillinger	-7746
▁Antarktis	-7747
▁Friedrich	-7748
▁Gregorian	-7749
▁fotballsp	-7750
▁interesse	-7751
▁nasjonale	-7752
▁nasjonals	-7753
▁republikk	-7754
▁småningom	-7755
▁tävlingen	-7756
▁Kristensen	-7757
▁Vestlandet	-7758
▁abdikation	-7759
▁dramatiker	-7760
▁kompositör	-7761
▁kongeriket	-7762
▁overgangen	-7763
▁popularity	-7764
▁regjeringa	-7765
▁Republikken	-7766
▁grandfather	-7767
▁inspiration	-7768
▁installment	-7769
▁regisserade	-7770
▁tilldelades	-7771
asjonssenteret	-7772
▁premiärminister	-7773
EW	-7774
pt	-7775
rp	-7776
VII	-7777
aul	-7778
aun	-7779
aut	-7780
bom	-7781
cho	-7782
edd	-7783
eie	-7784
fly	-7785
gde	-7786
hof	-7787
hub	-7788
hug	-7789
jes	-7790
okn	-7791
ote	-7792
ski	-7793
tis	-7794
vey	-7795
ygt	-7796
zel	-7797
öse	-7798
▁AF	-7799
▁BC	-7800
▁CD	-7801
▁Ef	-7802
▁If	-7803
▁MC	-7804
▁Ob	-7805
▁Tu	-7806
▁Ur	-7807
▁Va	-7808
▁gi	-7809
▁mö	-7810
agar	-7811
aket	-7812
anon	-7813
ants	-7814
aver	-7815
bane	-7816
bilt	-7817
blod	-7818
come	-7819
døde	-7820
efan	-7821
esen	-7822
holt	-7823
ield	-7824
iene	-7825
ilyn	-7826
ingt	-7827
itts	-7828
lägg	-7829
moen	-7830
napp	-7831
nast	-7832
nson	-7833
okko	-7834
omes	-7835
owbo	-7836
reds	-7837
rene	-7838
rogr	-7839
rudd	-7840
rwen	-7841
sjon	-7842
sked	-7843
smed	-7844
stil	-7845
stod	-7846
tale	-7847
ttet	-7848
uart	-7849
unik	-7850
ways	-7851
yret	-7852
yske	-7853
älje	-7854
åten	-7855
ørte	-7856
▁110	-7857
▁166	-7858
▁700	-7859
▁Blo	-7860
▁Bør	-7861
▁DNB	-7862
▁Flo	-7863
▁Fon	-7864
▁Fox	-7865
▁Kun	-7866
▁Lam	-7867
▁Lof	-7868
▁McG	-7869
▁Nes	-7870
▁Ran	-7871
▁Sax	-7872
▁Sem	-7873
▁Sio	-7874
▁Ske	-7875
▁Spe	-7876
▁Sum	-7877
▁Søl	-7878
▁UFC	-7879
▁Wed	-7880
▁Zia	-7881
▁adv	-7882
▁bre	-7883
▁cro	-7884
▁dal	-7885
▁did	-7886
▁div	-7887
▁dro	-7888
▁duo	-7889
▁gør	-7890
▁hev	-7891
▁hid	-7892
▁köp	-7893
▁lat	-7894
▁lod	-7895
▁næv	-7896
▁omf	-7897
▁opk	-7898
▁ple	-7899
▁rak	-7900
▁rör	-7901
▁sax	-7902
▁sla	-7903
▁tev	-7904
▁tip	-7905
▁tän	-7906
▁utr	-7907
▁uts	-7908
▁zod	-7909
▁ære	-7910
acken	-7911
adsen	-7912
andal	-7913
arily	-7914
bolag	-7915
ckham	-7916
crona	-7917
datab	-7918
eksam	-7919
ekter	-7920
endom	-7921
erman	-7922
ettet	-7923
fødde	-7924
galan	-7925
gräns	-7926
hagen	-7927
iblio	-7928
ikale	-7929
ivenh	-7930
kunst	-7931
lagde	-7932
lehem	-7933
lovet	-7934
miljø	-7935
oster	-7936
rades	-7937
reger	-7938
repet	-7939
sikke	-7940
ssjef	-7941
stead	-7942
trykk	-7943
utter	-7944
▁1842	-7945
▁1849	-7946
▁1888	-7947
▁1911	-7948
▁Aven	-7949
▁Book	-7950
▁Buls	-7951
▁Chal	-7952
▁Crit	-7953
▁Dean	-7954
▁Doug	-7955
▁Ekst	-7956
▁Elsa	-7957
▁Eric	-7958
▁Harb	-7959
▁Hart	-7960
▁Haus	-7961
▁Idol	-7962
▁Jere	-7963
▁Khal	-7964
▁Lost	-7965
▁Luft	-7966
▁Luke	-7967
▁More	-7968
▁Nina	-7969
▁Osen	-7970
▁Sant	-7971
▁Schl	-7972
▁Soul	-7973
▁Svan	-7974
▁Tett	-7975
▁Town	-7976
▁Törn	-7977
▁Ulla	-7978
▁avbr	-7979
▁ball	-7980
▁brug	-7981
▁city	-7982
▁domp	-7983
▁drog	-7984
▁erhv	-7985
▁felt	-7986
▁gave	-7987
▁give	-7988
▁komt	-7989
▁kore	-7990
▁lege	-7991
▁lost	-7992
▁näst	-7993
▁olde	-7994
▁past	-7995
▁poet	-7996
▁pref	-7997
▁sand	-7998
▁seie	-7999
▁sons	-8000
▁soul	-8001
▁spre	-8002
▁stam	-8003
▁sund	-8004
▁svig	-8005
▁synd	-8006
▁takt	-8007
▁teor	-8008
▁tyrk	-8009
▁uppg	-8010
▁veks	-8011
▁viet	-8012
▁wins	-8013
▁øyer	-8014
aktige	-8015
aktion	-8016
delige	-8017
erande	-8018
espite	-8019
følgje	-8020
føring	-8021
gruppa	-8022
ilding	-8023
isemit	-8024
kinson	-8025
konkur	-8026
kontor	-8027
leiken	-8028
njamin	-8029
orbror	-8030
rnhard	-8031
rossen	-8032
serter	-8033
ssadør	-8034
stende	-8035
stiden	-8036
uction	-8037
▁Afton	-8038
▁Britt	-8039
▁Brook	-8040
▁Crazy	-8041
▁Crown	-8042
▁Eugen	-8043
▁Films	-8044
▁Først	-8045
▁Grang	-8046
▁Gucci	-8047
▁Herre	-8048
▁Hovud	-8049
▁Islam	-8050
▁Jerry	-8051
▁Kring	-8052
▁Lands	-8053
▁Leeds	-8054
▁Lucas	-8055
▁Mason	-8056
▁Other	-8057
▁Philh	-8058
▁Putin	-8059
▁Rocky	-8060
▁Sweet	-8061
▁Three	-8062
▁anmel	-8063
▁arter	-8064
▁bakke	-8065
▁black	-8066
▁bröll	-8067
▁deter	-8068
▁every	-8069
▁favor	-8070
▁goals	-8071
▁græsk	-8072
▁heter	-8073
▁hjälp	-8074
▁hører	-8075
▁komik	-8076
▁lyser	-8077
▁länge	-8078
▁oppsk	-8079
▁parts	-8080
▁pilot	-8081
▁reign	-8082
▁royal	-8083
▁sidst	-8084
▁sjung	-8085
▁skjer	-8086
▁slett	-8087
▁slike	-8088
▁spele	-8089
▁stads	-8090
▁såvel	-8091
▁såväl	-8092
▁teikn	-8093
▁track	-8094
▁treng	-8095
▁vesle	-8096
eholder	-8097
eksamen	-8098
emføres	-8099
emusikk	-8100
erherre	-8101
eslager	-8102
ingvist	-8103
issippi	-8104
klubben	-8105
områder	-8106
onessen	-8107
plassen	-8108
språket	-8109
ældrene	-8110
▁Amalie	-8111
▁Austin	-8112
▁Butler	-8113
▁Helena	-8114
▁Jordsk	-8115
▁Nilsen	-8116
▁Noregs	-8117
▁Norway	-8118
▁Ousdal	-8119
▁Ravens	-8120
▁Sorgen	-8121
▁Spider	-8122
▁adress	-8123
▁adskil	-8124
▁angive	-8125
▁anvend	-8126
▁bebygg	-8127
▁borger	-8128
▁cruise	-8129
▁degree	-8130
▁effekt	-8131
▁flesta	-8132
▁genres	-8133
▁gården	-8134
▁høsten	-8135
▁jurist	-8136
▁kaldes	-8137
▁konfir	-8138
▁lanser	-8139
▁ledare	-8140
▁lengst	-8141
▁liksom	-8142
▁lokalt	-8143
▁lyssna	-8144
▁metall	-8145
▁norges	-8146
▁platin	-8147
▁påverk	-8148
▁regnet	-8149
▁reiste	-8150
▁senest	-8151
▁skapte	-8152
▁socken	-8153
▁starte	-8154
▁taking	-8155
▁tsjekk	-8156
▁utveck	-8157
▁Øyvind	-8158
angement	-8159
elskapet	-8160
fatteren	-8161
historie	-8162
overande	-8163
prosjekt	-8164
▁Hermine	-8165
▁Holland	-8166
▁Hoppuka	-8167
▁Indiana	-8168
▁Skolmen	-8169
▁Tolkien	-8170
▁Walther	-8171
▁arveret	-8172
▁betrakt	-8173
▁decades	-8174
▁etniske	-8175
▁faderen	-8176
▁fjorden	-8177
▁fylkene	-8178
▁företag	-8179
▁hvordan	-8180
▁høgaste	-8181
▁høyeste	-8182
▁jordbäv	-8183
▁jødiske	-8184
▁kaptein	-8185
▁kristen	-8186
▁landene	-8187
▁lansert	-8188
▁medlems	-8189
▁morbror	-8190
▁navnene	-8191
▁omfatta	-8192
▁opgaver	-8193
▁overall	-8194
▁sjukdom	-8195
▁stykket	-8196
▁tillige	-8197
▁visades	-8198
▁Øresund	-8199
assistent	-8200
▁Grönland	-8201
▁Hermione	-8202
▁Historik	-8203
▁Johansen	-8204
▁Jyllands	-8205
▁Lindgren	-8206
▁Utlandet	-8207
▁Värmland	-8208
▁Westling	-8209
▁användes	-8210
▁artikkel	-8211
▁arvprins	-8212
▁deltager	-8213
▁diplomat	-8214
▁document	-8215
▁founding	-8216
▁handball	-8217
▁kildehen	-8218
▁konflikt	-8219
▁lykkedes	-8220
▁previous	-8221
▁religion	-8222
▁skildrar	-8223
▁særskild	-8224
▁teateret	-8225
▁vestlege	-8226
▁vestlige	-8227
▁Christmas	-8228
▁Dramatens	-8229
▁Etymologi	-8230
▁Gårdinger	-8231
▁Göteborgs	-8232
▁Politiken	-8233
▁Slovenien	-8234
▁Tysklands	-8235
▁abdiserte	-8236
▁anledning	-8237
▁australsk	-8238
▁beskrevet	-8239
▁elevskola	-8240
▁germanske	-8241
▁klassiske	-8242
▁tidningen	-8243
▁uavhengig	-8244
amgångsrika	-8245
▁Foreldrene	-8246
▁Impossible	-8247
▁Referanser	-8248
▁adskillige	-8249
▁andreplass	-8250
▁betegnelse	-8251
▁dramatikar	-8252
▁dronningen	-8253
▁offentlige	-8254
▁regisserad	-8255
▁regjerende	-8256
▁revyartist	-8257
▁troværdige	-8258
▁Mississippi	-8259
▁Oslofjorden	-8260
▁businessman	-8261
▁hovudstaden	-8262
▁kontinentet	-8263
▁oprindeligt	-8264
▁samarbeidet	-8265
▁Philadelphia	-8266
▁austerrikske	-8267
▁videregående	-8268
▁Meteorologisk	-8269
▁offentliggjort	-8270
▁utgangspunktet	-8271
▁Teaterhögskolan	-8272
GP	-8273
MS	-8274
ca	-8275
fö	-8276
gh	-8277
hj	-8278
ni	-8279
rh	-8280
rä	-8281
za	-8282
æd	-8283
ço	-8284
acy	-8285
aye	-8286
bev	-8287
eum	-8288
fen	-8289
gge	-8290
høj	-8291
idt	-8292
ifa	-8293
ikl	-8294
iko	-8295
izu	-8296
juk	-8297
kol	-8298
kår	-8299
lam	-8300
lös	-8301
mor	-8302
nds	-8303
oma	-8304
peg	-8305
rax	-8306
rna	-8307
rte	-8308
sæt	-8309
søk	-8310
tel	-8311
tly	-8312
uff	-8313
ura	-8314
vej	-8315
ärd	-8316
örj	-8317
▁61	-8318
▁65	-8319
▁74	-8320
▁77	-8321
▁Fu	-8322
▁GO	-8323
▁GP	-8324
▁KI	-8325
▁LO	-8326
▁Lj	-8327
▁Mi	-8328
▁RS	-8329
▁SJ	-8330
▁Sr	-8331
▁Wa	-8332
▁XL	-8333
▁au	-8334
▁ød	-8335
Wiki	-8336
aldi	-8337
ased	-8338
edal	-8339
egre	-8340
eley	-8341
ereg	-8342
fald	-8343
ferd	-8344
fest	-8345
fsen	-8346
fugl	-8347
gået	-8348
idan	-8349
idel	-8350
ises	-8351
isse	-8352
ista	-8353
kkel	-8354
kvar	-8355
lara	-8356
lsen	-8357
mera	-8358
mord	-8359
odor	-8360
ofte	-8361
onen	-8362
oney	-8363
onne	-8364
ores	-8365
ouse	-8366
park	-8367
rdal	-8368
rong	-8369
seud	-8370
sper	-8371
tegn	-8372
tekt	-8373
tsch	-8374
ucer	-8375
veka	-8376
vise	-8377
väld	-8378
åtar	-8379
över	-8380
▁156	-8381
▁Akh	-8382
▁Bat	-8383
▁Bos	-8384
▁Cal	-8385
▁Cor	-8386
▁Dog	-8387
▁FIS	-8388
▁Fag	-8389
▁Gig	-8390
▁Hav	-8391
▁Its	-8392
▁Kat	-8393
▁Las	-8394
▁Lyd	-8395
▁Moe	-8396
▁Mul	-8397
▁Nix	-8398
▁Nær	-8399
▁Pia	-8400
▁Præ	-8401
▁Raj	-8402
▁Raw	-8403
▁Rey	-8404
▁Rhe	-8405
▁Tar	-8406
▁Udd	-8407
▁Utd	-8408
▁Vad	-8409
▁Vig	-8410
▁Wol	-8411
▁aff	-8412
▁bog	-8413
▁bøl	-8414
▁cho	-8415
▁dræ	-8416
▁ent	-8417
▁gul	-8418
▁hop	-8419
▁hur	-8420
▁kne	-8421
▁kry	-8422
▁lyr	-8423
▁løy	-8424
▁møb	-8425
▁mør	-8426
▁pay	-8427
▁san	-8428
▁sho	-8429
▁spy	-8430
▁tam	-8431
▁tät	-8432
▁vet	-8433
▁vig	-8434
▁Åke	-8435
▁øer	-8436
akkar	-8437
break	-8438
bruck	-8439
debut	-8440
ektiv	-8441
endet	-8442
esteg	-8443
ifikk	-8444
inkel	-8445
inton	-8446
istik	-8447
iären	-8448
jerte	-8449
korta	-8450
krets	-8451
linje	-8452
merke	-8453
neral	-8454
ocrat	-8455
olten	-8456
ongar	-8457
osofi	-8458
otisk	-8459
oukal	-8460
polen	-8461
repar	-8462
rgens	-8463
shima	-8464
skaff	-8465
skare	-8466
synss	-8467
teren	-8468
urleg	-8469
ussen	-8470
varen	-8471
vegen	-8472
årige	-8473
▁1200	-8474
▁1448	-8475
▁1648	-8476
▁1707	-8477
▁1804	-8478
▁1837	-8479
▁1853	-8480
▁1860	-8481
▁1902	-8482
▁Avis	-8483
▁Baby	-8484
▁Bonn	-8485
▁Boss	-8486
▁Brow	-8487
▁Bryn	-8488
▁Chap	-8489
▁Clin	-8490
▁Cool	-8491
▁Copp	-8492
▁Cort	-8493
▁Crow	-8494
▁Dals	-8495
▁Dela	-8496
▁Drag	-8497
▁Fall	-8498
▁Gall	-8499
▁Grim	-8500
▁Haga	-8501
▁Hjem	-8502
▁Hoff	-8503
▁Hord	-8504
▁Inns	-8505
▁Jama	-8506
▁Jevn	-8507
▁Kaas	-8508
▁Kamp	-8509
▁Kash	-8510
▁Leto	-8511
▁Meta	-8512
▁Noen	-8513
▁Olga	-8514
▁Olle	-8515
▁Pref	-8516
▁Rebe	-8517
▁Siob	-8518
▁Skov	-8519
▁Sony	-8520
▁Spot	-8521
▁Sølv	-8522
▁Tysk	-8523
▁USAs	-8524
▁Weng	-8525
▁aged	-8526
▁anal	-8527
▁auld	-8528
▁belg	-8529
▁dens	-8530
▁feil	-8531
▁förm	-8532
▁gjør	-8533
▁gran	-8534
▁græn	-8535
▁gøre	-8536
▁heir	-8537
▁isol	-8538
▁kass	-8539
▁kejs	-8540
▁kino	-8541
▁kome	-8542
▁leap	-8543
▁lejl	-8544
▁liga	-8545
▁mekt	-8546
▁oppd	-8547
▁oppg	-8548
▁papp	-8549
▁prop	-8550
▁prøv	-8551
▁pund	-8552
▁regn	-8553
▁salt	-8554
▁seia	-8555
▁site	-8556
▁skur	-8557
▁stry	-8558
▁særs	-8559
▁tage	-8560
▁talk	-8561
▁thre	-8562
▁tils	-8563
▁tjug	-8564
▁vass	-8565
▁what	-8566
▁Åker	-8567
adesel	-8568
aksjon	-8569
edømme	-8570
eledes	-8571
enskap	-8572
gjande	-8573
holder	-8574
ienter	-8575
ikarar	-8576
imilar	-8577
istikk	-8578
ivelse	-8579
kkerup	-8580
ringar	-8581
rolled	-8582
skansl	-8583
skapar	-8584
strong	-8585
strump	-8586
tlehem	-8587
årskon	-8588
önades	-8589
▁Ander	-8590
▁Bokst	-8591
▁Bowes	-8592
▁Break	-8593
▁Buena	-8594
▁Claes	-8595
▁Crist	-8596
▁Deres	-8597
▁Ellen	-8598
▁Flere	-8599
▁Gamle	-8600
▁Glass	-8601
▁Heath	-8602
▁Indre	-8603
▁Innan	-8604
▁Kosov	-8605
▁Linux	-8606
▁Medan	-8607
▁Money	-8608
▁Paula	-8609
▁Saudi	-8610
▁Water	-8611
▁While	-8612
▁Winge	-8613
▁bakom	-8614
▁baron	-8615
▁besty	-8616
▁brats	-8617
▁categ	-8618
▁crash	-8619
▁delte	-8620
▁eksil	-8621
▁elder	-8622
▁fysik	-8623
▁helse	-8624
▁holds	-8625
▁julen	-8626
▁jurid	-8627
▁loven	-8628
▁långt	-8629
▁medic	-8630
▁medie	-8631
▁månen	-8632
▁måste	-8633
▁møter	-8634
▁noget	-8635
▁omgiv	-8636
▁polis	-8637
▁pseud	-8638
▁recru	-8639
▁skatt	-8640
▁skete	-8641
▁slået	-8642
▁stark	-8643
▁ställ	-8644
▁tegne	-8645
▁those	-8646
▁trakk	-8647
▁udgør	-8648
▁udtry	-8649
▁utmer	-8650
▁utnev	-8651
▁valet	-8652
▁Åberg	-8653
espeare	-8654
irkende	-8655
kvarter	-8656
ningane	-8657
oretisk	-8658
tagelse	-8659
ugisisk	-8660
ättning	-8661
▁Bowles	-8662
▁Celebr	-8663
▁Dermed	-8664
▁Felipe	-8665
▁Fleire	-8666
▁Forbes	-8667
▁Franço	-8668
▁Hunger	-8669
▁Jeremy	-8670
▁Jorden	-8671
▁Krigen	-8672
▁Larvik	-8673
▁Madsen	-8674
▁Mikkel	-8675
▁Nassau	-8676
▁Natash	-8677
▁Olsson	-8678
▁Reidar	-8679
▁Roland	-8680
▁Series	-8681
▁Sunday	-8682
▁Vander	-8683
▁Wigert	-8684
▁allier	-8685
▁anerkj	-8686
▁banden	-8687
▁besteg	-8688
▁betrag	-8689
▁broren	-8690
▁danser	-8691
▁efterk	-8692
▁elsker	-8693
▁energi	-8694
▁erklær	-8695
▁erobra	-8696
▁etterk	-8697
▁floden	-8698
▁fysisk	-8699
▁færdig	-8700
▁förste	-8701
▁hemmel	-8702
▁hentet	-8703
▁hidtil	-8704
▁hjemme	-8705
▁island	-8706
▁kendte	-8707
▁kjønns	-8708
▁kontor	-8709
▁kusine	-8710
▁leader	-8711
▁längre	-8712
▁lärare	-8713
▁mistet	-8714
▁offici	-8715
▁opført	-8716
▁oppføl	-8717
▁opptak	-8718
▁regler	-8719
▁signer	-8720
▁sikker	-8721
▁snabbt	-8722
▁spelas	-8723
▁talang	-8724
▁talets	-8725
▁termin	-8726
▁udgave	-8727
▁utøver	-8728
▁vedtok	-8729
▁verket	-8730
▁within	-8731
▁yngsta	-8732
▁østrig	-8733
bjørnsen	-8734
stendige	-8735
▁Agnetha	-8736
▁Aquaman	-8737
▁Brigade	-8738
▁Bulsara	-8739
▁Dagblad	-8740
▁Desuden	-8741
▁Douglas	-8742
▁Folkete	-8743
▁Foreman	-8744
▁Fotball	-8745
▁Frinton	-8746
▁Gabriel	-8747
▁Hjalmar	-8748
▁Johnsen	-8749
▁Kolding	-8750
▁Marokko	-8751
▁Moldova	-8752
▁Olympia	-8753
▁Olympic	-8754
▁Ptolema	-8755
▁Romania	-8756
▁Russell	-8757
▁Sandvik	-8758
▁Verdens	-8759
▁arbeids	-8760
▁because	-8761
▁bosatte	-8762
▁bryllup	-8763
▁debuted	-8764
▁distrik	-8765
▁edition	-8766
▁episode	-8767
▁faddere	-8768
▁fylkest	-8769
▁gränsar	-8770
▁halvdel	-8771
▁hertugd	-8772
▁intress	-8773
▁kongens	-8774
▁konstru	-8775
▁kretsar	-8776
▁kæreste	-8777
▁nordisk	-8778
▁nærmest	-8779
▁oppkalt	-8780
▁oppløst	-8781
▁platene	-8782
▁primary	-8783
▁profesj	-8784
▁segment	-8785
▁spesial	-8786
▁styrkar	-8787
▁teacher	-8788
▁tidenes	-8789
▁utnemnd	-8790
▁without	-8791
▁ønskede	-8792
▁Brooklyn	-8793
▁Grekland	-8794
▁Hongkong	-8795
▁Hækkerup	-8796
▁Katarina	-8797
▁Lundgren	-8798
▁Musikken	-8799
▁Nagasaki	-8800
▁Philippe	-8801
▁Ryssland	-8802
▁Venstres	-8803
▁användas	-8804
▁bortsett	-8805
▁designer	-8806
▁episoder	-8807
▁grevskap	-8808
▁halvbror	-8809
▁karaktär	-8810
▁kolväten	-8811
▁kritiker	-8812
▁lyserøde	-8813
▁material	-8814
▁medverka	-8815
▁metropol	-8816
▁nordväst	-8817
▁occurred	-8818
▁oppslags	-8819
▁overtage	-8820
▁plassert	-8821
▁platekon	-8822
▁sekretær	-8823
▁varierer	-8824
▁Armstrong	-8825
▁Arveprins	-8826
▁Cardinale	-8827
▁Ellingsen	-8828
▁Filmdatab	-8829
▁Hordaland	-8830
▁Indonesia	-8831
▁Kongsberg	-8832
▁Lindgrens	-8833
▁Wrestling	-8834
▁däribland	-8835
▁kontinent	-8836
▁landskamp	-8837
▁noverande	-8838
▁organiser	-8839
▁samansett	-8840
▁tillbring	-8841
▁tillhörde	-8842
▁underlagt	-8843
itsminister	-8844
▁Grundloven	-8845
▁Handlingen	-8846
▁Republiken	-8847
▁Vanderbilt	-8848
▁eventually	-8849
▁italienska	-8850
▁opphavlege	-8851
▁revolusjon	-8852
rigsminister	-8853
▁Nordamerika	-8854
▁Shakespeare	-8855
▁julkalender	-8856
▁nederlandsk	-8857
▁omdirigeres	-8858
▁popularitet	-8859
▁sjølvstende	-8860
▁titelrollen	-8861
▁gregorianska	-8862
▁kringkasting	-8863
▁nederlandske	-8864
▁Christianshavn	-8865
▁tronfølgeloven	-8866
▁Arbeiderpartiet	-8867
dm	-8868
hv	-8869
hy	-8870
ki	-8871
tv	-8872
tz	-8873
yx	-8874
alf	-8875
bad	-8876
ble	-8877
blå	-8878
dle	-8879
eer	-8880
eet	-8881
ffe	-8882
fær	-8883
gga	-8884
gré	-8885
gud	-8886
hon	-8887
hum	-8888
kis	-8889
kla	-8890
lit	-8891
lot	-8892
mal	-8893
oly	-8894
pin	-8895
ref	-8896
ria	-8897
rot	-8898
seg	-8899
sey	-8900
sko	-8901
skv	-8902
slä	-8903
spr	-8904
täv	-8905
ynt	-8906
ädd	-8907
ådd	-8908
ærk	-8909
éon	-8910
ösa	-8911
øyl	-8912
▁92	-8913
▁Bö	-8914
▁DJ	-8915
▁Dú	-8916
▁Eb	-8917
▁IT	-8918
▁Ku	-8919
▁dk	-8920
▁hå	-8921
▁ju	-8922
▁nø	-8923
akse	-8924
alår	-8925
aner	-8926
anol	-8927
atta	-8928
aval	-8929
bain	-8930
bakk	-8931
bast	-8932
blom	-8933
blær	-8934
brev	-8935
dags	-8936
derk	-8937
eler	-8938
eras	-8939
fant	-8940
fekt	-8941
ften	-8942
færd	-8943
gard	-8944
gjev	-8945
idge	-8946
iest	-8947
ikum	-8948
insp	-8949
ippa	-8950
kere	-8951
känn	-8952
okus	-8953
olle	-8954
onik	-8955
oppr	-8956
ppet	-8957
prad	-8958
sion	-8959
sløp	-8960
svis	-8961
tane	-8962
tekn	-8963
tera	-8964
thus	-8965
time	-8966
uler	-8967
unis	-8968
usik	-8969
vand	-8970
vedt	-8971
vens	-8972
vort	-8973
west	-8974
ända	-8975
ängd	-8976
ågor	-8977
æger	-8978
ølse	-8979
øyet	-8980
▁164	-8981
▁600	-8982
▁AFI	-8983
▁Abd	-8984
▁Amy	-8985
▁Ban	-8986
▁Chi	-8987
▁Did	-8988
▁Dif	-8989
▁Din	-8990
▁Dol	-8991
▁Frø	-8992
▁Gör	-8993
▁Hål	-8994
▁Int	-8995
▁Jud	-8996
▁Lod	-8997
▁Mut	-8998
▁Ned	-8999
▁Ple	-9000
▁Rio	-9001
▁Run	-9002
▁Siv	-9003
▁Sot	-9004
▁Sri	-9005
▁Tai	-9006
▁Thr	-9007
▁Ton	-9008
▁Tår	-9009
▁Ull	-9010
▁Vej	-9011
▁Vål	-9012
▁WWE	-9013
▁bad	-9014
▁byn	-9015
▁dam	-9016
▁dop	-9017
▁dyg	-9018
▁egg	-9019
▁elv	-9020
▁fel	-9021
▁fen	-9022
▁høn	-9023
▁kul	-9024
▁läk	-9025
▁nød	-9026
▁pak	-9027
▁pur	-9028
▁see	-9029
▁tje	-9030
▁uaf	-9031
▁ult	-9032
▁utn	-9033
▁wea	-9034
▁årt	-9035
afton	-9036
aldte	-9037
angst	-9038
asten	-9039
atsen	-9040
brans	-9041
cally	-9042
chiar	-9043
eline	-9044
emste	-9045
giver	-9046
iansk	-9047
igede	-9048
ikens	-9049
ingsø	-9050
inois	-9051
insen	-9052
ittee	-9053
jorde	-9054
kalen	-9055
knipp	-9056
kveld	-9057
liste	-9058
oenix	-9059
okken	-9060
ollum	-9061
pedia	-9062
ringa	-9063
ruten	-9064
saker	-9065
sjakk	-9066
skamp	-9067
sking	-9068
skins	-9069
spilt	-9070
tager	-9071
ulent	-9072
unden	-9073
verdi	-9074
vokst	-9075
yggen	-9076
yrkje	-9077
änare	-9078
æiske	-9079
▁1400	-9080
▁1481	-9081
▁1658	-9082
▁1844	-9083
▁1877	-9084
▁1880	-9085
▁1894	-9086
▁Alma	-9087
▁Bank	-9088
▁Bigg	-9089
▁Bröm	-9090
▁Care	-9091
▁Cost	-9092
▁Cros	-9093
▁Dame	-9094
▁Dick	-9095
▁Duke	-9096
▁Four	-9097
▁Født	-9098
▁Gord	-9099
▁Herc	-9100
▁Hold	-9101
▁Hvis	-9102
▁Høne	-9103
▁Jako	-9104
▁Kara	-9105
▁Kirk	-9106
▁Kleo	-9107
▁Kval	-9108
▁Lake	-9109
▁Mest	-9110
▁Most	-9111
▁NRKs	-9112
▁Natt	-9113
▁Nazi	-9114
▁News	-9115
▁Noah	-9116
▁Ohio	-9117
▁Olaf	-9118
▁Perc	-9119
▁Pike	-9120
▁Rapp	-9121
▁Rica	-9122
▁Shah	-9123
▁Shop	-9124
▁Syda	-9125
▁Vend	-9126
▁Verr	-9127
▁Vind	-9128
▁XIII	-9129
▁acts	-9130
▁anth	-9131
▁aver	-9132
▁away	-9133
▁case	-9134
▁edel	-9135
▁epic	-9136
▁fakt	-9137
▁fans	-9138
▁foot	-9139
▁fäng	-9140
▁följ	-9141
▁gjær	-9142
▁gold	-9143
▁hard	-9144
▁hest	-9145
▁husk	-9146
▁høge	-9147
▁kirk	-9148
▁krev	-9149
▁lage	-9150
▁livs	-9151
▁ment	-9152
▁mora	-9153
▁nært	-9154
▁race	-9155
▁raki	-9156
▁reve	-9157
▁sjak	-9158
▁skad	-9159
▁skif	-9160
▁soon	-9161
▁stig	-9162
▁sykl	-9163
▁symp	-9164
▁syne	-9165
▁tilf	-9166
▁uker	-9167
▁unga	-9168
▁vent	-9169
▁vigt	-9170
▁viss	-9171
▁wien	-9172
▁ägde	-9173
▁øyar	-9174
allone	-9175
ampton	-9176
certen	-9177
certer	-9178
eister	-9179
engene	-9180
epunkt	-9181
gerede	-9182
grensa	-9183
ikeren	-9184
ipient	-9185
ishing	-9186
ission	-9187
jektet	-9188
ktiske	-9189
ntofte	-9190
områda	-9191
ordbok	-9192
otiske	-9193
rekord	-9194
rkeley	-9195
sjonen	-9196
tattet	-9197
toppen	-9198
uktion	-9199
ulykke	-9200
videre	-9201
ättare	-9202
▁Agnes	-9203
▁Andra	-9204
▁Atter	-9205
▁Bates	-9206
▁Bohus	-9207
▁Bruno	-9208
▁Deras	-9209
▁Elekt	-9210
▁Frida	-9211
▁Fritt	-9212
▁Greve	-9213
▁Harba	-9214
▁Klaus	-9215
▁Kvart	-9216
▁Lager	-9217
▁Linde	-9218
▁Manus	-9219
▁Moren	-9220
▁Napol	-9221
▁Nørby	-9222
▁Organ	-9223
▁Randi	-9224
▁Runde	-9225
▁Serge	-9226
▁Space	-9227
▁Spiel	-9228
▁Språk	-9229
▁Sunde	-9230
▁Susan	-9231
▁Syria	-9232
▁Tokyo	-9233
▁Vijay	-9234
▁Vågan	-9235
▁Våren	-9236
▁Woman	-9237
▁Yemen	-9238
▁affär	-9239
▁appar	-9240
▁appro	-9241
▁arkiv	-9242
▁austr	-9243
▁basis	-9244
▁berøm	-9245
▁blues	-9246
▁broke	-9247
▁bruke	-9248
▁chair	-9249
▁court	-9250
▁depar	-9251
▁digit	-9252
▁endre	-9253
▁föräl	-9254
▁henta	-9255
▁hette	-9256
▁holde	-9257
▁inaug	-9258
▁ingår	-9259
▁irske	-9260
▁krigs	-9261
▁least	-9262
▁metal	-9263
▁mochi	-9264
▁motiv	-9265
▁nedre	-9266
▁nyårs	-9267
▁oppos	-9268
▁opptr	-9269
▁plata	-9270
▁range	-9271
▁salat	-9272
▁salut	-9273
▁selde	-9274
▁skapt	-9275
▁skikk	-9276
▁sover	-9277
▁stadf	-9278
▁styre	-9279
▁söner	-9280
▁tagit	-9281
▁tilhø	-9282
▁tross	-9283
▁trots	-9284
▁trykk	-9285
▁udpeg	-9286
▁verka	-9287
▁vinde	-9288
▁Østre	-9289
▁årlig	-9290
ehåller	-9291
eringer	-9292
ertälje	-9293
eskolen	-9294
farande	-9295
iecrona	-9296
ksjonen	-9297
ksomhed	-9298
köpings	-9299
ocratic	-9300
rkshire	-9301
shistor	-9302
sknings	-9303
spelare	-9304
svinger	-9305
talande	-9306
våpenet	-9307
▁Alaska	-9308
▁Andrés	-9309
▁Artist	-9310
▁Brundt	-9311
▁Castle	-9312
▁Cobain	-9313
▁Dagmar	-9314
▁Ekstra	-9315
▁Familj	-9316
▁Flames	-9317
▁Herman	-9318
▁Houthi	-9319
▁Høyhet	-9320
▁Idrett	-9321
▁Junior	-9322
▁Juster	-9323
▁Korean	-9324
▁Kosovo	-9325
▁Livgar	-9326
▁Manley	-9327
▁Markus	-9328
▁Olivia	-9329
▁Pilger	-9330
▁Rachel	-9331
▁Radios	-9332
▁Rhinen	-9333
▁Ringen	-9334
▁Ronnie	-9335
▁Sebast	-9336
▁Secret	-9337
▁Silver	-9338
▁Säsong	-9339
▁Tidiga	-9340
▁Viking	-9341
▁Wonder	-9342
▁aktive	-9343
▁allmän	-9344
▁amatør	-9345
▁atmosf	-9346
▁attack	-9347
▁better	-9348
▁confir	-9349
▁debatt	-9350
▁deltäv	-9351
▁dollar	-9352
▁domain	-9353
▁eksper	-9354
▁figure	-9355
▁foster	-9356
▁fætter	-9357
▁gemens	-9358
▁grense	-9359
▁halvøy	-9360
▁holder	-9361
▁keisar	-9362
▁kontro	-9363
▁källor	-9364
▁kärlek	-9365
▁levede	-9366
▁makten	-9367
▁minste	-9368
▁morgen	-9369
▁næsten	-9370
▁omgang	-9371
▁oppløy	-9372
▁placed	-9373
▁reknar	-9374
▁scener	-9375
▁shared	-9376
▁skrevs	-9377
▁slekta	-9378
▁storby	-9379
▁sukker	-9380
▁sveits	-9381
▁tecken	-9382
▁tradit	-9383
▁travel	-9384
▁tyding	-9385
▁wealth	-9386
amgångar	-9387
chiarini	-9388
historia	-9389
redaktør	-9390
sområdet	-9391
språkiga	-9392
▁Balling	-9393
▁Biester	-9394
▁Bonnier	-9395
▁Bradley	-9396
▁Coppola	-9397
▁Estland	-9398
▁Fantino	-9399
▁Fleming	-9400
▁Freeman	-9401
▁Galilei	-9402
▁Isaksen	-9403
▁Kamprad	-9404
▁Khalifa	-9405
▁Landgré	-9406
▁Marilyn	-9407
▁Matthew	-9408
▁Montene	-9409
▁Musical	-9410
▁Natasha	-9411
▁Olivier	-9412
▁Phoenix	-9413
▁Rolling	-9414
▁Sigvard	-9415
▁Skansen	-9416
▁Verrett	-9417
▁Wayback	-9418
▁afholdt	-9419
▁backing	-9420
▁byggjer	-9421
▁decided	-9422
▁entered	-9423
▁ledelse	-9424
▁offiser	-9425
▁omtales	-9426
▁optrådt	-9427
▁playoff	-9428
▁punktet	-9429
▁påverka	-9430
▁regions	-9431
▁skalaen	-9432
▁sluttet	-9433
▁släppte	-9434
▁uafhæng	-9435
▁usually	-9436
▁variert	-9437
iorkester	-9438
▁Baptiste	-9439
▁Brömssen	-9440
▁Bulgaria	-9441
▁Children	-9442
▁Elisabet	-9443
▁Færøyene	-9444
▁Gabriela	-9445
▁Greatest	-9446
▁Hallberg	-9447
▁Håkonsen	-9448
▁Illinois	-9449
▁Jevnaker	-9450
▁Kausland	-9451
▁Preussen	-9452
▁Radikale	-9453
▁Rederiet	-9454
▁Scottish	-9455
▁Sesongen	-9456
▁Slovakia	-9457
▁Tsjekkia	-9458
▁amerikan	-9459
▁ansvaret	-9460
▁artistar	-9461
▁diskuter	-9462
▁fleirtal	-9463
▁förknipp	-9464
▁grekiska	-9465
▁grensene	-9466
▁hebraisk	-9467
▁hoppveka	-9468
▁inspired	-9469
▁intresse	-9470
▁investig	-9471
▁jordbruk	-9472
▁kategori	-9473
▁komtesse	-9474
▁lingvist	-9475
▁messages	-9476
▁nordamer	-9477
▁olympisk	-9478
▁oppvokst	-9479
▁sameinte	-9480
▁sælgende	-9481
▁velferds	-9482
ådespelare	-9483
▁Innsbruck	-9484
▁Kongerige	-9485
▁Nordström	-9486
▁Skovgaard	-9487
▁Sylvester	-9488
▁Wilkinson	-9489
▁arvefølge	-9490
▁childhood	-9491
▁deltagere	-9492
▁koncerter	-9493
▁konserter	-9494
▁medverkan	-9495
▁offentleg	-9496
▁opptrådte	-9497
▁politiska	-9498
▁primarily	-9499
▁præsident	-9500
▁recipient	-9501
▁samanheng	-9502
▁størrelse	-9503
▁utvikling	-9504
▁ægtefælle	-9505
brogordenen	-9506
▁Brundtland	-9507
▁Fyrverkeri	-9508
▁Långstrump	-9509
▁behandling	-9510
▁dokumenter	-9511
▁dokumentär	-9512
▁kneippbrød	-9513
▁konstnären	-9514
▁medlemmene	-9515
▁miniseries	-9516
▁officiellt	-9517
▁ordförande	-9518
▁virksomhet	-9519
entereksamen	-9520
▁Aftonbladet	-9521
▁Anthonessen	-9522
▁Biesterfeld	-9523
▁Kongsvinger	-9524
▁Lilliecrona	-9525
▁Macchiarini	-9526
▁kronprinsen	-9527
▁opphavsrett	-9528
▁storesøster	-9529
▁traditionen	-9530
▁tredjeplass	-9531
▁Västtyskland	-9532
▁kongefamilie	-9533
▁sjølvstendig	-9534
▁tillbringade	-9535
▁verdsmeister	-9536
▁fotballspelar	-9537
▁platekontrakt	-9538
▁uppmärksamhet	-9539
97	-9540
NP	-9541
jo	-9542
jö	-9543
ps	-9544
rm	-9545
sä	-9546
æs	-9547
XXI	-9548
afé	-9549
beg	-9550
bøl	-9551
bør	-9552
cen	-9553
cis	-9554
cke	-9555
dyr	-9556
eau	-9557
egg	-9558
gas	-9559
got	-9560
how	-9561
ito	-9562
jur	-9563
jön	-9564
kyl	-9565
lad	-9566
luf	-9567
läs	-9568
lær	-9569
løb	-9570
nga	-9571
oor	-9572
pet	-9573
ple	-9574
ppe	-9575
rok	-9576
sal	-9577
sin	-9578
sji	-9579
sla	-9580
tom	-9581
urv	-9582
uta	-9583
yle	-9584
älj	-9585
øpt	-9586
▁CF	-9587
▁IK	-9588
▁IO	-9589
▁Ig	-9590
▁Iv	-9591
▁LP	-9592
▁Um	-9593
▁bå	-9594
▁dæ	-9595
▁oc	-9596
▁rh	-9597
▁uk	-9598
aats	-9599
ands	-9600
assi	-9601
aure	-9602
bels	-9603
bets	-9604
brig	-9605
dele	-9606
eber	-9607
eded	-9608
edel	-9609
edia	-9610
elte	-9611
enda	-9612
erty	-9613
eton	-9614
etty	-9615
förd	-9616
gata	-9617
gdom	-9618
germ	-9619
have	-9620
iert	-9621
ikop	-9622
iler	-9623
inas	-9624
iret	-9625
izza	-9626
kola	-9627
kupp	-9628
laga	-9629
lden	-9630
mini	-9631
naut	-9632
nder	-9633
ndet	-9634
olut	-9635
reis	-9636
ries	-9637
semd	-9638
stam	-9639
toft	-9640
togs	-9641
trem	-9642
ugsp	-9643
ukta	-9644
ulmi	-9645
umer	-9646
viks	-9647
värd	-9648
yget	-9649
ylan	-9650
yrde	-9651
ägen	-9652
älva	-9653
øder	-9654
▁125	-9655
▁130	-9656
▁137	-9657
▁140	-9658
▁144	-9659
▁151	-9660
▁171	-9661
▁173	-9662
▁Ahl	-9663
▁Ald	-9664
▁Alf	-9665
▁Ali	-9666
▁Aug	-9667
▁BNP	-9668
▁Blå	-9669
▁Bou	-9670
▁Cru	-9671
▁Eck	-9672
▁Egg	-9673
▁Eth	-9674
▁Fab	-9675
▁Fat	-9676
▁Fen	-9677
▁Fuk	-9678
▁Fur	-9679
▁Fär	-9680
▁Guy	-9681
▁Had	-9682
▁Hog	-9683
▁Häl	-9684
▁Hår	-9685
▁Ian	-9686
▁Jar	-9687
▁Jut	-9688
▁Kju	-9689
▁Klø	-9690
▁Kre	-9691
▁Kri	-9692
▁Lav	-9693
▁MTV	-9694
▁Map	-9695
▁Nev	-9696
▁Nut	-9697
▁Nyk	-9698
▁Nød	-9699
▁Pra	-9700
▁Pul	-9701
▁Pyr	-9702
▁Pål	-9703
▁Rau	-9704
▁Rei	-9705
▁Rek	-9706
▁Sin	-9707
▁Sur	-9708
▁Suz	-9709
▁Søn	-9710
▁Tek	-9711
▁Ten	-9712
▁Tir	-9713
▁Ulf	-9714
▁Via	-9715
▁Vår	-9716
▁Vær	-9717
▁Yng	-9718
▁Zah	-9719
▁bab	-9720
▁boy	-9721
▁dek	-9722
▁dos	-9723
▁dvs	-9724
▁era	-9725
▁fäl	-9726
▁gru	-9727
▁gym	-9728
▁gæl	-9729
▁häl	-9730
▁igj	-9731
▁job	-9732
▁kla	-9733
▁kræ	-9734
▁lau	-9735
▁lån	-9736
▁mär	-9737
▁omg	-9738
▁osm	-9739
▁rok	-9740
▁ros	-9741
▁sau	-9742
▁syk	-9743
▁tom	-9744
▁tæt	-9745
▁vej	-9746
▁Øya	-9747
abric	-9748
aftan	-9749
alkun	-9750
amper	-9751
andør	-9752
antum	-9753
anzib	-9754
arena	-9755
arter	-9756
artid	-9757
berto	-9758
bruks	-9759
deleg	-9760
dsson	-9761
eback	-9762
emang	-9763
emtid	-9764
emtræ	-9765
essem	-9766
esson	-9767
haver	-9768
icist	-9769
ikawa	-9770
iktet	-9771
ionde	-9772
ivind	-9773
ixtus	-9774
kehus	-9775
klipp	-9776
leker	-9777
lever	-9778
mates	-9779
melig	-9780
meset	-9781
nhang	-9782
nlund	-9783
nsdag	-9784
oning	-9785
oregs	-9786
orial	-9787
oring	-9788
oting	-9789
ovina	-9790
pelen	-9791
pligt	-9792
remål	-9793
skade	-9794
skyld	-9795
sling	-9796
synet	-9797
träde	-9798
unest	-9799
unity	-9800
urder	-9801
usion	-9802
ylven	-9803
älven	-9804
åande	-9805
årene	-9806
ægten	-9807
ælles	-9808
ørsla	-9809
ørste	-9810
øylen	-9811
▁1412	-9812
▁1523	-9813
▁1730	-9814
▁1825	-9815
▁1843	-9816
▁1867	-9817
▁1871	-9818
▁1876	-9819
▁1890	-9820
▁1897	-9821
▁Acer	-9822
▁Aqua	-9823
▁Aske	-9824
▁Bard	-9825
▁Bing	-9826
▁Björ	-9827
▁Buff	-9828
▁Cart	-9829
▁Conf	-9830
▁Cups	-9831
▁Curt	-9832
▁Delt	-9833
▁Drew	-9834
▁Dust	-9835
▁Edel	-9836
▁Ekte	-9837
▁Epis	-9838
▁Fest	-9839
▁Fisk	-9840
▁Flag	-9841
▁Fält	-9842
▁Gard	-9843
▁Gill	-9844
▁Guds	-9845
▁Head	-9846
▁Husk	-9847
▁Hvid	-9848
▁Inde	-9849
▁Isak	-9850
▁José	-9851
▁Jung	-9852
▁Kjer	-9853
▁Klub	-9854
▁Kont	-9855
▁Kort	-9856
▁Kvar	-9857
▁Mast	-9858
▁Mean	-9859
▁Medv	-9860
▁Mens	-9861
▁Nike	-9862
▁Nott	-9863
▁Odal	-9864
▁Orkn	-9865
▁Pack	-9866
▁Pert	-9867
▁Rome	-9868
▁Rosa	-9869
▁Runc	-9870
▁Rune	-9871
▁Röse	-9872
▁Saga	-9873
▁Sapp	-9874
▁Seac	-9875
▁Siss	-9876
▁Skag	-9877
▁Slik	-9878
▁Sold	-9879
▁Spes	-9880
▁Tryg	-9881
▁Ural	-9882
▁Vart	-9883
▁Vill	-9884
▁Wiki	-9885
▁Yout	-9886
▁angl	-9887
▁athl	-9888
▁avle	-9889
▁avsl	-9890
▁bevæ	-9891
▁byar	-9892
▁cost	-9893
▁dest	-9894
▁dram	-9895
▁dygn	-9896
▁døpt	-9897
▁døtr	-9898
▁emir	-9899
▁fact	-9900
▁flod	-9901
▁ført	-9902
▁gard	-9903
▁gate	-9904
▁glad	-9905
▁gudd	-9906
▁gået	-9907
▁häst	-9908
▁högt	-9909
▁ihop	-9910
▁insp	-9911
▁leir	-9912
▁lens	-9913
▁myst	-9914
▁måne	-9915
▁mørk	-9916
▁pave	-9917
▁pros	-9918
▁rekr	-9919
▁rike	-9920
▁rune	-9921
▁rädd	-9922
▁samh	-9923
▁slår	-9924
▁soft	-9925
▁sokn	-9926
▁spaw	-9927
▁spur	-9928
▁titl	-9929
▁tone	-9930
▁tour	-9931
▁tsar	-9932
▁veck	-9933
▁våld	-9934
alegre	-9935
allier	-9936
amført	-9937
angere	-9938
asitet	-9939
atiske	-9940
eksjon	-9941
elcome	-9942
elsene	-9943
enstam	-9944
entleg	-9945
equent	-9946
ferred	-9947
förest	-9948
gården	-9949
hemian	-9950
iblant	-9951
iminal	-9952
istert	-9953
kelser	-9954
kisson	-9955
kkende	-9956
lemmet	-9957
ligste	-9958
marked	-9959
mførte	-9960
ndagen	-9961
oniske	-9962
opptak	-9963
satser	-9964
seende	-9965
skulen	-9966
sleder	-9967
staver	-9968
veland	-9969
ådespe	-9970
ældste	-9971
▁Abdul	-9972
▁About	-9973
▁Achie	-9974
▁Based	-9975
▁Blach	-9976
▁Board	-9977
▁Bolsø	-9978
▁Chair	-9979
▁Chile	-9980
▁Colin	-9981
▁Eldar	-9982
▁Espen	-9983
▁Final	-9984
▁Fosse	-9985
▁Fugle	-9986
▁Førde	-9987
▁Hanks	-9988
▁Happy	-9989
▁Hedda	-9990
▁Heidi	-9991
▁Helge	-9992
▁Kenya	-9993
▁Kerry	-9994
▁Klubb	-9995
▁Laget	-9996
▁Lunds	-9997
▁Mutya	-9998
▁Mørch	-9999
▁Nolan	-10000
▁Noman	-10001
▁Percy	-10002
▁Sarah	-10003
▁Silje	-10004
▁Skild	-10005
▁Terje	-10006
▁Thing	-10007
▁Trump	-10008
▁Whats	-10009
▁Zandt	-10010
▁Zugsp	-10011
▁activ	-10012
▁akust	-10013
▁atter	-10014
▁belig	-10015
▁brott	-10016
▁bygge	-10017
▁dater	-10018
▁detal	-10019
▁diagn	-10020
▁dirig	-10021
▁drikk	-10022
▁dræbt	-10023
▁egent	-10024
▁ekskl	-10025
▁erfar	-10026
▁evaku	-10027
▁faldt	-10028
▁feder	-10029
▁firas	-10030
▁føres	-10031
▁given	-10032
▁halde	-10033
▁herre	-10034
▁image	-10035
▁invit	-10036
▁klipp	-10037
▁kolle	-10038
▁konse	-10039
▁korta	-10040
▁kvite	-10041
▁lavet	-10042
▁makta	-10043
▁mente	-10044
▁navng	-10045
▁oldeb	-10046
▁opdag	-10047
▁optag	-10048
▁påbeg	-10049
▁sales	-10050
▁satsa	-10051
▁score	-10052
▁sixth	-10053
▁slapp	-10054
▁small	-10055
▁støtt	-10056
▁sålde	-10057
▁sökte	-10058
▁tabte	-10059
▁talar	-10060
▁teken	-10061
▁usage	-10062
▁utgör	-10063
▁vegen	-10064
▁volum	-10065
▁Åsnes	-10066
▁åpnet	-10067
▁årige	-10068
byggert	-10069
eateret	-10070
gteskab	-10071
havende	-10072
istrikt	-10073
ligaste	-10074
løsning	-10075
miljøet	-10076
musiker	-10077
rediens	-10078
sångare	-10079
viduelt	-10080
▁Akhtar	-10081
▁Arnulf	-10082
▁Astley	-10083
▁Audrey	-10084
▁Bjerre	-10085
▁Bladet	-10086
▁Brynäs	-10087
▁Bøkene	-10088
▁Carles	-10089
▁Clouse	-10090
▁Empire	-10091
▁Ernest	-10092
▁Family	-10093
▁Gordon	-10094
▁Indust	-10095
▁Inspir	-10096
▁Lejonh	-10097
▁Macken	-10098
▁Monroe	-10099
▁Nordic	-10100
▁Palest	-10101
▁Passer	-10102
▁Rollen	-10103
▁Senare	-10104
▁Talent	-10105
▁Things	-10106
▁Utover	-10107
▁Västra	-10108
▁Weaver	-10109
▁Zanzib	-10110
▁arbets	-10111
▁arving	-10112
▁brasil	-10113
▁busett	-10114
▁byrjar	-10115
▁börjar	-10116
▁caused	-10117
▁couple	-10118
▁dagleg	-10119
▁deaths	-10120
▁decade	-10121
▁eldest	-10122
▁engine	-10123
▁fabrik	-10124
▁grandm	-10125
▁hensyn	-10126
▁hertil	-10127
▁indfly	-10128
▁konver	-10129
▁kritik	-10130
▁lavede	-10131
▁lenker	-10132
▁magten	-10133
▁meinte	-10134
▁noregs	-10135
▁novels	-10136
▁nævnes	-10137
▁operas	-10138
▁oppset	-10139
▁preget	-10140
▁prøvde	-10141
▁påbörj	-10142
▁reklam	-10143
▁retten	-10144
▁ringen	-10145
▁räknas	-10146
▁satell	-10147
▁sekund	-10148
▁silver	-10149
▁sjunde	-10150
▁sjølve	-10151
▁sonson	-10152
▁sovjet	-10153
▁sterke	-10154
▁styret	-10155
▁sviger	-10156
▁søndag	-10157
▁søstre	-10158
▁touren	-10159
▁traged	-10160
▁utgåva	-10161
▁visade	-10162
egrupper	-10163
essansen	-10164
följande	-10165
følgende	-10166
ibliotek	-10167
jenesten	-10168
kebiskop	-10169
mesteren	-10170
ological	-10171
partment	-10172
regering	-10173
residens	-10174
sageligt	-10175
senteret	-10176
slåingen	-10177
stilling	-10178
▁Albumet	-10179
▁Arendal	-10180
▁Clinton	-10181
▁Filming	-10182
▁Guillou	-10183
▁Higgins	-10184
▁Jamaica	-10185
▁Jutland	-10186
▁Kroatia	-10187
▁Libanon	-10188
▁Magtens	-10189
▁Matilda	-10190
▁Maxwell	-10191
▁Nations	-10192
▁Omkring	-10193
▁Rickman	-10194
▁Rusland	-10195
▁Sapporo	-10196
▁Spotify	-10197
▁Tjessem	-10198
▁Ukraine	-10199
▁avholdt	-10200
▁beholdt	-10201
▁beskrev	-10202
▁brukast	-10203
▁capital	-10204
▁earlier	-10205
▁emerged	-10206
▁enevæld	-10207
▁figuren	-10208
▁figurer	-10209
▁fysiker	-10210
▁helikop	-10211
▁hoppuka	-10212
▁humanit	-10213
▁hurtigt	-10214
▁idretts	-10215
▁islands	-10216
▁kjendis	-10217
▁konfirm	-10218
▁kroppen	-10219
▁kvinder	-10220
▁ledamot	-10221
▁medborg	-10222
▁musiken	-10223
▁nærmere	-10224
▁områden	-10225
▁opkaldt	-10226
▁ranking	-10227
▁regular	-10228
▁relativ	-10229
▁samlede	-10230
▁seneste	-10231
▁seventh	-10232
▁similar	-10233
▁sjanger	-10234
▁skiftet	-10235
▁skotske	-10236
▁skyldes	-10237
▁stället	-10238
▁såkalte	-10239
▁tidlige	-10240
▁utnevnt	-10241
▁utveckl	-10242
▁utvidet	-10243
▁variant	-10244
▁venstre	-10245
▁vikingt	-10246
▁Åkerman	-10247
historisk	-10248
oltenberg	-10249
strupmoen	-10250
▁Adkisson	-10251
▁Ahlström	-10252
▁Arkansas	-10253
▁Bohemian	-10254
▁Dalsland	-10255
▁Derefter	-10256
▁Fältskog	-10257
▁Grundlov	-10258
▁Hønefoss	-10259
▁Ishikawa	-10260
▁Livgarde	-10261
▁Malmöhus	-10262
▁Metropol	-10263
▁Napoléon	-10264
▁Ringenes	-10265
▁Seacrest	-10266
▁Skotland	-10267
▁Zugspitz	-10268
▁allierte	-10269
▁blivande	-10270
▁comeback	-10271
▁deltaget	-10272
▁eksister	-10273
▁føderale	-10274
▁grevinde	-10275
▁högskola	-10276
▁inleddes	-10277
▁involved	-10278
▁kjøpstad	-10279
▁lyckades	-10280
▁meddelte	-10281
▁ministre	-10282
▁nederlag	-10283
▁nettverk	-10284
▁osmanske	-10285
▁partiets	-10286
▁pladesel	-10287
▁prinsess	-10288
▁rekorden	-10289
▁samarbet	-10290
▁varefter	-10291
▁århundre	-10292
alsekretær	-10293
byggjarane	-10294
estegjorde	-10295
laboration	-10296
▁Bokstaven	-10297
▁Brasilien	-10298
▁Cavallier	-10299
▁Celebrity	-10300
▁Cleveland	-10301
▁Gullruten	-10302
▁Haraldsen	-10303
▁Henrietta	-10304
▁Härenstam	-10305
▁Sebastian	-10306
▁Skildring	-10307
▁Trondhjem	-10308
▁antisemit	-10309
▁användare	-10310
▁belönades	-10311
▁betydelse	-10312
▁completed	-10313
▁confirmed	-10314
▁diskusjon	-10315
▁engagerad	-10316
▁entertain	-10317
▁fyrstehus	-10318
▁inspirert	-10319
▁kvindelig	-10320
▁meddelade	-10321
▁samarbete	-10322
▁skuespill	-10323
▁stafetten	-10324
▁strekkjer	-10325
▁teoretisk	-10326
▁utländska	-10327
konkurranse	-10328
▁Christians	-10329
▁Indonesien	-10330
▁dirigenten	-10331
▁nordvästra	-10332
▁prosjektet	-10333
▁regissören	-10334
▁regjerande	-10335
▁stadsdelen	-10336
▁upptäcktes	-10337
▁århundrede	-10338
▁Montealegre	-10339
▁Verdenskrig	-10340
▁competition	-10341
▁efterträdde	-10342
▁storkrossen	-10343
▁tronföljare	-10344
▁vitskaplege	-10345
▁Svensktoppen	-10346
▁elektroniske	-10347
▁revolusjonen	-10348
▁entertainment	-10349
▁underholdning	-10350
99	-10351
AI	-10352
AR	-10353
EC	-10354
HF	-10355
VD	-10356
ea	-10357
gu	-10358
ji	-10359
oa	-10360
uh	-10361
vn	-10362
yk	-10363
zz	-10364
åm	-10365
öö	-10366
amo	-10367
avl	-10368
eda	-10369
erj	-10370
ero	-10371
fal	-10372
ija	-10373
ipa	-10374
kwe	-10375
lia	-10376
lls	-10377
nel	-10378
odi	-10379
pal	-10380
pol	-10381
ras	-10382
rea	-10383
ryn	-10384
sej	-10385
shu	-10386
skr	-10387
sse	-10388
tsj	-10389
tåg	-10390
uds	-10391
ugg	-10392
uma	-10393
vat	-10394
vna	-10395
æne	-10396
éer	-10397
örd	-10398
øme	-10399
▁76	-10400
▁BY	-10401
▁Gh	-10402
▁Hä	-10403
▁Kw	-10404
▁MS	-10405
▁SK	-10406
▁Ti	-10407
▁UN	-10408
▁kæ	-10409
▁nn	-10410
▁ok	-10411
▁sw	-10412
▁ts	-10413
▁um	-10414
▁ét	-10415
▁ør	-10416
Mond	-10417
aard	-10418
agan	-10419
akim	-10420
akul	-10421
aled	-10422
allt	-10423
amåt	-10424
anks	-10425
aria	-10426
aset	-10427
asus	-10428
bara	-10429
bare	-10430
bler	-10431
brah	-10432
cape	-10433
cker	-10434
edda	-10435
elie	-10436
elin	-10437
enez	-10438
etet	-10439
eyer	-10440
förs	-10441
født	-10442
følg	-10443
gere	-10444
heds	-10445
hero	-10446
hmen	-10447
hode	-10448
htos	-10449
iard	-10450
icks	-10451
iets	-10452
ifta	-10453
ikal	-10454
ikas	-10455
iosa	-10456
issl	-10457
klin	-10458
koll	-10459
lera	-10460
ller	-10461
lova	-10462
lægg	-10463
lært	-10464
mack	-10465
meld	-10466
mest	-10467
nets	-10468
ngar	-10469
okke	-10470
onto	-10471
ping	-10472
pipe	-10473
pler	-10474
pott	-10475
rala	-10476
rama	-10477
rick	-10478
rien	-10479
rilj	-10480
rind	-10481
rino	-10482
risk	-10483
sahl	-10484
seks	-10485
spro	-10486
tage	-10487
tene	-10488
thos	-10489
tsam	-10490
uest	-10491
ular	-10492
uman	-10493
umre	-10494
unds	-10495
vekt	-10496
yska	-10497
ätte	-10498
ømme	-10499
øret	-10500
▁114	-10501
▁143	-10502
▁146	-10503
▁147	-10504
▁157	-10505
▁162	-10506
▁240	-10507
▁242	-10508
▁360	-10509
▁364	-10510
▁Aff	-10511
▁Aga	-10512
▁Alm	-10513
▁Alt	-10514
▁Ans	-10515
▁Ask	-10516
▁Bøk	-10517
▁Bøl	-10518
▁Cab	-10519
▁DVD	-10520
▁Dig	-10521
▁Dor	-10522
▁Eag	-10523
▁Fau	-10524
▁Ful	-10525
▁Gus	-10526
▁Hak	-10527
▁Hof	-10528
▁Hok	-10529
▁Hur	-10530
▁Hær	-10531
▁IOK	-10532
▁IPA	-10533
▁Iam	-10534
▁Inf	-10535
▁Jär	-10536
▁Kin	-10537
▁Klæ	-10538
▁Lev	-10539
▁Lys	-10540
▁MCU	-10541
▁MMA	-10542
▁Mai	-10543
▁Mål	-10544
▁Møg	-10545
▁Paa	-10546
▁RSS	-10547
▁Rap	-10548
▁Rön	-10549
▁Sho	-10550
▁Sjö	-10551
▁Snø	-10552
▁Sub	-10553
▁Søs	-10554
▁Tod	-10555
▁Tog	-10556
▁Utv	-10557
▁Vis	-10558
▁Vor	-10559
▁Wis	-10560
▁XIV	-10561
▁XXL	-10562
▁afg	-10563
▁avk	-10564
▁bio	-10565
▁byk	-10566
▁båe	-10567
▁ded	-10568
▁gal	-10569
▁ger	-10570
▁gra	-10571
▁grå	-10572
▁hæv	-10573
▁hör	-10574
▁ins	-10575
▁ion	-10576
▁kab	-10577
▁kok	-10578
▁kår	-10579
▁køb	-10580
▁las	-10581
▁lei	-10582
▁lit	-10583
▁løn	-10584
▁myr	-10585
▁obo	-10586
▁sug	-10587
▁syr	-10588
▁tim	-10589
▁uly	-10590
▁utl	-10591
▁vux	-10592
▁Øye	-10593
▁ätt	-10594
aking	-10595
aktiv	-10596
anker	-10597
ardom	-10598
attes	-10599
aysir	-10600
boken	-10601
brett	-10602
dmægt	-10603
domen	-10604
drett	-10605
dstad	-10606
egler	-10607
egnet	-10608
eldig	-10609
enade	-10610
errak	-10611
estad	-10612
etall	-10613
fostr	-10614
gerer	-10615
heden	-10616
ibati	-10617
icken	-10618
iegel	-10619
igned	-10620
ikene	-10621
ikter	-10622
ilans	-10623
irken	-10624
itage	-10625
ittar	-10626
kkede	-10627
kolen	-10628
kvist	-10629
kyrka	-10630
lagte	-10631
linja	-10632
lærer	-10633
mater	-10634
miral	-10635
nades	-10636
neren	-10637
offet	-10638
opera	-10639
ossen	-10640
peror	-10641
redet	-10642
renge	-10643
rhard	-10644
rolla	-10645
sider	-10646
skjer	-10647
släpp	-10648
styrt	-10649
søgte	-10650
teret	-10651
tions	-10652
tiska	-10653
tårsh	-10654
ueens	-10655
unget	-10656
usert	-10657
varet	-10658
vedal	-10659
veien	-10660
vised	-10661
viste	-10662
öster	-10663
ømmet	-10664
▁1559	-10665
▁1799	-10666
▁1801	-10667
▁1810	-10668
▁1815	-10669
▁1820	-10670
▁1821	-10671
▁1854	-10672
▁1856	-10673
▁1865	-10674
▁1868	-10675
▁1878	-10676
▁1883	-10677
▁2025	-10678
▁Alto	-10679
▁Blad	-10680
▁Bruk	-10681
▁Bråk	-10682
▁Budd	-10683
▁Call	-10684
▁Cash	-10685
▁Cato	-10686
▁Cold	-10687
▁Days	-10688
▁Deut	-10689
▁Ferd	-10690
▁Fyra	-10691
▁Grac	-10692
▁Gray	-10693
▁Grig	-10694
▁Grin	-10695
▁Hend	-10696
▁Herr	-10697
▁Iron	-10698
▁Kapp	-10699
▁Katt	-10700
▁Keys	-10701
▁Krig	-10702
▁Krog	-10703
▁Marl	-10704
▁Meek	-10705
▁Misé	-10706
▁Mitt	-10707
▁Nile	-10708
▁Ober	-10709
▁Once	-10710
▁Orch	-10711
▁Palæ	-10712
▁Pink	-10713
▁Rema	-10714
▁Rena	-10715
▁Rodr	-10716
▁Ross	-10717
▁Rund	-10718
▁Ryde	-10719
▁Sang	-10720
▁Sarp	-10721
▁Scen	-10722
▁Sean	-10723
▁Sill	-10724
▁Slut	-10725
▁Soci	-10726
▁Talk	-10727
▁Tine	-10728
▁Toft	-10729
▁Ungd	-10730
▁Vang	-10731
▁Vasa	-10732
▁allo	-10733
▁appl	-10734
▁arke	-10735
▁blad	-10736
▁cart	-10737
▁copy	-10738
▁dark	-10739
▁dead	-10740
▁dubb	-10741
▁dømt	-10742
▁emot	-10743
▁føde	-10744
▁gavs	-10745
▁havn	-10746
▁höll	-10747
▁keis	-10748
▁kick	-10749
▁konk	-10750
▁kult	-10751
▁känt	-10752
▁kärn	-10753
▁kærl	-10754
▁less	-10755
▁mole	-10756
▁once	-10757
▁onde	-10758
▁pens	-10759
▁rene	-10760
▁rent	-10761
▁repl	-10762
▁rige	-10763
▁rund	-10764
▁röst	-10765
▁selt	-10766
▁size	-10767
▁spil	-10768
▁supp	-10769
▁tegn	-10770
▁teke	-10771
▁tons	-10772
▁träd	-10773
▁træk	-10774
▁tårn	-10775
▁ulik	-10776
▁util	-10777
▁viol	-10778
▁virk	-10779
▁visa	-10780
▁årre	-10781
adrilj	-10782
afamil	-10783
aleava	-10784
auning	-10785
borger	-10786
elinje	-10787
emstår	-10788
espill	-10789
ession	-10790
givare	-10791
gåande	-10792
gænger	-10793
igelse	-10794
ingene	-10795
istene	-10796
isting	-10797
keback	-10798
klasse	-10799
kortet	-10800
legget	-10801
ligvis	-10802
litter	-10803
makten	-10804
nerhet	-10805
ockout	-10806
regent	-10807
ringøy	-10808
skapen	-10809
skiner	-10810
skirke	-10811
teikna	-10812
tesild	-10813
tykker	-10814
veldet	-10815
vesvis	-10816
▁Aaron	-10817
▁Abdel	-10818
▁Arten	-10819
▁Asian	-10820
▁Asien	-10821
▁Billy	-10822
▁Blake	-10823
▁Blich	-10824
▁Brats	-10825
▁Brett	-10826
▁Bøker	-10827
▁Carey	-10828
▁Debut	-10829
▁Dirch	-10830
▁Eddie	-10831
▁Elton	-10832
▁Every	-10833
▁Fjols	-10834
▁Fjord	-10835
▁Frans	-10836
▁Gärde	-10837
▁Gösta	-10838
▁Hertz	-10839
▁Hills	-10840
▁Ibrah	-10841
▁Jamie	-10842
▁Karen	-10843
▁Laura	-10844
▁Løren	-10845
▁MMXXI	-10846
▁Magic	-10847
▁Major	-10848
▁Malek	-10849
▁Malou	-10850
▁Miles	-10851
▁Minik	-10852
▁Mølby	-10853
▁Neill	-10854
▁Obama	-10855
▁Offic	-10856
▁Offis	-10857
▁Order	-10858
▁Papua	-10859
▁Perth	-10860
▁Piero	-10861
▁Pitts	-10862
▁Puert	-10863
▁Riksh	-10864
▁River	-10865
▁Sally	-10866
▁Schaf	-10867
▁Shand	-10868
▁Sigur	-10869
▁Siste	-10870
▁Spain	-10871
▁Svahn	-10872
▁Sydow	-10873
▁Techn	-10874
▁Teddy	-10875
▁Thyra	-10876
▁Tiger	-10877
▁Vasal	-10878
▁Vejle	-10879
▁Venez	-10880
▁Venus	-10881
▁Wayne	-10882
▁Willy	-10883
▁besto	-10884
▁bestå	-10885
▁bilen	-10886
▁bonde	-10887
▁bredt	-10888
▁const	-10889
▁culmi	-10890
▁drept	-10891
▁ender	-10892
▁ensam	-10893
▁facto	-10894
▁false	-10895
▁fokus	-10896
▁fylte	-10897
▁galan	-10898
▁gjest	-10899
▁herad	-10900
▁härst	-10901
▁invad	-10902
▁julet	-10903
▁kanad	-10904
▁knapp	-10905
▁knusk	-10906
▁legge	-10907
▁majon	-10908
▁mekan	-10909
▁mänsk	-10910
▁naken	-10911
▁never	-10912
▁næste	-10913
▁ocean	-10914
▁opmær	-10915
▁paret	-10916
▁plads	-10917
▁prior	-10918
▁redig	-10919
▁revys	-10920
▁seder	-10921
▁skapa	-10922
▁sorte	-10923
▁spesi	-10924
▁säker	-10925
▁taket	-10926
▁teori	-10927
▁timer	-10928
▁topps	-10929
▁trygg	-10930
▁udvid	-10931
▁utfør	-10932
▁utgiv	-10933
▁utrop	-10934
▁varer	-10935
▁varet	-10936
▁varte	-10937
attende	-10938
avenius	-10939
delbart	-10940
egovina	-10941
emdeles	-10942
esteret	-10943
fattere	-10944
företag	-10945
htosalo	-10946
iserien	-10947
itioner	-10948
klassen	-10949
ksessen	-10950
ksjonar	-10951
ksomhet	-10952
ktoppen	-10953
organis	-10954
punkten	-10955
sholder	-10956
skyrkan	-10957
talende	-10958
tatning	-10959
veksten	-10960
verande	-10961
vitskap	-10962
ættelse	-10963
øjtnant	-10964
▁Alanis	-10965
▁Always	-10966
▁Arktis	-10967
▁Atomic	-10968
▁Avisen	-10969
▁Batten	-10970
▁Bundes	-10971
▁Denver	-10972
▁Eagles	-10973
▁Engell	-10974
▁Fauske	-10975
▁Fredag	-10976
▁Gaysir	-10977
▁Hamlet	-10978
▁Hauges	-10979
▁Heidel	-10980
▁Honshu	-10981
▁Hooten	-10982
▁Jackie	-10983
▁Joakim	-10984
▁Johans	-10985
▁Justin	-10986
▁Keisha	-10987
▁Kepler	-10988
▁Labour	-10989
▁LeMond	-10990
▁Legend	-10991
▁Mahler	-10992
▁Mattel	-10993
▁Milano	-10994
▁Morgen	-10995
▁Moritz	-10996
▁Møgelt	-10997
▁Niklas	-10998
▁Nordli	-10999
▁Nordre	-11000
▁Nordsj	-11001
▁Opsahl	-11002
▁Pretty	-11003
▁Prisen	-11004
▁Priser	-11005
▁Result	-11006
▁Reuter	-11007
▁Roller	-11008
▁Rowena	-11009
▁Rudolf	-11010
▁Sanger	-11011
▁Schack	-11012
▁Scient	-11013
▁Second	-11014
▁Serbia	-11015
▁Sixtus	-11016
▁Sotsji	-11017
▁Soukal	-11018
▁Svarta	-11019
▁Sylvia	-11020
▁Tidlig	-11021
▁Troels	-11022
▁Unmack	-11023
▁Wallis	-11024
▁afdøde	-11025
▁alltså	-11026
▁angreb	-11027
▁arbeta	-11028
▁bratsj	-11029
▁brugte	-11030
▁copies	-11031
▁dansar	-11032
▁distin	-11033
▁drevet	-11034
▁fetter	-11035
▁fiktiv	-11036
▁handel	-11037
▁høyere	-11038
▁illust	-11039
▁insats	-11040
▁integr	-11041
▁intens	-11042
▁judisk	-11043
▁kamper	-11044
▁kanske	-11045
▁kejsar	-11046
▁kronet	-11047
▁kronor	-11048
▁kungar	-11049
▁lengre	-11050
▁lørdag	-11051
▁melodi	-11052
▁meteor	-11053
▁moment	-11054
▁morgon	-11055
▁myster	-11056
▁opføre	-11057
▁opnået	-11058
▁overfl	-11059
▁overra	-11060
▁parade	-11061
▁pengar	-11062
▁plates	-11063
▁prepar	-11064
▁sjunga	-11065
▁själva	-11066
▁skivor	-11067
▁skudår	-11068
▁strugg	-11069
▁svarte	-11070
▁sykkel	-11071
▁sønnes	-11072
▁titlar	-11073
▁ukjent	-11074
▁utgåve	-11075
▁utmerk	-11076
▁utvida	-11077
▁verdas	-11078
▁værter	-11079
▁ägnade	-11080
▁ønsket	-11081
albakken	-11082
angerous	-11083
inematic	-11084
liggande	-11085
liggende	-11086
ningstal	-11087
skansler	-11088
sklubben	-11089
▁Aukrust	-11090
▁Bahamas	-11091
▁Baptist	-11092
▁Costner	-11093
▁Diggins	-11094
▁Emperor	-11095
▁Gasolin	-11096
▁Handler	-11097
▁Hedmark	-11098
▁Hundvin	-11099
▁Jenssen	-11100
▁Jessica	-11101
▁Kashmir	-11102
▁Killing	-11103
▁Kjukken	-11104
▁Korleis	-11105
▁Kunglig	-11106
▁Madekwe	-11107
▁Nordens	-11108
▁Nystrøm	-11109
▁Paulsen	-11110
▁Prinsen	-11111
▁Seriens	-11112
▁Søltoft	-11113
▁Umberto	-11114
▁Vartdal	-11115
▁använde	-11116
▁betyder	-11117
▁busette	-11118
▁dengang	-11119
▁fiktive	-11120
▁gradvis	-11121
▁however	-11122
▁instead	-11123
▁killing	-11124
▁komiske	-11125
▁markeds	-11126
▁nødvend	-11127
▁oldefar	-11128
▁oppdaga	-11129
▁skiflyg	-11130
▁skildes	-11131
▁skildra	-11132
▁slekten	-11133
▁släkten	-11134
▁songane	-11135
▁sosialt	-11136
▁spawned	-11137
▁stiftet	-11138
▁sydlige	-11139
▁syndrom	-11140
▁teknikk	-11141
▁teknisk	-11142
▁tekstar	-11143
▁tilgang	-11144
▁tilslut	-11145
▁tonåren	-11146
▁tävling	-11147
▁vanligt	-11148
▁vedtatt	-11149
▁återkom	-11150
▁åttonde	-11151
alfabetet	-11152
ifisering	-11153
landshold	-11154
rigspolit	-11155
tårsaften	-11156
tårshoppr	-11157
valtnings	-11158
vetenskap	-11159
▁Arbeidar	-11160
▁Arkivert	-11161
▁Askepott	-11162
▁Bjørnstj	-11163
▁Bohuslän	-11164
▁Clouseau	-11165
▁Deutsche	-11166
▁Granlund	-11167
▁Kiribati	-11168
▁Kløvedal	-11169
▁McCollum	-11170
▁Oprindel	-11171
▁Presleys	-11172
▁Sjælland	-11173
▁Säsongen	-11174
▁Torbjørn	-11175
▁Törnblom	-11176
▁Vendland	-11177
▁Zanzibar	-11178
▁accident	-11179
▁artisten	-11180
▁austlege	-11181
▁bachelor	-11182
▁begivenh	-11183
▁blanding	-11184
▁byområde	-11185
▁datteren	-11186
▁dramatic	-11187
▁episodes	-11188
▁erfaring	-11189
▁faderens	-11190
▁festning	-11191
▁försöker	-11192
▁gruppens	-11193
▁hertugen	-11194
▁høvesvis	-11195
▁infanter	-11196
▁insatser	-11197
▁jubileum	-11198
▁krogshow	-11199
▁mandater	-11200
▁militära	-11201
▁opphavet	-11202
▁oppnådde	-11203
▁organist	-11204
▁platinum	-11205
▁påbegynd	-11206
▁rankings	-11207
▁revealed	-11208
▁signerte	-11209
▁skådespe	-11210
▁sluttede	-11211
▁solsikke	-11212
▁såkaldte	-11213
▁återigen	-11214
▁övergång	-11215
emtrædende	-11216
plassering	-11217
sättningar	-11218
▁Brokeback	-11219
▁Cinematic	-11220
▁Cristiano	-11221
▁Graceland	-11222
▁Grandiosa	-11223
▁Gärdestad	-11224
▁Hausgaard	-11225
▁Hillingsø	-11226
▁Historikk	-11227
▁Iamaleava	-11228
▁Kirkegård	-11229
▁Lehtosalo	-11230
▁Lørenskog	-11231
▁Magnusson	-11232
▁Mortensen	-11233
▁Nordpolen	-11234
▁Sarpsborg	-11235
▁Scavenius	-11236
▁Skagerrak	-11237
▁Skådespel	-11238
▁Spielberg	-11239
▁Värmlands	-11240
▁aktivitet	-11241
▁avslutade	-11242
▁betragtes	-11243
▁betydelig	-11244
▁deriblant	-11245
▁dronninga	-11246
▁förlorade	-11247
▁genomgick	-11248
▁giftermål	-11249
▁gymnasium	-11250
▁inaugural	-11251
▁klassiska	-11252
▁languages	-11253
▁ligeledes	-11254
▁organised	-11255
▁publisert	-11256
▁regularly	-11257
▁repræsent	-11258
▁sedermera	-11259
▁självbiog	-11260
▁skihoppar	-11261
▁synnerhet	-11262
▁tiltrådte	-11263
▁tsjekkisk	-11264
▁øygruppen	-11265
bundsrepubl	-11266
unesenteret	-11267
▁Aleksander	-11268
▁Battenberg	-11269
▁Democratic	-11270
▁Heidelberg	-11271
▁Holmenkoll	-11272
▁Kjerringøy	-11273
▁Ptolemaios	-11274
▁Samuelsson	-11275
▁Vasaloppet	-11276
▁abdicerede	-11277
▁avslutades	-11278
▁beliggende	-11279
▁elektriske	-11280
▁engagemang	-11281
▁føderasjon	-11282
▁hertugdømm	-11283
▁historical	-11284
▁ingrediens	-11285
▁konstruert	-11286
▁kungafamil	-11287
▁kungariket	-11288
▁næstældste	-11289
▁omfattande	-11290
▁prædikater	-11291
▁soundtrack	-11292
▁styresmakt	-11293
▁tilhørende	-11294
▁videreført	-11295
konkurransen	-11296
plasseringar	-11297
riksminister	-11298
skådespelare	-11299
▁Dronningens	-11300
▁Hercegovina	-11301
▁documentary	-11302
▁oprindelige	-11303
▁sangerinden	-11304
▁tilsvarende	-11305
itenskapelige	-11306
▁artistnavnet	-11307
▁humoristiske	-11308
▁julekalender	-11309
▁konkurransen	-11310
▁tilgjengelig	-11311
atsministeriet	-11312
▁Napoleonskrig	-11313
▁kronprinsparet	-11314
89	-11315
AA	-11316
DE	-11317
OH	-11318
fs	-11319
gn	-11320
hö	-11321
jn	-11322
ko	-11323
kø	-11324
lv	-11325
mø	-11326
oi	-11327
ws	-11328
ENY	-11329
ahr	-11330
alp	-11331
asa	-11332
asg	-11333
asy	-11334
aus	-11335
aux	-11336
bli	-11337
boa	-11338
bry	-11339
bær	-11340
don	-11341
ego	-11342
eig	-11343
eis	-11344
eph	-11345
erp	-11346
fys	-11347
jek	-11348
jør	-11349
kam	-11350
lai	-11351
lds	-11352
lum	-11353
låt	-11354
meå	-11355
mot	-11356
män	-11357
ngt	-11358
nik	-11359
nsk	-11360
oat	-11361
oda	-11362
ogi	-11363
oui	-11364
pts	-11365
rgh	-11366
rsk	-11367
rst	-11368
rud	-11369
ræt	-11370
slo	-11371
ssy	-11372
tol	-11373
tst	-11374
ugu	-11375
utg	-11376
vei	-11377
våg	-11378
yre	-11379
ælp	-11380
øsk	-11381
▁02	-11382
▁AM	-11383
▁Cy	-11384
▁Fö	-11385
▁GT	-11386
▁Hu	-11387
▁JP	-11388
▁Ok	-11389
▁PP	-11390
▁Rø	-11391
▁SF	-11392
▁Vo	-11393
▁Vy	-11394
▁Yr	-11395
▁ba	-11396
▁kø	-11397
▁ru	-11398
▁tå	-11399
▁uh	-11400
▁yr	-11401
▁zu	-11402
acon	-11403
agog	-11404
aide	-11405
amar	-11406
anje	-11407
arks	-11408
arve	-11409
asad	-11410
aton	-11411
avka	-11412
avne	-11413
børn	-11414
dans	-11415
drar	-11416
dste	-11417
eafs	-11418
ebar	-11419
ebär	-11420
edsm	-11421
egen	-11422
elva	-11423
eløb	-11424
eset	-11425
etti	-11426
faye	-11427
grar	-11428
gske	-11429
hoff	-11430
host	-11431
hånd	-11432
ibia	-11433
icka	-11434
idae	-11435
iday	-11436
igon	-11437
iled	-11438
ileg	-11439
inda	-11440
iona	-11441
ipet	-11442
iset	-11443
ivit	-11444
jarl	-11445
jing	-11446
kesk	-11447
king	-11448
klub	-11449
kons	-11450
krit	-11451
ktar	-11452
ktör	-11453
kyst	-11454
leir	-11455
læng	-11456
mets	-11457
misk	-11458
mmen	-11459
navn	-11460
ndal	-11461
nord	-11462
nväg	-11463
oble	-11464
oggi	-11465
ogie	-11466
olas	-11467
olis	-11468
onar	-11469
oons	-11470
ordi	-11471
orgs	-11472
osed	-11473
ount	-11474
plic	-11475
pren	-11476
rald	-11477
rigt	-11478
rskj	-11479
saka	-11480
sets	-11481
shus	-11482
skad	-11483
skop	-11484
slog	-11485
sopp	-11486
tare	-11487
teau	-11488
vaag	-11489
vart	-11490
vitt	-11491
äget	-11492
ätta	-11493
årds	-11494
årsk	-11495
ænge	-11496
øber	-11497
øres	-11498
øvar	-11499
øyen	-11500
▁007	-11501
▁113	-11502
▁135	-11503
▁149	-11504
▁159	-11505
▁280	-11506
▁366	-11507
▁450	-11508
▁860	-11509
▁AEW	-11510
▁AIK	-11511
▁Akt	-11512
▁Alp	-11513
▁Any	-11514
▁Aur	-11515
▁Bai	-11516
▁Box	-11517
▁CFP	-11518
▁Ced	-11519
▁Cha	-11520
▁Che	-11521
▁Dix	-11522
▁Eje	-11523
▁Ekl	-11524
▁Ene	-11525
▁Ess	-11526
▁Fad	-11527
▁Føl	-11528
▁GNU	-11529
▁Heg	-11530
▁Him	-11531
▁Hir	-11532
▁Hos	-11533
▁Hou	-11534
▁How	-11535
▁Ida	-11536
▁Ira	-11537
▁Jol	-11538
▁Lad	-11539
▁Lak	-11540
▁Lat	-11541
▁Ler	-11542
▁Leu	-11543
▁Lot	-11544
▁MGP	-11545
▁McK	-11546
▁Mic	-11547
▁Mub	-11548
▁Mun	-11549
▁NBA	-11550
▁Ora	-11551
▁Røn	-11552
▁See	-11553
▁Sey	-11554
▁Sky	-11555
▁Sor	-11556
▁Sue	-11557
▁Tik	-11558
▁Tiv	-11559
▁Tju	-11560
▁Ugg	-11561
▁Urs	-11562
▁Web	-11563
▁XFL	-11564
▁adj	-11565
▁afs	-11566
▁bul	-11567
▁båt	-11568
▁cat	-11569
▁dan	-11570
▁din	-11571
▁drø	-11572
▁dåb	-11573
▁döm	-11574
▁equ	-11575
▁ero	-11576
▁gig	-11577
▁hæd	-11578
▁hær	-11579
▁ild	-11580
▁jag	-11581
▁jus	-11582
▁kav	-11583
▁kos	-11584
▁kub	-11585
▁kur	-11586
▁let	-11587
▁loj	-11588
▁lyn	-11589
▁lät	-11590
▁mem	-11591
▁mig	-11592
▁mik	-11593
▁mog	-11594
▁møn	-11595
▁neb	-11596
▁oly	-11597
▁rov	-11598
▁sad	-11599
▁sej	-11600
▁slå	-11601
▁træ	-11602
▁tåg	-11603
▁utk	-11604
▁vas	-11605
▁vei	-11606
▁vul	-11607
▁way	-11608
▁ætt	-11609
▁öar	-11610
▁öst	-11611
adium	-11612
alaen	-11613
amisk	-11614
amous	-11615
anmar	-11616
arina	-11617
arium	-11618
ashir	-11619
asses	-11620
assey	-11621
assic	-11622
atene	-11623
atikk	-11624
ativa	-11625
augum	-11626
bered	-11627
blikk	-11628
bralt	-11629
brott	-11630
dered	-11631
deren	-11632
ebody	-11633
egger	-11634
elsea	-11635
enavn	-11636
engen	-11637
ensis	-11638
ephen	-11639
erens	-11640
erier	-11641
fader	-11642
fælde	-11643
førar	-11644
idler	-11645
igare	-11646
ijing	-11647
ikset	-11648
inald	-11649
inand	-11650
inett	-11651
iplin	-11652
keleg	-11653
kerød	-11654
kirke	-11655
kshow	-11656
legne	-11657
lekta	-11658
lpris	-11659
länge	-11660
løste	-11661
manus	-11662
medel	-11663
nlagt	-11664
oller	-11665
ompet	-11666
orven	-11667
othea	-11668
plads	-11669
plata	-11670
ralen	-11671
renes	-11672
rgman	-11673
rhula	-11674
riker	-11675
riket	-11676
rings	-11677
roman	-11678
række	-11679
sions	-11680
skule	-11681
sland	-11682
spart	-11683
talte	-11684
tatta	-11685
tedyr	-11686
tekst	-11687
tider	-11688
ulkin	-11689
uppet	-11690
ussel	-11691
utvik	-11692
veret	-11693
verly	-11694
vning	-11695
yrien	-11696
ysdag	-11697
ägare	-11698
äller	-11699
ømand	-11700
▁1452	-11701
▁1588	-11702
▁1671	-11703
▁1766	-11704
▁1809	-11705
▁1830	-11706
▁1845	-11707
▁1873	-11708
▁1875	-11709
▁1879	-11710
▁1881	-11711
▁1891	-11712
▁4000	-11713
▁Abba	-11714
▁Abkh	-11715
▁Alta	-11716
▁Anja	-11717
▁Auld	-11718
▁Birk	-11719
▁Brat	-11720
▁Buch	-11721
▁Bygd	-11722
▁Chop	-11723
▁Cleo	-11724
▁Cole	-11725
▁Cuba	-11726
▁Dart	-11727
▁Dave	-11728
▁Dúbr	-11729
▁Elev	-11730
▁Elli	-11731
▁Emir	-11732
▁Ferg	-11733
▁Find	-11734
▁Flet	-11735
▁Fron	-11736
▁Full	-11737
▁Gött	-11738
▁Haag	-11739
▁Hald	-11740
▁Hass	-11741
▁Hege	-11742
▁Hird	-11743
▁Host	-11744
▁Hubb	-11745
▁Joan	-11746
▁Joel	-11747
▁Kaya	-11748
▁Know	-11749
▁Kopp	-11750
▁Kris	-11751
▁Kåre	-11752
▁Liga	-11753
▁Lily	-11754
▁Look	-11755
▁MENY	-11756
▁Make	-11757
▁Many	-11758
▁Milk	-11759
▁Mizu	-11760
▁Mora	-11761
▁Måne	-11762
▁Name	-11763
▁Ness	-11764
▁Nich	-11765
▁Omar	-11766
▁Pape	-11767
▁Pill	-11768
▁Poll	-11769
▁Prov	-11770
▁Pust	-11771
▁Rein	-11772
▁René	-11773
▁Rita	-11774
▁Role	-11775
▁Roxy	-11776
▁Rudi	-11777
▁Ruud	-11778
▁Røde	-11779
▁Same	-11780
▁Silv	-11781
▁Symp	-11782
▁Tekn	-11783
▁Teng	-11784
▁Terr	-11785
▁Tidl	-11786
▁Trad	-11787
▁Trio	-11788
▁True	-11789
▁Uden	-11790
▁Umeå	-11791
▁Utan	-11792
▁Work	-11793
▁afsp	-11794
▁akti	-11795
▁anim	-11796
▁auka	-11797
▁bane	-11798
▁bebo	-11799
▁bens	-11800
▁brän	-11801
▁bånd	-11802
▁deal	-11803
▁ditt	-11804
▁dött	-11805
▁døme	-11806
▁eier	-11807
▁eies	-11808
▁ejer	-11809
▁fagk	-11810
▁fell	-11811
▁fjør	-11812
▁foss	-11813
▁fylt	-11814
▁good	-11815
▁hell	-11816
▁icke	-11817
▁indu	-11818
▁inga	-11819
▁irsk	-11820
▁jula	-11821
▁kast	-11822
▁kelt	-11823
▁king	-11824
▁kläd	-11825
▁kock	-11826
▁koma	-11827
▁kupp	-11828
▁kvit	-11829
▁køen	-11830
▁leva	-11831
▁lika	-11832
▁lopp	-11833
▁lägg	-11834
▁lære	-11835
▁mini	-11836
▁musk	-11837
▁møte	-11838
▁nabo	-11839
▁påst	-11840
▁repr	-11841
▁rygg	-11842
▁simp	-11843
▁skat	-11844
▁stav	-11845
▁steg	-11846
▁stro	-11847
▁styv	-11848
▁suic	-11849
▁tack	-11850
▁teck	-11851
▁titt	-11852
▁togs	-11853
▁town	-11854
▁tran	-11855
▁trib	-11856
▁trub	-11857
▁udrå	-11858
▁uger	-11859
▁uppk	-11860
▁uppl	-11861
▁utbr	-11862
▁vand	-11863
▁veke	-11864
▁very	-11865
▁vitt	-11866
▁vård	-11867
▁wave	-11868
▁week	-11869
▁zool	-11870
▁ännu	-11871
▁æres	-11872
antisk	-11873
arberg	-11874
astika	-11875
basert	-11876
dalena	-11877
ejende	-11878
erenga	-11879
fuglar	-11880
gjaren	-11881
grepet	-11882
gymnas	-11883
holdes	-11884
ianter	-11885
jering	-11886
kampen	-11887
kerett	-11888
krantz	-11889
lasser	-11890
legvis	-11891
listen	-11892
nevnte	-11893
ompson	-11894
onsert	-11895
plater	-11896
relser	-11897
sprins	-11898
ssaker	-11899
sstoff	-11900
stebro	-11901
terade	-11902
uation	-11903
ushima	-11904
ventet	-11905
værker	-11906
waymen	-11907
ynthos	-11908
ångare	-11909
▁Adige	-11910
▁Amini	-11911
▁Biden	-11912
▁Blair	-11913
▁Boget	-11914
▁Bowie	-11915
▁Broen	-11916
▁Bryan	-11917
▁Bränn	-11918
▁Campe	-11919
▁Candy	-11920
▁Chapp	-11921
▁Cowbo	-11922
▁Craig	-11923
▁Damon	-11924
▁Diego	-11925
▁Distr	-11926
▁Ekdal	-11927
▁Eliza	-11928
▁Energ	-11929
▁Flera	-11930
▁Ghost	-11931
▁Glory	-11932
▁Grant	-11933
▁Hamas	-11934
▁Hamil	-11935
▁Hardy	-11936
▁Heist	-11937
▁Helen	-11938
▁Honor	-11939
▁Hyvär	-11940
▁Håkan	-11941
▁Hålog	-11942
▁Klara	-11943
▁Klima	-11944
▁Kungs	-11945
▁Labor	-11946
▁Lanka	-11947
▁Later	-11948
▁Magne	-11949
▁Malin	-11950
▁Matth	-11951
▁Mayen	-11952
▁Meyer	-11953
▁Niven	-11954
▁Nyrup	-11955
▁Odvar	-11956
▁Prime	-11957
▁Relig	-11958
▁Rings	-11959
▁Roses	-11960
▁Ryfyl	-11961
▁Scarl	-11962
▁Skien	-11963
▁Tesla	-11964
▁Toten	-11965
▁Trans	-11966
▁Twist	-11967
▁Tyrol	-11968
▁Voice	-11969
▁Walsh	-11970
▁Yanke	-11971
▁addit	-11972
▁advoc	-11973
▁akvar	-11974
▁altid	-11975
▁arist	-11976
▁arten	-11977
▁avail	-11978
▁avlid	-11979
▁bands	-11980
▁besøg	-11981
▁betre	-11982
▁betød	-11983
▁bosat	-11984
▁braut	-11985
▁bygde	-11986
▁coast	-11987
▁consi	-11988
▁crore	-11989
▁cross	-11990
▁deles	-11991
▁duett	-11992
▁dåben	-11993
▁endnu	-11994
▁femin	-11995
▁flate	-11996
▁footb	-11997
▁fältt	-11998
▁försv	-11999
▁fødde	-12000
▁genre	-12001
▁himla	-12002
▁hired	-12003
▁hjert	-12004
▁hjælp	-12005
▁høgre	-12006
▁kalde	-12007
▁kapit	-12008
▁klare	-12009
▁korte	-12010
▁lagar	-12011
▁lagde	-12012
▁lagen	-12013
▁lager	-12014
▁leker	-12015
▁level	-12016
▁långa	-12017
▁lærar	-12018
▁læste	-12019
▁maler	-12020
▁merke	-12021
▁mängd	-12022
▁måske	-12023
▁mørke	-12024
▁nyare	-12025
▁nyere	-12026
▁ordin	-12027
▁ortod	-12028
▁pause	-12029
▁plade	-12030
▁polsk	-12031
▁praks	-12032
▁påvir	-12033
▁racer	-12034
▁reine	-12035
▁reise	-12036
▁rejse	-12037
▁revet	-12038
▁riksk	-12039
▁rural	-12040
▁røter	-12041
▁samla	-12042
▁seere	-12043
▁share	-12044
▁sjöng	-12045
▁skade	-12046
▁skate	-12047
▁skill	-12048
▁skåra	-12049
▁solen	-12050
▁solos	-12051
▁spark	-12052
▁sprit	-12053
▁stått	-12054
▁synth	-12055
▁taler	-12056
▁tapte	-12057
▁treet	-12058
▁trett	-12059
▁trial	-12060
▁troub	-12061
▁tvang	-12062
▁utför	-12063
▁vakte	-12064
▁veien	-12065
▁visas	-12066
▁visst	-12067
▁viten	-12068
▁værts	-12069
▁youth	-12070
▁öster	-12071
▁överl	-12072
▁ønske	-12073
angeres	-12074
baserte	-12075
dmægtig	-12076
fabrikk	-12077
figurer	-12078
föräldr	-12079
halvøya	-12080
ingsliv	-12081
isjoner	-12082
isnings	-12083
ittiske	-12084
kanalen	-12085
korting	-12086
ningene	-12087
rskjöld	-12088
skaffet	-12089
starten	-12090
▁Baiage	-12091
▁Banden	-12092
▁Batman	-12093
▁Batter	-12094
▁Birger	-12095
▁Birgit	-12096
▁Blandt	-12097
▁Brandt	-12098
▁Cirkus	-12099
▁Claude	-12100
▁Connor	-12101
▁Culkin	-12102
▁Curtis	-12103
▁Damian	-12104
▁Diesel	-12105
▁Donnie	-12106
▁Double	-12107
▁Episod	-12108
▁Fabric	-12109
▁Gloria	-12110
▁Glover	-12111
▁Grease	-12112
▁Harold	-12113
▁Harvey	-12114
▁Hertig	-12115
▁Horten	-12116
▁Hærens	-12117
▁Höghet	-12118
▁Indtil	-12119
▁Ingmar	-12120
▁Jagged	-12121
▁Kerrig	-12122
▁Kneipp	-12123
▁Konung	-12124
▁Kraken	-12125
▁Lahtis	-12126
▁Lidman	-12127
▁Lørdag	-12128
▁Massey	-12129
▁Myrdal	-12130
▁Nasjon	-12131
▁Opphav	-12132
▁Orange	-12133
▁Oranje	-12134
▁Paaske	-12135
▁Parade	-12136
▁Planet	-12137
▁Puerto	-12138
▁Review	-12139
▁Russia	-12140
▁Saigon	-12141
▁Santos	-12142
▁Savage	-12143
▁Sigurd	-12144
▁Sillén	-12145
▁Slaget	-12146
▁Sundin	-12147
▁Thanks	-12148
▁Trolle	-12149
▁Trygve	-12150
▁Udover	-12151
▁Waldau	-12152
▁Waylon	-12153
▁Willis	-12154
▁Xander	-12155
▁Ziegel	-12156
▁adelst	-12157
▁approx	-12158
▁avfall	-12159
▁avgjer	-12160
▁avheng	-12161
▁avlade	-12162
▁backup	-12163
▁begins	-12164
▁besegr	-12165
▁betala	-12166
▁beteck	-12167
▁butikk	-12168
▁byggde	-12169
▁critic	-12170
▁design	-12171
▁enbart	-12172
▁fargar	-12173
▁ferdig	-12174
▁fysikk	-12175
▁gjenop	-12176
▁gongar	-12177
▁grader	-12178
▁gælder	-12179
▁haldne	-12180
▁health	-12181
▁indgår	-12182
▁inrikt	-12183
▁kampar	-12184
▁kjøpte	-12185
▁klarte	-12186
▁konfer	-12187
▁kungah	-12188
▁legend	-12189
▁length	-12190
▁letter	-12191
▁levnad	-12192
▁liknar	-12193
▁lojale	-12194
▁luften	-12195
▁längst	-12196
▁længst	-12197
▁medier	-12198
▁miljon	-12199
▁nedbør	-12200
▁nøtter	-12201
▁pjäsen	-12202
▁planer	-12203
▁positi	-12204
▁revyen	-12205
▁samvel	-12206
▁serial	-12207
▁seriar	-12208
▁sjakks	-12209
▁snakka	-12210
▁sosial	-12211
▁stilte	-12212
▁styrte	-12213
▁sändas	-12214
▁søsken	-12215
▁tiende	-12216
▁tildel	-12217
▁trolig	-12218
▁tävlar	-12219
▁tårnet	-12220
▁udtryk	-12221
▁uppföl	-12222
▁utsatt	-12223
▁uttalt	-12224
▁varede	-12225
▁veckor	-12226
▁vinden	-12227
▁værker	-12228
▁Øivind	-12229
aatsoper	-12230
asjement	-12231
dirigent	-12232
ercially	-12233
handling	-12234
högskola	-12235
ifiserer	-12236
irkebein	-12237
istående	-12238
medaljen	-12239
musikken	-12240
ordbøker	-12241
orkyrkan	-12242
regissör	-12243
valtning	-12244
zenegger	-12245
ändelser	-12246
▁Buffett	-12247
▁Chelsea	-12248
▁Dyrlund	-12249
▁Engelsk	-12250
▁Esbjerg	-12251
▁Evensen	-12252
▁Filippa	-12253
▁Gibralt	-12254
▁Goldman	-12255
▁Greater	-12256
▁Gregory	-12257
▁Hoskins	-12258
▁Højlund	-12259
▁Jansons	-12260
▁Kristin	-12261
▁Lisette	-12262
▁Myanmar	-12263
▁Nyheter	-12264
▁Nyqvist	-12265
▁Premise	-12266
▁Reacher	-12267
▁Salinas	-12268
▁Schafer	-12269
▁Seconds	-12270
▁Sentral	-12271
▁Skaugum	-12272
▁Tesfaye	-12273
▁Tjorven	-12274
▁Toronto	-12275
▁Tronføl	-12276
▁Uppland	-12277
▁Wanting	-12278
▁abdiker	-12279
▁adelige	-12280
▁adresse	-12281
▁anvendt	-12282
▁average	-12283
▁belägen	-12284
▁besøkte	-12285
▁bokstav	-12286
▁borgerk	-12287
▁brukere	-12288
▁cinemat	-12289
▁dekkjer	-12290
▁deltatt	-12291
▁diktsam	-12292
▁enheter	-12293
▁faddrar	-12294
▁faktisk	-12295
▁farbror	-12296
▁greater	-12297
▁grænser	-12298
▁gudsten	-12299
▁heilage	-12300
▁hjemmes	-12301
▁hoppade	-12302
▁inbland	-12303
▁indspil	-12304
▁klubbar	-12305
▁kongere	-12306
▁konsekv	-12307
▁kunstig	-12308
▁kvelden	-12309
▁ledande	-12310
▁majones	-12311
▁markert	-12312
▁medarbe	-12313
▁mestsel	-12314
▁molekyl	-12315
▁monster	-12316
▁oppfatt	-12317
▁oppført	-12318
▁oppnådd	-12319
▁outside	-12320
▁pensjon	-12321
▁plassen	-12322
▁prosess	-12323
▁referer	-12324
▁regeret	-12325
▁retired	-12326
▁schweiz	-12327
▁seriene	-12328
▁sharing	-12329
▁skilsmä	-12330
▁skottår	-12331
▁skuddår	-12332
▁snakkar	-12333
▁stardom	-12334
▁strenge	-12335
▁sydvest	-12336
▁sydväst	-12337
▁særligt	-12338
▁tidligt	-12339
▁tidsper	-12340
▁trained	-12341
▁tropisk	-12342
▁tränare	-12343
▁tyrkisk	-12344
▁udpeget	-12345
▁ungefär	-12346
▁utvikle	-12347
▁verdien	-12348
administr	-12349
amförallt	-12350
ermanland	-12351
ingslivet	-12352
løsningen	-12353
magasinet	-12354
odespelar	-12355
publikken	-12356
styrelsen	-12357
ställning	-12358
unistiske	-12359
▁Adelaide	-12360
▁Atterdag	-12361
▁Bachelor	-12362
▁Birkerød	-12363
▁Bjørnson	-12364
▁Borlänge	-12365
▁Bratteli	-12366
▁Confeder	-12367
▁Dessutan	-12368
▁Dorothea	-12369
▁Dúbravka	-12370
▁Fjordane	-12371
▁Fletcher	-12372
▁François	-12373
▁Hamilton	-12374
▁Imperial	-12375
▁Industry	-12376
▁Madicken	-12377
▁Minister	-12378
▁Mubashir	-12379
▁Nørrebro	-12380
▁Olofsson	-12381
▁Original	-12382
▁Reginald	-12383
▁Richmond	-12384
▁Schinkel	-12385
▁Slovenia	-12386
▁Somebody	-12387
▁Thompson	-12388
▁adresser	-12389
▁aktivist	-12390
▁använder	-12391
▁apparent	-12392
▁avgrensa	-12393
▁baserade	-12394
▁begynner	-12395
▁berättar	-12396
▁bestefar	-12397
▁bevarede	-12398
▁bilskilt	-12399
▁building	-12400
▁butikker	-12401
▁composer	-12402
▁criminal	-12403
▁datidens	-12404
▁deltagit	-12405
▁detektiv	-12406
▁determin	-12407
▁enrolled	-12408
▁erklærte	-12409
▁families	-12410
▁halfpipe	-12411
▁håndball	-12412
▁infördes	-12413
▁julkalen	-12414
▁legenden	-12415
▁markerer	-12416
▁medaljar	-12417
▁milliard	-12418
▁nettstad	-12419
▁nærmeste	-12420
▁optræder	-12421
▁ordfører	-12422
▁playoffs	-12423
▁politikk	-12424
▁provided	-12425
▁religiøs	-12426
▁romarane	-12427
▁rådgiver	-12428
▁sesonger	-12429
▁skuespil	-12430
▁stiftede	-12431
▁suveræne	-12432
▁søskende	-12433
▁tekniska	-12434
▁tronbest	-12435
▁trontill	-12436
▁yrkesliv	-12437
▁øygruppe	-12438
berettiget	-12439
spillingen	-12440
spillinger	-12441
sselskapet	-12442
stillingen	-12443
▁Anderblad	-12444
▁Bogetvedt	-12445
▁Fabricius	-12446
▁Ferdinand	-12447
▁Fuglehaug	-12448
▁Göttingen	-12449
▁Holstebro	-12450
▁Hyvärinen	-12451
▁Jutlandia	-12452
▁Ludvigsen	-12453
▁Magdalena	-12454
▁Rasmusson	-12455
▁Vålerenga	-12456
▁assistent	-12457
▁avsluttet	-12458
▁bibliotek	-12459
▁bokstavar	-12460
▁bygninger	-12461
▁elektrisk	-12462
▁endvidere	-12463
▁kollektiv	-12464
▁landshold	-12465
▁locations	-12466
▁medvirken	-12467
▁miniserie	-12468
▁monarkiet	-12469
▁nødvendig	-12470
▁nøyaktige	-12471
▁påbörjade	-12472
▁refererer	-12473
▁scheduled	-12474
▁spesifikk	-12475
▁televised	-12476
▁tilnavnet	-12477
▁tjenester	-12478
▁udvikling	-12479
▁uppgifter	-12480
▁varianter	-12481
▁verdensme	-12482
ansminister	-12483
▁Ambjørnsen	-12484
▁Federation	-12485
▁Heartbreak	-12486
▁Hålogaland	-12487
▁Kneippbrød	-12488
▁Kristeligt	-12489
▁Trolltider	-12490
▁Trondhjems	-12491
▁betydelser	-12492
▁biological	-12493
▁ekonomiska	-12494
▁etterkvart	-12495
▁genomförde	-12496
▁handlingen	-12497
▁historiska	-12498
▁klassikere	-12499
▁medlemskap	-12500
▁nasjonaldr	-12501
▁offentliga	-12502
▁omfattende	-12503
▁organisert	-12504
▁plassering	-12505
▁prinsessen	-12506
▁påbegyndte	-12507
▁registrert	-12508
▁restaurang	-12509
▁skateboard	-12510
▁tettstaden	-12511
▁tillträdde	-12512
▁Medvirkende	-12513
▁Rosenkrantz	-12514
▁betydningen	-12515
▁elektronisk	-12516
▁entertainer	-12517
▁förhållande	-12518
▁keyboardist	-12519
▁overlevende	-12520
▁selvstendig	-12521
▁transferred	-12522
▁utanlandske	-12523
▁utviklingen	-12524
▁äktenskapet	-12525
▁Jönssonligan	-12526
▁Slottskyrkan	-12527
▁opmærksomhed	-12528
▁talentkonkur	-12529
▁tjänstgjorde	-12530
▁österrikiska	-12531
▁Blodstrupmoen	-12532
▁Filmdatabasen	-12533
▁regeringschef	-12534
▁runealfabetet	-12535
▁Tronfølgeloven	-12536
▁längdskidåkare	-12537
▁tjenestegjorde	-12538
▁underhållnings	-12539
▁Arbeidarpartiet	-12540
▁Frederiksstaden	-12541
▁justitsminister	-12542
10	-12543
16	-12544
82	-12545
90	-12546
AP	-12547
HS	-12548
ao	-12549
bb	-12550
fæ	-12551
ku	-12552
lm	-12553
mn	-12554
mä	-12555
må	-12556
tu	-12557
uv	-12558
ami	-12559
avo	-12560
cco	-12561
cht	-12562
eel	-12563
eff	-12564
ejs	-12565
ems	-12566
eno	-12567
esl	-12568
fot	-12569
gär	-12570
has	-12571
hde	-12572
hra	-12573
høy	-12574
ido	-12575
ikn	-12576
ilm	-12577
iny	-12578
iry	-12579
isl	-12580
jot	-12581
jøp	-12582
kek	-12583
kin	-12584
kok	-12585
kun	-12586
kär	-12587
lda	-12588
meg	-12589
mke	-12590
mse	-12591
myl	-12592
mån	-12593
näs	-12594
oge	-12595
ogt	-12596
okh	-12597
onn	-12598
orz	-12599
osi	-12600
pad	-12601
pes	-12602
pil	-12603
ppa	-12604
rag	-12605
rge	-12606
rue	-12607
run	-12608
sby	-12609
sfl	-12610
sia	-12611
sjø	-12612
sve	-12613
tev	-12614
ugt	-12615
ukh	-12616
vag	-12617
yon	-12618
yvi	-12619
zer	-12620
åte	-12621
øye	-12622
▁AT	-12623
▁Aa	-12624
▁Bh	-12625
▁Få	-12626
▁HK	-12627
▁Hi	-12628
▁Ib	-12629
▁Ic	-12630
▁LL	-12631
▁Læ	-12632
▁Nå	-12633
▁Nø	-12634
▁Pi	-12635
▁Sæ	-12636
▁Us	-12637
▁Wy	-12638
▁Yv	-12639
▁Za	-12640
▁ap	-12641
▁ih	-12642
▁py	-12643
▁ri	-12644
▁rå	-12645
▁sq	-12646
▁za	-12647
▁Åt	-12648
abor	-12649
adal	-12650
agne	-12651
alda	-12652
ando	-12653
arta	-12654
ashi	-12655
atha	-12656
atic	-12657
auty	-12658
blås	-12659
bukk	-12660
cend	-12661
dekj	-12662
dene	-12663
door	-12664
edje	-12665
ekap	-12666
ekte	-12667
elda	-12668
elev	-12669
elsh	-12670
ener	-12671
enty	-12672
ermi	-12673
etes	-12674
falz	-12675
fson	-12676
gder	-12677
gikk	-12678
ging	-12679
hamn	-12680
hoku	-12681
igar	-12682
ikki	-12683
iley	-12684
illy	-12685
inar	-12686
insb	-12687
inse	-12688
irty	-12689
itol	-12690
itty	-12691
ival	-12692
izer	-12693
jent	-12694
keid	-12695
kels	-12696
kjer	-12697
knad	-12698
lage	-12699
lags	-12700
lass	-12701
lats	-12702
lere	-12703
less	-12704
lize	-12705
llet	-12706
logi	-12707
lovs	-12708
lufs	-12709
läkt	-12710
lønn	-12711
mgik	-12712
mænd	-12713
ndik	-12714
nene	-12715
nits	-12716
nivå	-12717
oldt	-12718
onse	-12719
pole	-12720
rain	-12721
rant	-12722
rger	-12723
rgöö	-12724
riet	-12725
riks	-12726
rine	-12727
roth	-12728
rtie	-12729
rykk	-12730
råke	-12731
röst	-12732
sbog	-12733
sete	-12734
skor	-12735
skov	-12736
sler	-12737
smet	-12738
spor	-12739
staf	-12740
stal	-12741
sues	-12742
supp	-12743
sæde	-12744
tand	-12745
tast	-12746
tian	-12747
tigt	-12748
tjof	-12749
tsan	-12750
ubil	-12751
uela	-12752
uiet	-12753
uist	-12754
ulla	-12755
ushu	-12756
uson	-12757
utes	-12758
vang	-12759
varo	-12760
veig	-12761
vnet	-12762
vold	-12763
være	-12764
yard	-12765
ydda	-12766
ying	-12767
ynes	-12768
yson	-12769
zano	-12770
ällk	-12771
ävle	-12772
åsen	-12773
åter	-12774
öjes	-12775
▁105	-12776
▁107	-12777
▁108	-12778
▁109	-12779
▁126	-12780
▁154	-12781
▁Add	-12782
▁Adv	-12783
▁Anc	-12784
▁Ank	-12785
▁Ave	-12786
▁BYU	-12787
▁Bör	-12788
▁Cat	-12789
▁Cay	-12790
▁Cir	-12791
▁Cos	-12792
▁Daw	-12793
▁Dok	-12794
▁Dåb	-12795
▁Ext	-12796
▁Eye	-12797
▁Fla	-12798
▁Fyn	-12799
▁Gul	-12800
▁Gur	-12801
▁Hey	-12802
▁Hod	-12803
▁Ips	-12804
▁Ivy	-12805
▁Jel	-12806
▁Kai	-12807
▁Kak	-12808
▁Klo	-12809
▁Lik	-12810
▁Lön	-12811
▁Mrs	-12812
▁Mær	-12813
▁NOR	-12814
▁Nad	-12815
▁Neo	-12816
▁Ose	-12817
▁Oss	-12818
▁PPV	-12819
▁Pen	-12820
▁Pir	-12821
▁Pon	-12822
▁Por	-12823
▁Psy	-12824
▁Pyg	-12825
▁Raf	-12826
▁Rat	-12827
▁Rim	-12828
▁Ris	-12829
▁Rød	-12830
▁SSB	-12831
▁Sah	-12832
▁Shu	-12833
▁Sog	-12834
▁Sov	-12835
▁Sær	-12836
▁Tam	-12837
▁Tun	-12838
▁Und	-12839
▁Viv	-12840
▁Wag	-12841
▁Wan	-12842
▁bem	-12843
▁cit	-12844
▁dåp	-12845
▁eid	-12846
▁enl	-12847
▁env	-12848
▁erk	-12849
▁fas	-12850
▁føn	-12851
▁get	-12852
▁hek	-12853
▁het	-12854
▁hug	-12855
▁hva	-12856
▁høv	-12857
▁inj	-12858
▁ink	-12859
▁jet	-12860
▁jom	-12861
▁kal	-12862
▁kjø	-12863
▁krö	-12864
▁køn	-12865
▁laf	-12866
▁lic	-12867
▁low	-12868
▁läg	-12869
▁läs	-12870
▁lös	-12871
▁mes	-12872
▁mit	-12873
▁mix	-12874
▁nyh	-12875
▁omn	-12876
▁pip	-12877
▁ris	-12878
▁sib	-12879
▁soc	-12880
▁sto	-12881
▁sus	-12882
▁såd	-12883
▁sön	-12884
▁too	-12885
▁uds	-12886
▁utø	-12887
▁vie	-12888
▁væl	-12889
▁you	-12890
▁äng	-12891
▁éin	-12892
▁ørn	-12893
aberg	-12894
adise	-12895
adser	-12896
agram	-12897
alaau	-12898
alaxy	-12899
almer	-12900
amnet	-12901
anken	-12902
apted	-12903
aries	-12904
arkat	-12905
arkis	-12906
artar	-12907
arthy	-12908
artik	-12909
asgow	-12910
asjen	-12911
asjer	-12912
atham	-12913
aysia	-12914
bakgr	-12915
bakke	-12916
baner	-12917
birds	-12918
bliog	-12919
blæra	-12920
bunde	-12921
byrån	-12922
ceded	-12923
cerad	-12924
cerat	-12925
dagar	-12926
deler	-12927
drake	-12928
eares	-12929
eling	-12930
elset	-12931
elukk	-12932
emmed	-12933
enhet	-12934
eniør	-12935
erbai	-12936
farts	-12937
firma	-12938
förde	-12939
geleg	-12940
gevær	-12941
gjord	-12942
grøne	-12943
gsmål	-12944
hovud	-12945
ickan	-12946
idene	-12947
idsen	-12948
ients	-12949
ieves	-12950
igner	-12951
inema	-12952
inens	-12953
iskap	-12954
istry	-12955
jaren	-12956
kaber	-12957
laren	-12958
larus	-12959
lemma	-12960
lovak	-12961
manay	-12962
melse	-12963
ments	-12964
mført	-12965
minis	-12966
mylou	-12967
ndahl	-12968
nende	-12969
odite	-12970
olved	-12971
ordin	-12972
orton	-12973
ourke	-12974
ously	-12975
overy	-12976
owell	-12977
paign	-12978
plikt	-12979
poena	-12980
poeng	-12981
poäng	-12982
prene	-12983
ranos	-12984
riget	-12985
riske	-12986
sblod	-12987
serte	-12988
shand	-12989
skjær	-12990
sonen	-12991
ssida	-12992
ssjuk	-12993
ssynd	-12994
stida	-12995
sveen	-12996
tades	-12997
tagen	-12998
teken	-12999
tende	-13000
tomer	-13001
tting	-13002
tykke	-13003
tyske	-13004
uchen	-13005
ucker	-13006
uddet	-13007
unale	-13008
undne	-13009
unegr	-13010
utsch	-13011
valet	-13012
vandr	-13013
vapen	-13014
yeong	-13015
ymous	-13016
ävlan	-13017
ålene	-13018
ækken	-13019
östes	-13020
östra	-13021
øbing	-13022
øtene	-13023
▁1387	-13024
▁1513	-13025
▁1582	-13026
▁1693	-13027
▁1770	-13028
▁1819	-13029
▁1823	-13030
▁1824	-13031
▁1838	-13032
▁1861	-13033
▁1864	-13034
▁1874	-13035
▁1885	-13036
▁1893	-13037
▁3000	-13038
▁8601	-13039
▁Alam	-13040
▁Avin	-13041
▁Bach	-13042
▁Bass	-13043
▁Blom	-13044
▁Blun	-13045
▁Bout	-13046
▁Brug	-13047
▁Chis	-13048
▁Cons	-13049
▁Core	-13050
▁Damn	-13051
▁Dans	-13052
▁Dion	-13053
▁Eden	-13054
▁Elva	-13055
▁Emer	-13056
▁Even	-13057
▁FIDE	-13058
▁Fool	-13059
▁Frue	-13060
▁Färö	-13061
▁Føre	-13062
▁Galt	-13063
▁Gift	-13064
▁Give	-13065
▁Grav	-13066
▁Hale	-13067
▁Hamp	-13068
▁Hath	-13069
▁Hawn	-13070
▁Hein	-13071
▁Hele	-13072
▁Help	-13073
▁Here	-13074
▁Hjør	-13075
▁Hvor	-13076
▁Jesu	-13077
▁Joen	-13078
▁Joey	-13079
▁Josh	-13080
▁Kauk	-13081
▁Klin	-13082
▁Lapp	-13083
▁Libr	-13084
▁Merk	-13085
▁Mira	-13086
▁Musk	-13087
▁Must	-13088
▁Mørk	-13089
▁Nato	-13090
▁Need	-13091
▁Neil	-13092
▁Nora	-13093
▁Næss	-13094
▁Peng	-13095
▁Pont	-13096
▁Pose	-13097
▁Prom	-13098
▁Ralf	-13099
▁Rana	-13100
▁Rang	-13101
▁Rele	-13102
▁Revy	-13103
▁Roos	-13104
▁Roth	-13105
▁Salz	-13106
▁Sejr	-13107
▁Shik	-13108
▁Shue	-13109
▁Skal	-13110
▁Skog	-13111
▁Sols	-13112
▁Spet	-13113
▁Syne	-13114
▁Tage	-13115
▁Take	-13116
▁Tall	-13117
▁Tang	-13118
▁Teen	-13119
▁Toby	-13120
▁Tove	-13121
▁Trop	-13122
▁Träd	-13123
▁Vald	-13124
▁Vere	-13125
▁Vikt	-13126
▁Vild	-13127
▁Ving	-13128
▁Vipe	-13129
▁Walk	-13130
▁Wend	-13131
▁Wild	-13132
▁Word	-13133
▁Wret	-13134
▁baby	-13135
▁balt	-13136
▁beat	-13137
▁bist	-13138
▁blok	-13139
▁bond	-13140
▁boss	-13141
▁brev	-13142
▁bukk	-13143
▁cult	-13144
▁ding	-13145
▁doub	-13146
▁drew	-13147
▁east	-13148
▁econ	-13149
▁eiga	-13150
▁eins	-13151
▁fald	-13152
▁fået	-13153
▁fæng	-13154
▁glam	-13155
▁gäst	-13156
▁hast	-13157
▁havs	-13158
▁herr	-13159
▁hjør	-13160
▁hofm	-13161
▁hvad	-13162
▁hårt	-13163
▁impr	-13164
▁intr	-13165
▁jury	-13166
▁kill	-13167
▁kjøt	-13168
▁kles	-13169
▁klim	-13170
▁kräv	-13171
▁krön	-13172
▁ladd	-13173
▁lagd	-13174
▁logo	-13175
▁lukk	-13176
▁mast	-13177
▁mera	-13178
▁måle	-13179
▁mång	-13180
▁ocku	-13181
▁opne	-13182
▁oppv	-13183
▁pall	-13184
▁pjäs	-13185
▁rest	-13186
▁rigt	-13187
▁rise	-13188
▁saga	-13189
▁seil	-13190
▁serb	-13191
▁sker	-13192
▁skib	-13193
▁slus	-13194
▁smek	-13195
▁soga	-13196
▁sola	-13197
▁spin	-13198
▁tall	-13199
▁thro	-13200
▁told	-13201
▁udsk	-13202
▁ukra	-13203
▁utkj	-13204
▁vakt	-13205
▁vanl	-13206
▁vekk	-13207
▁vekt	-13208
▁vice	-13209
▁vita	-13210
▁vold	-13211
▁vulk	-13212
▁væra	-13213
▁ymse	-13214
▁Øyre	-13215
▁ødel	-13216
agerar	-13217
aktene	-13218
alties	-13219
aminer	-13220
apolis	-13221
ariske	-13222
arland	-13223
artney	-13224
atsråd	-13225
avgift	-13226
bragte	-13227
cement	-13228
cerats	-13229
crantz	-13230
delser	-13231
edømet	-13232
endene	-13233
erciel	-13234
ergren	-13235
erherr	-13236
etalet	-13237
etsjen	-13238
fartyg	-13239
festen	-13240
förmed	-13241
førsel	-13242
gdagar	-13243
geland	-13244
gelsen	-13245
gänget	-13246
henger	-13247
ianske	-13248
ifikke	-13249
iklubb	-13250
isthøj	-13251
jarder	-13252
jänten	-13253
keborg	-13254
ksborg	-13255
ktören	-13256
landen	-13257
ligaen	-13258
lingby	-13259
ländsk	-13260
makarg	-13261
matisk	-13262
medalj	-13263
mitter	-13264
nævnte	-13265
olycka	-13266
omiske	-13267
oniker	-13268
phries	-13269
retter	-13270
ristol	-13271
rogram	-13272
rosoft	-13273
sdagen	-13274
serten	-13275
sjonar	-13276
svalet	-13277
svensk	-13278
urring	-13279
utøver	-13280
varets	-13281
verein	-13282
ättade	-13283
ældres	-13284
æssigt	-13285
ørsmål	-13286
▁Abdik	-13287
▁Anast	-13288
▁Anden	-13289
▁Antig	-13290
▁Aveny	-13291
▁Bauns	-13292
▁Bjerr	-13293
▁Buddy	-13294
▁Chase	-13295
▁Corum	-13296
▁Court	-13297
▁Cross	-13298
▁Daimi	-13299
▁Dante	-13300
▁Derre	-13301
▁Dirty	-13302
▁Disne	-13303
▁Duoen	-13304
▁Dylan	-13305
▁Eidsv	-13306
▁Emily	-13307
▁Enger	-13308
▁Falck	-13309
▁Falls	-13310
▁Figur	-13311
▁Fleks	-13312
▁Floyd	-13313
▁Fyrst	-13314
▁Grens	-13315
▁Greta	-13316
▁Grint	-13317
▁Gävle	-13318
▁Hagen	-13319
▁Haiti	-13320
▁Harde	-13321
▁Hawke	-13322
▁Holst	-13323
▁Håvik	-13324
▁Inger	-13325
▁Isaac	-13326
▁Italy	-13327
▁Johns	-13328
▁Jolie	-13329
▁Karol	-13330
▁Kathy	-13331
▁Khash	-13332
▁Kirse	-13333
▁Klæbo	-13334
▁Knuds	-13335
▁Kumar	-13336
▁Lahti	-13337
▁Lerby	-13338
▁Lerin	-13339
▁Linda	-13340
▁Locks	-13341
▁Lodge	-13342
▁Lollo	-13343
▁Luise	-13344
▁Lykke	-13345
▁Lynch	-13346
▁Løkke	-13347
▁Molin	-13348
▁Nikki	-13349
▁Odenh	-13350
▁Paolo	-13351
▁Pasad	-13352
▁Paulo	-13353
▁Peder	-13354
▁Place	-13355
▁Range	-13356
▁Redan	-13357
▁Renée	-13358
▁Rohan	-13359
▁Romeo	-13360
▁Sagan	-13361
▁Schum	-13362
▁Scots	-13363
▁Sever	-13364
▁Siobh	-13365
▁Skive	-13366
▁Skoog	-13367
▁Slike	-13368
▁Slind	-13369
▁Spill	-13370
▁Sudan	-13371
▁Sussi	-13372
▁Tante	-13373
▁These	-13374
▁Trine	-13375
▁Trots	-13376
▁Trygg	-13377
▁Urban	-13378
▁Vamps	-13379
▁Vidar	-13380
▁Vogue	-13381
▁Youth	-13382
▁Zahid	-13383
▁Zelda	-13384
▁added	-13385
▁adels	-13386
▁alman	-13387
▁arena	-13388
▁barok	-13389
▁bebod	-13390
▁begin	-13391
▁beret	-13392
▁bevis	-13393
▁bjerg	-13394
▁bjørn	-13395
▁brans	-13396
▁bryst	-13397
▁buset	-13398
▁bærer	-13399
▁börja	-13400
▁cause	-13401
▁count	-13402
▁dedic	-13403
▁dropp	-13404
▁drott	-13405
▁drygt	-13406
▁døden	-13407
▁elvar	-13408
▁enhet	-13409
▁evner	-13410
▁fødte	-13411
▁georg	-13412
▁giver	-13413
▁givit	-13414
▁gjord	-13415
▁gjøre	-13416
▁heist	-13417
▁hemma	-13418
▁hoppr	-13419
▁hölls	-13420
▁ideen	-13421
▁indeb	-13422
▁indoe	-13423
▁islam	-13424
▁kalte	-13425
▁kvard	-13426
▁kväll	-13427
▁kyrka	-13428
▁känna	-13429
▁købte	-13430
▁lunis	-13431
▁lyden	-13432
▁läste	-13433
▁meint	-13434
▁märks	-13435
▁målar	-13436
▁målte	-13437
▁måtar	-13438
▁måten	-13439
▁nedan	-13440
▁nordl	-13441
▁onkel	-13442
▁opphe	-13443
▁penge	-13444
▁potet	-13445
▁präst	-13446
▁pølse	-13447
▁raude	-13448
▁reach	-13449
▁redde	-13450
▁reven	-13451
▁ruled	-13452
▁rykte	-13453
▁sakso	-13454
▁salme	-13455
▁seint	-13456
▁seire	-13457
▁siger	-13458
▁skabe	-13459
▁skall	-13460
▁skarp	-13461
▁skola	-13462
▁sköts	-13463
▁speci	-13464
▁strik	-13465
▁styra	-13466
▁ständ	-13467
▁succe	-13468
▁svake	-13469
▁sänds	-13470
▁sänts	-13471
▁sålts	-13472
▁talte	-13473
▁tells	-13474
▁tenkt	-13475
▁tenth	-13476
▁tette	-13477
▁tilby	-13478
▁tilsk	-13479
▁tjukk	-13480
▁trykt	-13481
▁twice	-13482
▁tänkt	-13483
▁tårar	-13484
▁utløy	-13485
▁verdi	-13486
▁veter	-13487
▁views	-13488
▁vinst	-13489
▁vitja	-13490
▁vitsk	-13491
▁vägde	-13492
▁våpen	-13493
▁værne	-13494
▁waves	-13495
▁Östra	-13496
▁Øyene	-13497
▁øvste	-13498
▁øyene	-13499
Gruppen	-13500
akultet	-13501
amaskin	-13502
angerer	-13503
angeret	-13504
atskole	-13505
bokförd	-13506
borhood	-13507
brigida	-13508
cerades	-13509
ebandet	-13510
ekongen	-13511
elsberg	-13512
eterare	-13513
fatning	-13514
gningen	-13515
identen	-13516
ikanska	-13517
ilegier	-13518
ingsork	-13519
iserade	-13520
iserede	-13521
isering	-13522
isjonar	-13523
iskuter	-13524
issette	-13525
itioned	-13526
jänsten	-13527
kehavet	-13528
levelse	-13529
lovelse	-13530
officer	-13531
offiser	-13532
olinska	-13533
ologien	-13534
omførte	-13535
onceret	-13536
oslovak	-13537
pedagog	-13538
platsen	-13539
retning	-13540
sproget	-13541
tårsdag	-13542
vertsen	-13543
viduell	-13544
äsongen	-13545
▁Adrian	-13546
▁Alborz	-13547
▁Almaas	-13548
▁Arbets	-13549
▁Archie	-13550
▁Ballon	-13551
▁Billie	-13552
▁Bjarte	-13553
▁Boding	-13554
▁Bremen	-13555
▁Broken	-13556
▁Brooks	-13557
▁Böhmen	-13558
▁Carola	-13559
▁Casino	-13560
▁Cathol	-13561
▁Chopra	-13562
▁Dahlén	-13563
▁Didion	-13564
▁Dustin	-13565
▁Edderk	-13566
▁Eduard	-13567
▁Etanol	-13568
▁Eugene	-13569
▁Flacco	-13570
▁Forlag	-13571
▁Första	-13572
▁Gainsb	-13573
▁Grande	-13574
▁Hasvik	-13575
▁Hearts	-13576
▁Heaven	-13577
▁Hilmar	-13578
▁Holund	-13579
▁Jakten	-13580
▁Juholt	-13581
▁Kanari	-13582
▁Kansas	-13583
▁Kronér	-13584
▁Kwamie	-13585
▁Kyrkje	-13586
▁Lavard	-13587
▁Leuven	-13588
▁Listen	-13589
▁Lundin	-13590
▁Maiken	-13591
▁Malone	-13592
▁Marine	-13593
▁Milroe	-13594
▁Monter	-13595
▁Montre	-13596
▁Moskva	-13597
▁Mørdre	-13598
▁Nieder	-13599
▁Pierre	-13600
▁Poroma	-13601
▁Prædik	-13602
▁Ranger	-13603
▁Regine	-13604
▁Reiulf	-13605
▁Rockin	-13606
▁Rourke	-13607
▁Royale	-13608
▁Sabelt	-13609
▁Sandøy	-13610
▁Sarkis	-13611
▁Schøne	-13612
▁Shield	-13613
▁Silent	-13614
▁Skipet	-13615
▁Telugu	-13616
▁Ugglas	-13617
▁Ukrain	-13618
▁Vidare	-13619
▁Yvonne	-13620
▁Zucker	-13621
▁accoun	-13622
▁active	-13623
▁ansågs	-13624
▁applic	-13625
▁artium	-13626
▁bekref	-13627
▁besætt	-13628
▁betale	-13629
▁biland	-13630
▁bilete	-13631
▁bodybu	-13632
▁bruges	-13633
▁delene	-13634
▁dikten	-13635
▁domare	-13636
▁dompap	-13637
▁døgnet	-13638
▁foment	-13639
▁förlov	-13640
▁ganska	-13641
▁gentog	-13642
▁gjeven	-13643
▁heilag	-13644
▁helped	-13645
▁helten	-13646
▁hoffet	-13647
▁humorg	-13648
▁hurtig	-13649
▁huskes	-13650
▁impact	-13651
▁imperi	-13652
▁issues	-13653
▁klaver	-13654
▁koloni	-13655
▁konkur	-13656
▁kopier	-13657
▁kropps	-13658
▁kvalif	-13659
▁kyrkan	-13660
▁lawyer	-13661
▁ligaen	-13662
▁lyckas	-13663
▁lystsl	-13664
▁mentor	-13665
▁nearly	-13666
▁nemlig	-13667
▁niende	-13668
▁nybygg	-13669
▁nyåret	-13670
▁objekt	-13671
▁opfatt	-13672
▁opplys	-13673
▁oppstå	-13674
▁opptil	-13675
▁parent	-13676
▁pjäser	-13677
▁præget	-13678
▁purpos	-13679
▁rakija	-13680
▁reiser	-13681
▁rejste	-13682
▁selvom	-13683
▁sjätte	-13684
▁skader	-13685
▁skilte	-13686
▁snakke	-13687
▁sorter	-13688
▁spåret	-13689
▁starkt	-13690
▁starts	-13691
▁stykke	-13692
▁städer	-13693
▁synger	-13694
▁syntes	-13695
▁tegnes	-13696
▁teknik	-13697
▁theory	-13698
▁tidvis	-13699
▁tilbyr	-13700
▁udråbt	-13701
▁utanom	-13702
▁utført	-13703
▁utsett	-13704
▁utstre	-13705
▁uttale	-13706
▁venger	-13707
▁verkar	-13708
▁visual	-13709
▁voksne	-13710
▁vurder	-13711
▁årstid	-13712
▁ændret	-13713
abrikken	-13714
aksjonen	-13715
arbeidet	-13716
artisten	-13717
byggjart	-13718
dekkende	-13719
distrikt	-13720
elisborg	-13721
eløbende	-13722
espeares	-13723
fattarar	-13724
germansk	-13725
handelen	-13726
holdsvis	-13727
kehertug	-13728
kontoret	-13729
kunstner	-13730
medaljar	-13731
ministre	-13732
samlinga	-13733
spelaren	-13734
tspråket	-13735
▁Armgard	-13736
▁Azerbai	-13737
▁Bandets	-13738
▁Bibliog	-13739
▁Bolzano	-13740
▁Bristol	-13741
▁Bruaset	-13742
▁Despite	-13743
▁Edström	-13744
▁Elefant	-13745
▁Emmylou	-13746
▁Eriksen	-13747
▁Falkeid	-13748
▁Falster	-13749
▁Filmene	-13750
▁Filmens	-13751
▁Forever	-13752
▁Fualaau	-13753
▁Galileo	-13754
▁Gilbert	-13755
▁Glasgow	-13756
▁Halling	-13757
▁Herlufs	-13758
▁Hjalmer	-13759
▁Hunting	-13760
▁Islamic	-13761
▁Kaptein	-13762
▁Karajan	-13763
▁Kjærulf	-13764
▁Lofgren	-13765
▁Magasin	-13766
▁Monster	-13767
▁Mosally	-13768
▁Myrberg	-13769
▁Märthas	-13770
▁Philips	-13771
▁Playoff	-13772
▁Randall	-13773
▁Raymond	-13774
▁Rheborg	-13775
▁Romanov	-13776
▁Ryfylke	-13777
▁Scandin	-13778
▁Scarlet	-13779
▁Serling	-13780
▁Sissela	-13781
▁Solveig	-13782
▁Valdres	-13783
▁Vikings	-13784
▁Wisborg	-13785
▁Yankees	-13786
▁adapted	-13787
▁alfabet	-13788
▁allmänt	-13789
▁använda	-13790
▁arbetet	-13791
▁avlidit	-13792
▁baserat	-13793
▁berömda	-13794
▁berømte	-13795
▁betalte	-13796
▁brukade	-13797
▁bröllop	-13798
▁byggdes	-13799
▁bygning	-13800
▁børnene	-13801
▁compete	-13802
▁delades	-13803
▁deltage	-13804
▁despite	-13805
▁döttrar	-13806
▁engaged	-13807
▁etapper	-13808
▁fabrikk	-13809
▁firmaet	-13810
▁fossila	-13811
▁føremål	-13812
▁gaining	-13813
▁gjenopp	-13814
▁globalt	-13815
▁indbygg	-13816
▁juledag	-13817
▁kavaler	-13818
▁kloster	-13819
▁komikar	-13820
▁konfekt	-13821
▁kortene	-13822
▁kortvar	-13823
▁kunglig	-13824
▁landare	-13825
▁laveste	-13826
▁livstid	-13827
▁läkaren	-13828
▁magasin	-13829
▁mindret	-13830
▁monopol	-13831
▁måneden	-13832
▁omtalte	-13833
▁opphavs	-13834
▁optræde	-13835
▁outdoor	-13836
▁platser	-13837
▁praksis	-13838
▁praktik	-13839
▁primære	-13840
▁prinsge	-13841
▁projekt	-13842
▁quantum	-13843
▁rangert	-13844
▁recruit	-13845
▁scandal	-13846
▁senaste	-13847
▁skurken	-13848
▁spidsen	-13849
▁stadion	-13850
▁startar	-13851
▁storhet	-13852
▁stycken	-13853
▁suveren	-13854
▁særlige	-13855
▁sæsonen	-13856
▁teaterk	-13857
▁teorier	-13858
▁trilogy	-13859
▁trykket	-13860
▁udvidet	-13861
▁uppstod	-13862
▁utgjeve	-13863
▁vitensk	-13864
▁Østberg	-13865
▁årrække	-13866
▁østlige	-13867
branschen	-13868
elukkende	-13869
förbundet	-13870
historien	-13871
irigenter	-13872
liggjande	-13873
ordningen	-13874
slagsspel	-13875
synligvis	-13876
synsserie	-13877
terligere	-13878
tårsdagen	-13879
unestyret	-13880
ättningen	-13881
▁Bratland	-13882
▁Browning	-13883
▁Chalamet	-13884
▁Colorado	-13885
▁Dramatic	-13886
▁Ekteskap	-13887
▁Ferguson	-13888
▁Fleksnes	-13889
▁Flemming	-13890
▁Franklin	-13891
▁Freuchen	-13892
▁Fridtjof	-13893
▁Fritzson	-13894
▁Förenade	-13895
▁Galtvort	-13896
▁Goldberg	-13897
▁Grimlund	-13898
▁Hathaway	-13899
▁Hertugen	-13900
▁Hvidsten	-13901
▁Kaukasus	-13902
▁Kerrigan	-13903
▁Kirkvaag	-13904
▁Klaesson	-13905
▁Kristine	-13906
▁Leenborg	-13907
▁Malaysia	-13908
▁Marikken	-13909
▁McCarthy	-13910
▁Memorial	-13911
▁Mulligan	-13912
▁Nessvold	-13913
▁Paradise	-13914
▁Pasadena	-13915
▁Regionen	-13916
▁Romarane	-13917
▁Romerike	-13918
▁Rydeberg	-13919
▁Samlaget	-13920
▁Skiklubb	-13921
▁Solskjær	-13922
▁Vanylven	-13923
▁Wahlberg	-13924
▁Wretling	-13925
▁acquired	-13926
▁anmelder	-13927
▁antikken	-13928
▁arktiske	-13929
▁avdeling	-13930
▁avslutta	-13931
▁begrepet	-13932
▁bortgång	-13933
▁designed	-13934
▁detaljer	-13935
▁einingar	-13936
▁endelige	-13937
▁etterfyl	-13938
▁etterføl	-13939
▁flertall	-13940
▁flykting	-13941
▁följande	-13942
▁gruppene	-13943
▁handelen	-13944
▁hemmelig	-13945
▁hundrede	-13946
▁invester	-13947
▁investor	-13948
▁knockout	-13949
▁koloniar	-13950
▁kritiser	-13951
▁kunstløp	-13952
▁lanserte	-13953
▁luftfart	-13954
▁lynsjakk	-13955
▁motstånd	-13956
▁nasjoner	-13957
▁nordsida	-13958
▁nøyaktig	-13959
▁områdene	-13960
▁oppdaget	-13961
▁oppgaver	-13962
▁oppløyst	-13963
▁oppvekst	-13964
▁optagels	-13965
▁optræden	-13966
▁placeret	-13967
▁populous	-13968
▁populära	-13969
▁praktisk	-13970
▁prædikat	-13971
▁redigera	-13972
▁regenten	-13973
▁regerade	-13974
▁regerede	-13975
▁regioner	-13976
▁register	-13977
▁resulted	-13978
▁separate	-13979
▁skillnad	-13980
▁snøbrett	-13981
▁soloshow	-13982
▁storleik	-13983
▁subpoena	-13984
▁suffered	-13985
▁säkerhet	-13986
▁tevlinga	-13987
▁tilfælde	-13988
▁udviklet	-13989
▁upptäckt	-13990
▁utspelar	-13991
▁verdsmei	-13992
▁Östergöt	-13993
▁öppnades	-13994
arthquakes	-13995
ekapasitet	-13996
henværende	-13997
kefamilien	-13998
landslaget	-13999
sättningen	-14000
▁Assistens	-14001
▁Batteriet	-14002
▁Bratsberg	-14003
▁Fukushima	-14004
▁Grønsveen	-14005
▁Hallström	-14006
▁Haugesund	-14007
▁Humphries	-14008
▁Jönköping	-14009
▁Khashoggi	-14010
▁Kringkast	-14011
▁McCartney	-14012
▁Microsoft	-14013
▁Oldenborg	-14014
▁Olympiska	-14015
▁Operasjon	-14016
▁Orknøyane	-14017
▁Prinsessa	-14018
▁Pustertal	-14019
▁Russlands	-14020
▁Sarkisian	-14021
▁Silkeborg	-14022
▁Syvertsen	-14023
▁Vällingby	-14024
▁Zugspitze	-14025
▁afgørende	-14026
▁betjänten	-14027
▁brukarane	-14028
▁celebrate	-14029
▁dangerous	-14030
▁derudover	-14031
▁dynastiet	-14032
▁efteråret	-14033
▁egentlige	-14034
▁eigentleg	-14035
▁endringar	-14036
▁engageret	-14037
▁establish	-14038
▁familiens	-14039
▁halvdelen	-14040
▁hovudstad	-14041
▁hverandre	-14042
▁identitet	-14043
▁illustrat	-14044
▁involvert	-14045
▁klarinett	-14046
▁klassiker	-14047
▁kongelege	-14048
▁kunstnere	-14049
▁københavn	-14050
▁landbruks	-14051
▁magasinet	-14052
▁medverkar	-14053
▁miljarder	-14054
▁musikaler	-14055
▁musikeren	-14056
▁nåværende	-14057
▁olympiska	-14058
▁opptreden	-14059
▁politiskt	-14060
▁popgruppe	-14061
▁prefikset	-14062
▁redaktion	-14063
▁samanlagt	-14064
▁satellitt	-14065
▁selvstyre	-14066
▁sidelinje	-14067
▁skihopper	-14068
▁slutligen	-14069
▁spelarane	-14070
▁stiftinga	-14071
▁stillinga	-14072
▁svigerfar	-14073
▁terrorist	-14074
▁tilbragte	-14075
▁udgivelse	-14076
▁udviklede	-14077
▁vigtigste	-14078
alsregering	-14079
berettigede	-14080
skodespelar	-14081
tförfattare	-14082
▁Baunsgaard	-14083
▁Blichfeldt	-14084
▁Dagbladets	-14085
▁Dronningen	-14086
▁Gainsbourg	-14087
▁Karolinska	-14088
▁Morissette	-14089
▁Originally	-14090
▁Prinsessen	-14091
▁Schumacher	-14092
▁Zuckerberg	-14093
▁afsluttede	-14094
▁animasjons	-14095
▁betydelige	-14096
▁egenskaper	-14097
▁fyrverkeri	-14098
▁förknippas	-14099
▁halvparten	-14100
▁historiker	-14101
▁hundreåret	-14102
▁inkluderar	-14103
▁inspireret	-14104
▁konflikten	-14105
▁landområde	-14106
▁nyårsafton	-14107
▁nyårsdagen	-14108
▁offentligt	-14109
▁omdiskuter	-14110
▁orkesteret	-14111
▁resulterte	-14112
▁skihopping	-14113
▁sletteland	-14114
▁slutningen	-14115
▁sprintstaf	-14116
▁stillingen	-14117
▁storhertug	-14118
▁tronfølgen	-14119
▁utviklinga	-14120
▁verdsdelen	-14121
▁værnepligt	-14122
▁årsskiftet	-14123
▁østerriksk	-14124
▁Edderkoppen	-14125
▁Fredriksdal	-14126
▁Fredriksson	-14127
▁Lagercrantz	-14128
▁Musikverein	-14129
▁amerikanskt	-14130
▁bestyrelsen	-14131
▁ekspedisjon	-14132
▁indflydelse	-14133
▁landskamper	-14134
▁lingvistikk	-14135
▁operasanger	-14136
▁plasseringa	-14137
▁republikken	-14138
▁stortingsre	-14139
▁sølvmedalje	-14140
▁tradisjonen	-14141
▁vinterleker	-14142
▁österrikisk	-14143
▁østerrikske	-14144
▁Konungariket	-14145
▁Lollobrigida	-14146
▁Shakespeares	-14147
▁administrati	-14148
▁deltävlingar	-14149
▁engelskspråk	-14150
▁fylkestinget	-14151
▁förhållanden	-14152
▁fødselsdagen	-14153
▁indbyggertal	-14154
▁interesseret	-14155
▁kunstneriske	-14156
▁oppslagsverk	-14157
▁selvstændige	-14158
▁sjefdirigent	-14159
▁vidaregåande	-14160
organisationen	-14161
▁Fylkesvåpenet	-14162
▁kronprinsessa	-14163
▁Östergötlands	-14164
isningsminister	-14165
▁Teaterhøgskole	-14166
▁administrasjon	-14167
▁arveberettiget	-14168
▁längdskidåkning	-14169
▁premierminister	-14170
28	-14171
87	-14172
AY	-14173
GB	-14174
IN	-14175
MW	-14176
ON	-14177
OS	-14178
SA	-14179
VM	-14180
WA	-14181
aj	-14182
dd	-14183
hw	-14184
lö	-14185
né	-14186
rö	-14187
åp	-14188
éd	-14189
él	-14190
DAP	-14191
aar	-14192
adt	-14193
aho	-14194
bos	-14195
cid	-14196
cio	-14197
dev	-14198
elj	-14199
elø	-14200
eto	-14201
eut	-14202
gna	-14203
hei	-14204
hel	-14205
iak	-14206
ibb	-14207
ili	-14208
itm	-14209
jse	-14210
jun	-14211
jör	-14212
jøl	-14213
kip	-14214
kne	-14215
kre	-14216
kær	-14217
loo	-14218
löv	-14219
mis	-14220
mit	-14221
nis	-14222
nær	-14223
och	-14224
opg	-14225
oul	-14226
pak	-14227
pig	-14228
pis	-14229
rak	-14230
rds	-14231
rei	-14232
rhe	-14233
rne	-14234
rnh	-14235
rre	-14236
rth	-14237
rut	-14238
rør	-14239
sdr	-14240
sju	-14241
såg	-14242
tic	-14243
tyd	-14244
tyr	-14245
tän	-14246
uch	-14247
uda	-14248
uga	-14249
uge	-14250
umi	-14251
urk	-14252
vde	-14253
yds	-14254
yna	-14255
yns	-14256
ævn	-14257
öta	-14258
øgn	-14259
øvs	-14260
▁Bå	-14261
▁CM	-14262
▁Cæ	-14263
▁Ej	-14264
▁Ki	-14265
▁Vå	-14266
▁WH	-14267
▁Zo	-14268
▁dö	-14269
▁ft	-14270
▁fä	-14271
▁na	-14272
▁äl	-14273
VIII	-14274
acka	-14275
adar	-14276
adio	-14277
affe	-14278
agin	-14279
agny	-14280
ahim	-14281
aine	-14282
akti	-14283
alli	-14284
alom	-14285
ampa	-14286
arby	-14287
ardi	-14288
ares	-14289
asak	-14290
athe	-14291
atik	-14292
atts	-14293
atör	-14294
avos	-14295
base	-14296
bete	-14297
byar	-14298
ccio	-14299
cier	-14300
ctic	-14301
dame	-14302
deen	-14303
dick	-14304
drum	-14305
eavs	-14306
edig	-14307
edit	-14308
eger	-14309
eles	-14310
elid	-14311
eliv	-14312
elsm	-14313
eral	-14314
erre	-14315
erts	-14316
etal	-14317
etsk	-14318
fair	-14319
falt	-14320
fela	-14321
fick	-14322
fløj	-14323
ftar	-14324
ftet	-14325
fteå	-14326
føra	-14327
gane	-14328
gate	-14329
geir	-14330
gely	-14331
gins	-14332
gjar	-14333
grav	-14334
greg	-14335
gåva	-14336
hire	-14337
hlen	-14338
hätt	-14339
iage	-14340
iast	-14341
ibus	-14342
ikus	-14343
ilit	-14344
imum	-14345
indt	-14346
itsj	-14347
iumf	-14348
ivan	-14349
ivik	-14350
jang	-14351
jant	-14352
jene	-14353
juer	-14354
kaer	-14355
kass	-14356
klip	-14357
kore	-14358
kred	-14359
ktes	-14360
kyrk	-14361
køyr	-14362
laft	-14363
lain	-14364
lant	-14365
laug	-14366
laup	-14367
laus	-14368
leie	-14369
leng	-14370
lyde	-14371
lyst	-14372
læge	-14373
magn	-14374
mærk	-14375
nius	-14376
nnem	-14377
nnie	-14378
nred	-14379
odar	-14380
odia	-14381
ofen	-14382
oger	-14383
okal	-14384
okie	-14385
okse	-14386
oler	-14387
ompa	-14388
onga	-14389
orks	-14390
oted	-14391
ovel	-14392
oves	-14393
ovna	-14394
prem	-14395
pted	-14396
rast	-14397
resa	-14398
rets	-14399
revy	-14400
rium	-14401
rute	-14402
ræns	-14403
røms	-14404
seid	-14405
sept	-14406
skan	-14407
skår	-14408
slet	-14409
sliv	-14410
sråd	-14411
ssak	-14412
stoy	-14413
stræ	-14414
ståg	-14415
står	-14416
svik	-14417
terk	-14418
tilt	-14419
tone	-14420
trys	-14421
tten	-14422
ushi	-14423
utar	-14424
utsu	-14425
vall	-14426
valo	-14427
vass	-14428
vene	-14429
vida	-14430
vidu	-14431
vogn	-14432
vård	-14433
ydor	-14434
ygen	-14435
ygge	-14436
yldt	-14437
ylon	-14438
yrst	-14439
äckt	-14440
älle	-14441
ålen	-14442
æisk	-14443
ælen	-14444
ærkt	-14445
édér	-14446
ömde	-14447
ömet	-14448
øyst	-14449
▁104	-14450
▁106	-14451
▁112	-14452
▁128	-14453
▁131	-14454
▁133	-14455
▁229	-14456
▁567	-14457
▁850	-14458
▁978	-14459
▁Aks	-14460
▁Akv	-14461
▁Aul	-14462
▁Aun	-14463
▁Bog	-14464
▁Bot	-14465
▁Bud	-14466
▁Cil	-14467
▁Dat	-14468
▁DeM	-14469
▁Def	-14470
▁Dub	-14471
▁Due	-14472
▁Dur	-14473
▁Dyb	-14474
▁EFL	-14475
▁Eat	-14476
▁Ege	-14477
▁Eke	-14478
▁Ell	-14479
▁Els	-14480
▁Ens	-14481
▁Eta	-14482
▁Ewa	-14483
▁FCK	-14484
▁Fir	-14485
▁Fun	-14486
▁Føn	-14487
▁Gos	-14488
▁Grå	-14489
▁Gut	-14490
▁Gym	-14491
▁Hes	-14492
▁Hoa	-14493
▁Hop	-14494
▁Hør	-14495
▁ITV	-14496
▁Ivo	-14497
▁Jam	-14498
▁Jör	-14499
▁Kah	-14500
▁Kau	-14501
▁Kur	-14502
▁Kär	-14503
▁LOL	-14504
▁Len	-14505
▁Mak	-14506
▁Mas	-14507
▁McD	-14508
▁McI	-14509
▁McM	-14510
▁Mys	-14511
▁Möl	-14512
▁Møn	-14513
▁NAV	-14514
▁Nas	-14515
▁Nay	-14516
▁Ond	-14517
▁Orc	-14518
▁Orm	-14519
▁Pat	-14520
▁Pau	-14521
▁Pun	-14522
▁Pur	-14523
▁RMS	-14524
▁Rab	-14525
▁Rok	-14526
▁Sif	-14527
▁Sim	-14528
▁Suk	-14529
▁Sym	-14530
▁Tas	-14531
▁Tat	-14532
▁Too	-14533
▁Tsj	-14534
▁Tsu	-14535
▁Tup	-14536
▁Tut	-14537
▁Två	-14538
▁USD	-14539
▁USS	-14540
▁Ult	-14541
▁Vat	-14542
▁Wad	-14543
▁Ygg	-14544
▁Zap	-14545
▁avl	-14546
▁ban	-14547
▁bef	-14548
▁bif	-14549
▁bär	-14550
▁bær	-14551
▁cal	-14552
▁cur	-14553
▁dua	-14554
▁dum	-14555
▁dut	-14556
▁ena	-14557
▁enh	-14558
▁epi	-14559
▁esp	-14560
▁gas	-14561
▁hat	-14562
▁how	-14563
▁hår	-14564
▁ice	-14565
▁kem	-14566
▁kir	-14567
▁kup	-14568
▁lid	-14569
▁lis	-14570
▁los	-14571
▁lär	-14572
▁mad	-14573
▁mal	-14574
▁max	-14575
▁mio	-14576
▁mol	-14577
▁mut	-14578
▁myn	-14579
▁möj	-14580
▁mör	-14581
▁ner	-14582
▁nöt	-14583
▁oks	-14584
▁ond	-14585
▁osä	-14586
▁pas	-14587
▁pyn	-14588
▁pyr	-14589
▁rac	-14590
▁rea	-14591
▁rep	-14592
▁rus	-14593
▁rym	-14594
▁rön	-14595
▁sko	-14596
▁sop	-14597
▁sum	-14598
▁såp	-14599
▁søg	-14600
▁søk	-14601
▁tas	-14602
▁tyn	-14603
▁tæn	-14604
▁uke	-14605
▁ukl	-14606
▁utb	-14607
▁utp	-14608
▁vak	-14609
▁vat	-14610
▁vem	-14611
▁væs	-14612
▁älv	-14613
▁øje	-14614
akens	-14615
aljar	-14616
alske	-14617
alter	-14618
andie	-14619
arder	-14620
ardin	-14621
arens	-14622
aring	-14623
asien	-14624
atert	-14625
athne	-14626
avlos	-14627
azaki	-14628
basis	-14629
berga	-14630
bilen	-14631
bygda	-14632
bygde	-14633
cenen	-14634
chess	-14635
child	-14636
coach	-14637
cting	-14638
dsmei	-14639
ejler	-14640
eking	-14641
eldet	-14642
enger	-14643
ensiv	-14644
entia	-14645
erate	-14646
erats	-14647
eriet	-14648
ertil	-14649
eshwa	-14650
espil	-14651
etett	-14652
farga	-14653
gangs	-14654
gasut	-14655
goode	-14656
gtede	-14657
gåver	-14658
hedsl	-14659
hofsh	-14660
hvert	-14661
idert	-14662
iffen	-14663
ifikt	-14664
ikkan	-14665
inent	-14666
ingsr	-14667
inske	-14668
inson	-14669
issau	-14670
itisk	-14671
jæger	-14672
jören	-14673
kaban	-14674
kaido	-14675
kamer	-14676
konen	-14677
ktane	-14678
ktert	-14679
kumar	-14680
ledde	-14681
ledet	-14682
leish	-14683
leken	-14684
leren	-14685
leres	-14686
liest	-14687
lsson	-14688
makta	-14689
meyer	-14690
målet	-14691
naoui	-14692
oland	-14693
ollet	-14694
onent	-14695
onisk	-14696
oppar	-14697
orget	-14698
osely	-14699
paris	-14700
phine	-14701
plays	-14702
raden	-14703
raels	-14704
rease	-14705
reder	-14706
redes	-14707
regor	-14708
revol	-14709
rhein	-14710
ritet	-14711
rlach	-14712
rones	-14713
rovis	-14714
sejer	-14715
seres	-14716
sköld	-14717
stads	-14718
stair	-14719
stokk	-14720
strom	-14721
søker	-14722
taine	-14723
tains	-14724
taket	-14725
tiden	-14726
tills	-14727
tinga	-14728
treme	-14729
tryck	-14730
uardo	-14731
uding	-14732
ukter	-14733
usikk	-14734
usind	-14735
usins	-14736
uskar	-14737
vejen	-14738
veksl	-14739
verum	-14740
værks	-14741
ydder	-14742
yldet	-14743
äcker	-14744
ällan	-14745
ängen	-14746
änget	-14747
ästen	-14748
ätter	-14749
ånska	-14750
ægerk	-14751
ærlad	-14752
öcker	-14753
øsnik	-14754
▁1363	-14755
▁1520	-14756
▁1624	-14757
▁1654	-14758
▁1667	-14759
▁1699	-14760
▁1714	-14761
▁1723	-14762
▁1746	-14763
▁1760	-14764
▁1769	-14765
▁1776	-14766
▁1784	-14767
▁1788	-14768
▁1789	-14769
▁1839	-14770
▁1847	-14771
▁1866	-14772
▁1884	-14773
▁1887	-14774
▁2026	-14775
▁Andy	-14776
▁Aure	-14777
▁Borb	-14778
▁Bort	-14779
▁Brag	-14780
▁Brid	-14781
▁Bush	-14782
▁Bybr	-14783
▁Bård	-14784
▁Cady	-14785
▁Cass	-14786
▁Cate	-14787
▁Chel	-14788
▁Clem	-14789
▁Come	-14790
▁Conc	-14791
▁Cour	-14792
▁Cris	-14793
▁Dard	-14794
▁Deer	-14795
▁Diam	-14796
▁Dire	-14797
▁Ditt	-14798
▁Djur	-14799
▁Dodi	-14800
▁Dort	-14801
▁Duna	-14802
▁Dunk	-14803
▁Egil	-14804
▁Else	-14805
▁Enzo	-14806
▁Eton	-14807
▁Feod	-14808
▁Fine	-14809
▁Five	-14810
▁Food	-14811
▁Free	-14812
▁Gaia	-14813
▁Gina	-14814
▁Gjær	-14815
▁Glen	-14816
▁Goth	-14817
▁Gule	-14818
▁Gäst	-14819
▁Göta	-14820
▁Hack	-14821
▁Hare	-14822
▁Have	-14823
▁Hela	-14824
▁Helg	-14825
▁Herb	-14826
▁Hits	-14827
▁Hjul	-14828
▁Hurt	-14829
▁Hånd	-14830
▁Irak	-14831
▁Juel	-14832
▁Kand	-14833
▁Kant	-14834
▁Kind	-14835
▁Kiss	-14836
▁Klov	-14837
▁Krim	-14838
▁Krøn	-14839
▁Kærl	-14840
▁Lass	-14841
▁Lier	-14842
▁Lion	-14843
▁Lipa	-14844
▁Lone	-14845
▁Loud	-14846
▁Lynn	-14847
▁Mama	-14848
▁Mans	-14849
▁Meat	-14850
▁Mein	-14851
▁Mona	-14852
▁Mork	-14853
▁Navn	-14854
▁Nine	-14855
▁Nøhr	-14856
▁Palm	-14857
▁Pass	-14858
▁Peak	-14859
▁Phys	-14860
▁Plat	-14861
▁Radi	-14862
▁Raut	-14863
▁Ravn	-14864
▁Reck	-14865
▁Rett	-14866
▁Road	-14867
▁Rush	-14868
▁Rätt	-14869
▁Seks	-14870
▁Sist	-14871
▁Skan	-14872
▁Skär	-14873
▁Smyr	-14874
▁Soll	-14875
▁Solo	-14876
▁Spel	-14877
▁Spil	-14878
▁Säll	-14879
▁Sønd	-14880
▁Tale	-14881
▁Tell	-14882
▁Test	-14883
▁Them	-14884
▁Thér	-14885
▁Toho	-14886
▁Topp	-14887
▁Turk	-14888
▁Tyla	-14889
▁Unga	-14890
▁Unge	-14891
▁Uten	-14892
▁Valk	-14893
▁Varg	-14894
▁Virk	-14895
▁Vita	-14896
▁Vrak	-14897
▁Wadd	-14898
▁Ward	-14899
▁Wess	-14900
▁Whom	-14901
▁Wirk	-14902
▁Wish	-14903
▁Xeno	-14904
▁Ytre	-14905
▁Zier	-14906
▁angr	-14907
▁ankn	-14908
▁ansl	-14909
▁arts	-14910
▁arvs	-14911
▁bana	-14912
▁bege	-14913
▁bein	-14914
▁bodd	-14915
▁brag	-14916
▁brud	-14917
▁brun	-14918
▁brut	-14919
▁bulg	-14920
▁bære	-14921
▁børs	-14922
▁care	-14923
▁conc	-14924
▁cust	-14925
▁dame	-14926
▁dets	-14927
▁dies	-14928
▁djur	-14929
▁does	-14930
▁drop	-14931
▁drug	-14932
▁dual	-14933
▁dyra	-14934
▁dyre	-14935
▁dyrk	-14936
▁eröv	-14937
▁evig	-14938
▁fela	-14939
▁ferd	-14940
▁fiol	-14941
▁flit	-14942
▁flue	-14943
▁food	-14944
▁fugl	-14945
▁fynd	-14946
▁förb	-14947
▁gett	-14948
▁glir	-14949
▁goes	-14950
▁gott	-14951
▁gyld	-14952
▁hamn	-14953
▁höga	-14954
▁høgd	-14955
▁høgn	-14956
▁høje	-14957
[...]
