<unk>	0
<s>	0
</s>	0
er	-0
en	-1
an	-2
▁s	-3
ar	-4
in	-5
▁.	-6
▁,	-7
▁o	-8
▁f	-9
▁t	-10
et	-11
or	-12
st	-13
▁d	-14
▁a	-15
▁i	-16
on	-17
ed	-18
▁h	-19
il	-20
▁m	-21
el	-22
▁b	-23
om	-24
▁1	-25
▁p	-26
al	-27
▁v	-28
es	-29
▁S	-30
▁og	-31
and	-32
sk	-33
at	-34
▁k	-35
re	-36
le	-37
ing	-38
▁2	-39
▁H	-40
am	-41
it	-42
un	-43
▁19	-44
ig	-45
ol	-46
he	-47
▁D	-48
▁20	-49
de	-50
ik	-51
▁A	-52
ch	-53
▁B	-54
▁g	-55
▁som	-56
▁M	-57
▁n	-58
is	-59
ra	-60
▁in	-61
▁til	-62
▁av	-63
▁l	-64
▁T	-65
as	-66
ter	-67
▁en	-68
id	-69
te	-70
▁for	-71
▁the	-72
▁F	-73
▁med	-74
ro	-75
▁I	-76
▁på	-77
▁var	-78
▁e	-79
▁N	-80
▁er	-81
ag	-82
▁st	-83
▁C	-84
▁P	-85
▁K	-86
▁L	-87
ist	-88
▁E	-89
us	-90
ver	-91
▁G	-92
▁and	-93
▁w	-94
ad	-95
▁den	-96
ut	-97
▁R	-98
ion	-99
der	-100
pp	-101
▁och	-102
ur	-103
ic	-104
ent	-105
em	-106
ør	-107
år	-108
est	-109
▁J	-110
▁of	-111
ot	-112
▁r	-113
ler	-114
▁han	-115
ul	-116
▁c	-117
▁de	-118
▁V	-119
av	-120
isk	-121
iv	-122
ne	-123
är	-124
ör	-125
▁sk	-126
▁har	-127
ber	-128
▁O	-129
ir	-130
▁at	-131
▁201	-132
▁ble	-133
ge	-134
▁fr	-135
▁af	-136
▁200	-137
ud	-138
▁re	-139
▁to	-140
eg	-141
▁W	-142
se	-143
kt	-144
▁j	-145
mer	-146
ning	-147
ru	-148
▁Han	-149
sen	-150
▁det	-151
land	-152
ck	-153
ia	-154
ste	-155
▁St	-156
art	-157
ann	-158
la	-159
▁et	-160
are	-161
ri	-162
og	-163
ød	-164
ens	-165
kk	-166
ord	-167
▁U	-168
ger	-169
ilm	-170
rin	-171
▁199	-172
od	-173
um	-174
lig	-175
▁sam	-176
ær	-177
▁al	-178
▁sp	-179
▁ut	-180
ade	-181
ov	-182
ng	-183
▁år	-184
ark	-185
▁om	-186
ak	-187
ere	-188
all	-189
ansk	-190
▁202	-191
ill	-192
ie	-193
▁för	-194
ong	-195
nd	-196
im	-197
if	-198
ien	-199
na	-200
ron	-201
▁sin	-202
und	-203
ard	-204
ell	-205
ok	-206
▁till	-207
▁an	-208
▁un	-209
ust	-210
ap	-211
enn	-212
os	-213
▁pro	-214
▁198	-215
tt	-216
▁kom	-217
▁blev	-218
ene	-219
ess	-220
rins	-221
▁by	-222
▁film	-223
▁el	-224
00	-225
▁Ch	-226
▁se	-227
▁å	-228
son	-229
ort	-230
gr	-231
▁der	-232
▁197	-233
ven	-234
itt	-235
ab	-236
▁The	-237
ug	-238
▁ein	-239
ert	-240
je	-241
▁fra	-242
▁Fr	-243
ly	-244
▁är	-245
ct	-246
ett	-247
▁fød	-248
ation	-249
op	-250
ian	-251
▁3	-252
jon	-253
ant	-254
ang	-255
ede	-256
fter	-257
sp	-258
end	-259
ow	-260
ld	-261
▁frå	-262
org	-263
▁is	-264
▁was	-265
▁kon	-266
yr	-267
▁18	-268
▁Mar	-269
ikk	-270
ige	-271
att	-272
ce	-273
▁tid	-274
▁bl	-275
▁del	-276
▁Dan	-277
▁før	-278
iske	-279
▁as	-280
rit	-281
orsk	-282
▁under	-283
amm	-284
▁196	-285
▁Det	-286
så	-287
oll	-288
eder	-289
▁over	-290
for	-291
rik	-292
▁Den	-293
▁on	-294
sl	-295
▁født	-296
▁ved	-297
old	-298
esp	-299
ke	-300
ater	-301
ember	-302
ks	-303
ars	-304
pr	-305
▁men	-306
ende	-307
▁opp	-308
ry	-309
mark	-310
▁ver	-311
ub	-312
uar	-313
ay	-314
ast	-315
▁be	-316
öd	-317
▁sl	-318
leg	-319
rist	-320
▁ar	-321
▁gr	-322
▁eller	-323
ass	-324
ith	-325
▁De	-326
▁land	-327
rå	-328
▁Jo	-329
▁ser	-330
ve	-331
th	-332
jer	-333
net	-334
▁att	-335
eb	-336
ob	-337
▁mus	-338
▁inn	-339
anuar	-340
up	-341
raf	-342
▁Nor	-343
øn	-344
▁Al	-345
del	-346
ire	-347
ip	-348
▁In	-349
▁th	-350
ans	-351
▁Danmark	-352
ner	-353
▁An	-354
ling	-355
ane	-356
▁Un	-357
øl	-358
arl	-359
orn	-360
▁wh	-361
rig	-362
▁norsk	-363
än	-364
øy	-365
ster	-366
▁with	-367
▁He	-368
▁5	-369
▁te	-370
ier	-371
▁4	-372
▁også	-373
▁dansk	-374
▁his	-375
yl	-376
▁194	-377
▁per	-378
ande	-379
▁195	-380
ock	-381
▁stor	-382
▁y	-383
lem	-384
olk	-385
▁he	-386
▁vart	-387
ets	-388
du	-389
ats	-390
▁prins	-391
men	-392
▁pr	-393
▁Sk	-394
▁reg	-395
ele	-396
yn	-397
▁u	-398
▁Y	-399
▁januar	-400
ske	-401
ive	-402
▁hun	-403
▁kj	-404
sh	-405
▁hv	-406
io	-407
▁efter	-408
ale	-409
mun	-410
▁Sver	-411
ten	-412
be	-413
▁op	-414
sta	-415
▁gj	-416
▁man	-417
ies	-418
ald	-419
arn	-420
kke	-421
amil	-422
▁etter	-423
▁ny	-424
igh	-425
ser	-426
▁ud	-427
min	-428
esse	-429
ind	-430
▁her	-431
vis	-432
iver	-433
▁dei	-434
▁første	-435
ich	-436
gen	-437
af	-438
▁sig	-439
skap	-440
iller	-441
rad	-442
▁Hun	-443
by	-444
ts	-445
▁2023	-446
▁;	-447
▁eit	-448
▁sj	-449
rem	-450
▁mot	-451
ift	-452
▁8	-453
▁föd	-454
▁seg	-455
ograf	-456
▁kun	-457
our	-458
▁had	-459
▁kan	-460
▁le	-461
▁så	-462
me	-463
äl	-464
hav	-465
borg	-466
ring	-467
ost	-468
alen	-469
alt	-470
▁må	-471
istor	-472
of	-473
var	-474
red	-475
ister	-476
ick	-477
▁verd	-478
her	-479
ine	-480
▁sid	-481
▁ä	-482
rop	-483
▁ind	-484
▁född	-485
▁Ar	-486
▁sy	-487
▁or	-488
bum	-489
▁Christ	-490
ss	-491
▁kl	-492
▁sven	-493
▁tre	-494
▁ann	-495
▁best	-496
▁6	-497
tem	-498
unn	-499
▁dag	-500
ta	-501
ker	-502
▁TV	-503
man	-504
eld	-505
▁hav	-506
ober	-507
▁beg	-508
▁hans	-509
eter	-510
ward	-511
▁Joh	-512
▁193	-513
ond	-514
vin	-515
ew	-516
▁9	-517
▁ma	-518
elt	-519
▁15	-520
asjon	-521
▁hon	-522
ysk	-523
▁17	-524
oun	-525
ue	-526
▁Ber	-527
amp	-528
rupp	-529
▁7	-530
▁pl	-531
ild	-532
hol	-533
ide	-534
opp	-535
arri	-536
▁tal	-537
ear	-538
▁Le	-539
▁nord	-540
▁Sverige	-541
▁vid	-542
ate	-543
olit	-544
▁fin	-545
▁mest	-546
▁El	-547
▁andre	-548
▁com	-549
ish	-550
berg	-551
iker	-552
▁Gr	-553
▁Har	-554
▁svensk	-555
ial	-556
ack	-557
iser	-558
▁hvor	-559
▁upp	-560
▁från	-561
ame	-562
ades	-563
▁br	-564
ns	-565
ille	-566
▁sen	-567
aren	-568
▁fler	-569
ina	-570
ografi	-571
▁Sp	-572
anger	-573
▁Amer	-574
▁from	-575
iet	-576
lay	-577
▁Th	-578
▁hadde	-579
ronning	-580
lag	-581
rev	-582
tal	-583
▁Re	-584
else	-585
▁16	-586
ott	-587
▁Stor	-588
▁kommun	-589
▁ro	-590
cc	-591
ma	-592
ebru	-593
ebruar	-594
ach	-595
ers	-596
▁For	-597
ult	-598
▁ett	-599
oc	-600
▁samt	-601
▁bru	-602
ou	-603
▁jul	-604
▁su	-605
els	-606
▁10	-607
▁tv	-608
åd	-609
age	-610
▁da	-611
ket	-612
▁14	-613
pril	-614
▁gen	-615
▁born	-616
▁Norge	-617
▁konge	-618
ican	-619
▁mell	-620
lige	-621
ga	-622
ingen	-623
ret	-624
▁art	-625
▁vær	-626
▁progr	-627
▁Sch	-628
▁Nord	-629
▁produ	-630
▁ei	-631
sten	-632
urop	-633
gt	-634
▁off	-635
▁Å	-636
▁con	-637
▁Prins	-638
atter	-639
▁Award	-640
▁dr	-641
▁Freder	-642
iz	-643
esk	-644
▁Christian	-645
▁album	-646
uni	-647
änd	-648
ah	-649
pl	-650
holm	-651
▁kong	-652
øb	-653
ity	-654
tern	-655
ore	-656
dag	-657
▁deb	-658
ings	-659
▁spel	-660
▁hov	-661
▁famil	-662
▁192	-663
▁lag	-664
jen	-665
▁bet	-666
yd	-667
▁nam	-668
▁juni	-669
ike	-670
▁Te	-671
▁tr	-672
anske	-673
▁fram	-674
▁gift	-675
▁då	-676
▁Frederik	-677
ivers	-678
ka	-679
stad	-680
▁American	-681
gel	-682
iss	-683
nes	-684
▁New	-685
▁ö	-686
▁Bi	-687
iska	-688
ester	-689
omin	-690
▁Ø	-691
råd	-692
▁fyl	-693
ugust	-694
les	-695
ull	-696
ære	-697
▁act	-698
▁lig	-699
ork	-700
▁13	-701
▁Se	-702
elle	-703
▁Som	-704
▁Ol	-705
uesp	-706
▁ch	-707
ikt	-708
ennes	-709
espel	-710
▁april	-711
▁fly	-712
▁amer	-713
▁februar	-714
▁sing	-715
▁sammen	-716
med	-717
▁tron	-718
▁amerik	-719
▁polit	-720
kl	-721
▁far	-722
▁stør	-723
▁Stock	-724
cer	-725
för	-726
▁lå	-727
▁barn	-728
▁En	-729
▁US	-730
ated	-731
▁død	-732
gg	-733
ise	-734
cember	-735
ovember	-736
ile	-737
ptem	-738
▁folk	-739
ptember	-740
▁Stockholm	-741
▁Ho	-742
uespiller	-743
ja	-744
hus	-745
▁11	-746
ict	-747
mar	-748
▁Film	-749
ank	-750
tter	-751
ib	-752
tr	-753
000	-754
ole	-755
uss	-756
elsen	-757
illion	-758
sc	-759
ål	-760
▁ø	-761
otb	-762
▁2018	-763
olle	-764
▁medlem	-765
au	-766
▁där	-767
ac	-768
▁Be	-769
▁Ge	-770
prins	-771
orld	-772
▁søn	-773
fer	-774
før	-775
▁Osl	-776
urg	-777
▁ad	-778
irst	-779
▁Eng	-780
bo	-781
qu	-782
led	-783
▁ex	-784
▁Hon	-785
▁kron	-786
▁Biografi	-787
cl	-788
mp	-789
str	-790
itet	-791
kon	-792
▁pop	-793
▁2022	-794
▁mellom	-795
eng	-796
▁2017	-797
▁dronning	-798
over	-799
▁bland	-800
▁des	-801
▁Sh	-802
▁band	-803
ningen	-804
▁191	-805
ollen	-806
▁danske	-807
▁X	-808
▁Hans	-809
ritann	-810
elv	-811
▁2008	-812
▁Gust	-813
wo	-814
▁12	-815
▁km	-816
▁blir	-817
▁II	-818
otter	-819
føl	-820
ton	-821
ph	-822
▁musik	-823
▁Z	-824
▁fe	-825
▁2020	-826
▁även	-827
▁Storb	-828
▁skuespiller	-829
▁talet	-830
▁Storbritann	-831
vik	-832
▁Pr	-833
▁2007	-834
▁Oslo	-835
▁delt	-836
▁Ad	-837
▁2019	-838
akt	-839
▁has	-840
▁sitt	-841
ubl	-842
▁Her	-843
▁son	-844
alist	-845
olog	-846
▁ikke	-847
▁play	-848
minister	-849
edan	-850
▁Hol	-851
▁Br	-852
abet	-853
beid	-854
▁2005	-855
▁juli	-856
ime	-857
▁Ro	-858
▁sc	-859
▁tit	-860
▁2004	-861
ix	-862
ite	-863
åde	-864
▁min	-865
▁vil	-866
ugh	-867
▁first	-868
▁siden	-869
øm	-870
kom	-871
▁ra	-872
▁Ale	-873
▁end	-874
val	-875
▁2009	-876
▁2011	-877
ool	-878
▁okt	-879
▁histor	-880
own	-881
▁Carl	-882
▁program	-883
ys	-884
▁kn	-885
▁2021	-886
▁Kong	-887
ath	-888
▁ha	-889
arna	-890
orde	-891
▁fle	-892
▁september	-893
get	-894
ska	-895
▁all	-896
enter	-897
▁2014	-898
▁Europ	-899
▁stats	-900
pt	-901
▁Ind	-902
▁USA	-903
otball	-904
ally	-905
▁gre	-906
▁John	-907
▁stud	-908
dom	-909
ount	-910
▁start	-911
arriere	-912
▁oktober	-913
fatt	-914
▁fem	-915
ff	-916
ral	-917
▁And	-918
atur	-919
▁liv	-920
▁nav	-921
▁norske	-922
rat	-923
▁Gl	-924
▁It	-925
elig	-926
vent	-927
▁form	-928
▁2012	-929
▁million	-930
▁amerikansk	-931
▁november	-932
az	-933
øg	-934
ition	-935
▁2010	-936
▁mon	-937
▁2006	-938
gar	-939
iste	-940
▁2015	-941
per	-942
▁Ed	-943
sson	-944
▁2013	-945
ådespel	-946
▁På	-947
ment	-948
ennom	-949
▁2000	-950
▁2016	-951
▁Alex	-952
hold	-953
▁flere	-954
tte	-955
▁30	-956
ken	-957
▁ho	-958
▁000	-959
ongen	-960
▁Bl	-961
▁Is	-962
▁190	-963
este	-964
▁tidlig	-965
▁sol	-966
▁dire	-967
▁engel	-968
▁which	-969
br	-970
ätt	-971
▁24	-972
øben	-973
▁hoved	-974
▁series	-975
▁største	-976
▁bas	-977
▁stad	-978
øbenhav	-979
so	-980
va	-981
vel	-982
burg	-983
ice	-984
ited	-985
▁Krist	-986
▁sh	-987
▁1990	-988
▁både	-989
yskland	-990
my	-991
▁Tr	-992
ical	-993
▁led	-994
▁Ma	-995
▁mor	-996
▁mange	-997
▁person	-998
aw	-999
ced	-1000
inga	-1001
▁Noreg	-1002
ama	-1003
▁Sl	-1004
▁Univers	-1005
▁Københav	-1006
kkje	-1007
▁Ste	-1008
ft	-1009
nad	-1010
▁incl	-1011
▁nomin	-1012
▁första	-1013
sam	-1014
oder	-1015
▁maj	-1016
eleas	-1017
▁that	-1018
▁skådespel	-1019
bet	-1020
▁august	-1021
▁senere	-1022
fess	-1023
▁sine	-1024
▁debut	-1025
aget	-1026
▁mil	-1027
sm	-1028
▁Ing	-1029
▁kvin	-1030
▁part	-1031
▁ber	-1032
▁she	-1033
▁blei	-1034
▁releas	-1035
alv	-1036
▁Ny	-1037
alla	-1038
▁mod	-1039
out	-1040
ette	-1041
▁1980	-1042
▁popul	-1043
ational	-1044
ilt	-1045
ika	-1046
ørn	-1047
ange	-1048
verk	-1049
▁frem	-1050
▁sør	-1051
▁also	-1052
▁Alexand	-1053
▁num	-1054
▁one	-1055
▁rom	-1056
olf	-1057
riv	-1058
▁21	-1059
pe	-1060
▁Q	-1061
anc	-1062
den	-1063
▁Pro	-1064
▁havde	-1065
▁gjennom	-1066
vær	-1067
▁hj	-1068
▁År	-1069
uder	-1070
uter	-1071
▁Mon	-1072
▁rol	-1073
▁fire	-1074
▁Under	-1075
äm	-1076
het	-1077
▁ty	-1078
▁Tyskland	-1079
ain	-1080
▁hand	-1081
len	-1082
ley	-1083
itar	-1084
liga	-1085
▁Mus	-1086
▁are	-1087
▁utg	-1088
▁who	-1089
▁bruk	-1090
▁grupp	-1091
▁VM	-1092
▁Med	-1093
▁She	-1094
▁vok	-1095
▁2024	-1096
▁fødd	-1097
▁lang	-1098
▁serien	-1099
▁få	-1100
▁alle	-1101
▁tidligere	-1102
II	-1103
fl	-1104
igt	-1105
inn	-1106
pro	-1107
ure	-1108
▁Kn	-1109
▁rec	-1110
rid	-1111
▁död	-1112
▁rad	-1113
▁kronprins	-1114
▁0	-1115
▁val	-1116
▁skrev	-1117
▁filmen	-1118
▁intern	-1119
kst	-1120
ølv	-1121
ammet	-1122
▁2002	-1123
kn	-1124
ipp	-1125
stru	-1126
ulle	-1127
▁Hen	-1128
▁2001	-1129
bl	-1130
isen	-1131
▁song	-1132
▁över	-1133
▁Histor	-1134
▁nor	-1135
▁Aust	-1136
▁hert	-1137
▁ikkje	-1138
ola	-1139
▁25	-1140
arly	-1141
esid	-1142
ions	-1143
▁rev	-1144
▁store	-1145
▁22	-1146
▁reger	-1147
▁1995	-1148
▁1999	-1149
▁Erik	-1150
▁Will	-1151
▁mars	-1152
▁Efter	-1153
▁includ	-1154
ors	-1155
uld	-1156
▁Ph	-1157
arar	-1158
rike	-1159
▁Gre	-1160
▁Jul	-1161
▁Fred	-1162
▁Sc	-1163
ager	-1164
band	-1165
endt	-1166
▁hade	-1167
▁teater	-1168
▁december	-1169
▁fo	-1170
▁sm	-1171
rott	-1172
elige	-1173
▁1997	-1174
▁brit	-1175
▁vann	-1176
film	-1177
jord	-1178
▁fik	-1179
▁fyr	-1180
ha	-1181
ons	-1182
par	-1183
tid	-1184
▁Am	-1185
form	-1186
areer	-1187
ilmer	-1188
ultur	-1189
▁fikk	-1190
ete	-1191
råk	-1192
örj	-1193
▁Wal	-1194
▁hel	-1195
▁vär	-1196
▁prinsesse	-1197
ym	-1198
öl	-1199
ham	-1200
ife	-1201
▁Or	-1202
▁gå	-1203
ight	-1204
ligt	-1205
▁stat	-1206
▁Ander	-1207
▁landet	-1208
▁verdens	-1209
als	-1210
▁sø	-1211
rett	-1212
▁1998	-1213
▁vest	-1214
rag	-1215
ras	-1216
elen	-1217
▁1982	-1218
▁slut	-1219
arts	-1220
we	-1221
▁26	-1222
▁Me	-1223
▁my	-1224
▁Lond	-1225
▁tysk	-1226
▁vært	-1227
òg	-1228
▁òg	-1229
▁Charl	-1230
▁andra	-1231
▁London	-1232
▁kommune	-1233
agn	-1234
ren	-1235
urn	-1236
▁no	-1237
ther	-1238
orges	-1239
æl	-1240
one	-1241
▁me	-1242
▁Ser	-1243
▁two	-1244
▁fick	-1245
vision	-1246
▁æ	-1247
ree	-1248
lege	-1249
▁Kon	-1250
▁tok	-1251
▁flytt	-1252
▁kjent	-1253
▁København	-1254
▁Bo	-1255
legg	-1256
▁Der	-1257
stein	-1258
▁sedan	-1259
yrk	-1260
▁Sam	-1261
▁ans	-1262
etter	-1263
▁1996	-1264
▁selv	-1265
jø	-1266
ung	-1267
äst	-1268
▁31	-1269
▁hø	-1270
ader	-1271
stem	-1272
▁skal	-1273
▁United	-1274
▁gjorde	-1275
lin	-1276
▁am	-1277
bert	-1278
samm	-1279
▁bar	-1280
▁bec	-1281
▁ned	-1282
allet	-1283
endes	-1284
▁2003	-1285
its	-1286
▁Bro	-1287
▁1970	-1288
▁1994	-1289
▁Vest	-1290
▁vert	-1291
fatter	-1292
▁Europa	-1293
▁Gustaf	-1294
▁profess	-1295
uv	-1296
ris	-1297
sel	-1298
▁23	-1299
▁Ha	-1300
▁län	-1301
▁börj	-1302
▁musikk	-1303
let	-1304
▁vin	-1305
▁kung	-1306
▁ofte	-1307
▁dette	-1308
alender	-1309
ake	-1310
dann	-1311
▁nok	-1312
▁vis	-1313
▁yng	-1314
▁1991	-1315
▁succ	-1316
▁grunn	-1317
lar	-1318
met	-1319
äng	-1320
ård	-1321
erne	-1322
▁värld	-1323
iar	-1324
ins	-1325
▁As	-1326
ingar	-1327
ollow	-1328
▁1973	-1329
▁Harry	-1330
▁denne	-1331
äx	-1332
atte	-1333
ather	-1334
▁Land	-1335
▁Mich	-1336
▁kort	-1337
▁known	-1338
▁Norges	-1339
▁januari	-1340
ash	-1341
iam	-1342
use	-1343
▁Em	-1344
▁nu	-1345
iden	-1346
▁tred	-1347
▁Andre	-1348
▁genom	-1349
▁hennes	-1350
▁skulle	-1351
uk	-1352
åg	-1353
akgr	-1354
▁mid	-1355
ionen	-1356
▁Margr	-1357
rum	-1358
▁Bj	-1359
folk	-1360
▁Lou	-1361
▁app	-1362
▁blant	-1363
öm	-1364
ekt	-1365
øde	-1366
▁28	-1367
ilde	-1368
ourn	-1369
stit	-1370
▁Val	-1371
▁sit	-1372
▁rece	-1373
▁Teater	-1374
rest	-1375
undt	-1376
▁Bar	-1377
▁Par	-1378
▁count	-1379
▁kalla	-1380
▁skådespelare	-1381
ved	-1382
nings	-1383
▁have	-1384
▁prem	-1385
▁Peter	-1386
▁career	-1387
▁co	-1388
▁Osc	-1389
▁gam	-1390
▁York	-1391
▁nytt	-1392
▁annat	-1393
▁fylke	-1394
▁world	-1395
sammans	-1396
lands	-1397
uring	-1398
▁aust	-1399
▁kv	-1400
▁Stat	-1401
RK	-1402
▁Ö	-1403
byg	-1404
nen	-1405
oss	-1406
uvud	-1407
abeth	-1408
▁star	-1409
ations	-1410
▁Frank	-1411
▁Rober	-1412
▁monark	-1413
irk	-1414
▁ol	-1415
▁int	-1416
▁1972	-1417
▁repr	-1418
▁year	-1419
▁Wh	-1420
ague	-1421
ived	-1422
ship	-1423
▁1993	-1424
▁spill	-1425
iod	-1426
ubb	-1427
edia	-1428
▁NRK	-1429
▁Wik	-1430
▁bok	-1431
▁Marie	-1432
▁including	-1433
▁it	-1434
▁Per	-1435
▁Sør	-1436
▁Gold	-1437
▁rock	-1438
äv	-1439
ium	-1440
ius	-1441
pen	-1442
▁du	-1443
oria	-1444
▁100	-1445
▁Dei	-1446
▁1992	-1447
▁trad	-1448
▁grens	-1449
▁arbeid	-1450
da	-1451
▁29	-1452
mann	-1453
▁1989	-1454
▁most	-1455
▁Etter	-1456
▁Januar	-1457
iga	-1458
▁øy	-1459
agen	-1460
spel	-1461
▁går	-1462
▁van	-1463
▁time	-1464
▁gener	-1465
▁Awards	-1466
iel	-1467
kte	-1468
ator	-1469
▁fast	-1470
▁halv	-1471
▁after	-1472
▁films	-1473
elevision	-1474
▁desember	-1475
▁Storbritannia	-1476
äs	-1477
▁inv	-1478
essan	-1479
isjon	-1480
rådet	-1481
▁music	-1482
▁været	-1483
▁direct	-1484
▁tredje	-1485
ba	-1486
▁Rom	-1487
▁gje	-1488
▁par	-1489
ennem	-1490
▁utan	-1491
ninger	-1492
til	-1493
utt	-1494
▁sanger	-1495
▁released	-1496
gå	-1497
ala	-1498
mon	-1499
som	-1500
ethe	-1501
ensen	-1502
▁beste	-1503
▁grund	-1504
▁slott	-1505
▁rollen	-1506
▁received	-1507
ese	-1508
gan	-1509
ason	-1510
sted	-1511
▁Dav	-1512
inger	-1513
▁Brit	-1514
alm	-1515
hed	-1516
års	-1517
▁fl	-1518
▁ul	-1519
iges	-1520
▁Don	-1521
ampion	-1522
ournalist	-1523
ec	-1524
bej	-1525
det	-1526
ida	-1527
▁Af	-1528
▁ab	-1529
▁gu	-1530
eret	-1531
publ	-1532
▁gro	-1533
▁mer	-1534
grupp	-1535
▁sang	-1536
ningar	-1537
▁World	-1538
▁datter	-1539
▁fleire	-1540
▁studer	-1541
▁engelsk	-1542
ommun	-1543
▁Vict	-1544
▁mens	-1545
▁Dette	-1546
▁saman	-1547
▁England	-1548
ears	-1549
stat	-1550
▁Wil	-1551
▁sær	-1552
▁moder	-1553
øre	-1554
▁Da	-1555
▁Dr	-1556
▁ur	-1557
unkt	-1558
▁ses	-1559
rigin	-1560
▁krig	-1561
▁ligg	-1562
skapet	-1563
▁January	-1564
gte	-1565
▁Lu	-1566
olen	-1567
▁Jap	-1568
▁Man	-1569
▁Phil	-1570
▁offic	-1571
▁samme	-1572
▁their	-1573
samling	-1574
▁tillsammans	-1575
▁Pa	-1576
jell	-1577
▁Car	-1578
▁bro	-1579
▁två	-1580
river	-1581
skrig	-1582
▁1960	-1583
▁comp	-1584
▁artik	-1585
▁forsk	-1586
▁først	-1587
rog	-1588
▁27	-1589
▁bo	-1590
irke	-1591
▁Ein	-1592
▁års	-1593
▁same	-1594
▁kendt	-1595
▁Sveriges	-1596
ev	-1597
set	-1598
ynd	-1599
▁Ir	-1600
▁All	-1601
▁1987	-1602
▁gang	-1603
▁life	-1604
▁tilb	-1605
▁follow	-1606
▁namnet	-1607
▁Margrethe	-1608
sy	-1609
ned	-1610
▁Fl	-1611
▁Con	-1612
▁bror	-1613
▁mark	-1614
▁Georg	-1615
▁dotter	-1616
▁tidleg	-1617
bol	-1618
▁Fra	-1619
▁His	-1620
▁ock	-1621
▁ung	-1622
▁1981	-1623
▁1984	-1624
▁King	-1625
▁känd	-1626
▁være	-1627
esident	-1628
én	-1629
▁At	-1630
▁Gö	-1631
▁Mo	-1632
▁hen	-1633
havet	-1634
▁komp	-1635
▁were	-1636
▁begyn	-1637
▁huvud	-1638
▁ligger	-1639
far	-1640
alif	-1641
cent	-1642
ress	-1643
▁May	-1644
▁hus	-1645
▁fekk	-1646
▁Johan	-1647
▁nummer	-1648
▁period	-1649
▁tallet	-1650
lø	-1651
ney	-1652
vig	-1653
gere	-1654
illa	-1655
inde	-1656
kken	-1657
lagt	-1658
▁dem	-1659
▁eld	-1660
▁Karl	-1661
▁Japan	-1662
▁Oscar	-1663
▁drama	-1664
app	-1665
res	-1666
usk	-1667
cade	-1668
uper	-1669
▁eks	-1670
▁res	-1671
▁1964	-1672
▁forb	-1673
▁mind	-1674
▁Adolf	-1675
▁kultur	-1676
▁verden	-1677
▁Danmarks	-1678
▁December	-1679
▁Dronning	-1680
▁profession	-1681
ön	-1682
▁189	-1683
▁acc	-1684
▁Bakgr	-1685
▁tillegg	-1686
▁television	-1687
ael	-1688
dal	-1689
reg	-1690
▁My	-1691
gang	-1692
▁nær	-1693
▁ret	-1694
▁Fo	-1695
▁Com	-1696
▁Hel	-1697
▁Kar	-1698
▁dom	-1699
▁gav	-1700
▁rik	-1701
▁Eliz	-1702
▁Folk	-1703
▁vikt	-1704
▁began	-1705
▁rundt	-1706
▁League	-1707
▁Robert	-1708
▁kalender	-1709
▁journalist	-1710
ena	-1711
ica	-1712
mus	-1713
rav	-1714
▁ly	-1715
ames	-1716
▁sec	-1717
▁1985	-1718
▁Sven	-1719
▁sidan	-1720
▁artist	-1721
▁filmer	-1722
▁hertug	-1723
▁origin	-1724
▁debuter	-1725
▁Prinsesse	-1726
edy	-1727
lov	-1728
ført	-1729
ider	-1730
vars	-1731
▁1977	-1732
▁fors	-1733
▁sent	-1734
▁vant	-1735
▁years	-1736
oth	-1737
▁Ab	-1738
ella	-1739
igur	-1740
▁dis	-1741
▁mål	-1742
ksjon	-1743
▁dann	-1744
▁navn	-1745
landet	-1746
▁också	-1747
▁föddes	-1748
▁country	-1749
▁University	-1750
ous	-1751
ious	-1752
▁byg	-1753
▁god	-1754
▁hos	-1755
elser	-1756
kring	-1757
ocial	-1758
▁kont	-1759
▁namn	-1760
▁året	-1761
▁inter	-1762
▁fyrste	-1763
nas	-1764
▁By	-1765
▁Cl	-1766
asse	-1767
chen	-1768
stre	-1769
ament	-1770
▁1968	-1771
▁1986	-1772
minist	-1773
▁gennem	-1774
▁britiske	-1775
▁Liv	-1776
▁Tid	-1777
▁føl	-1778
▁mat	-1779
▁1947	-1780
▁1979	-1781
▁fjer	-1782
▁gamm	-1783
▁hver	-1784
ollege	-1785
▁organ	-1786
▁Michael	-1787
▁medverk	-1788
▁50	-1789
▁eg	-1790
▁but	-1791
▁ter	-1792
arane	-1793
▁kall	-1794
▁publ	-1795
▁event	-1796
▁August	-1797
▁Ingrid	-1798
▁producer	-1799
sn	-1800
rar	-1801
▁OL	-1802
iken	-1803
part	-1804
raft	-1805
rakt	-1806
▁när	-1807
▁1976	-1808
▁Russ	-1809
▁kunne	-1810
▁serie	-1811
▁tronen	-1812
▁Elizabeth	-1813
▁up	-1814
▁akt	-1815
▁bed	-1816
▁sch	-1817
ative	-1818
ikken	-1819
inget	-1820
▁1967	-1821
▁1975	-1822
▁1988	-1823
▁annet	-1824
▁statsminister	-1825
andt	-1826
▁tur	-1827
▁udg	-1828
ammer	-1829
▁Band	-1830
▁three	-1831
▁record	-1832
▁William	-1833
▁success	-1834
▁Victoria	-1835
ey	-1836
emp	-1837
hef	-1838
yra	-1839
▁Ly	-1840
▁po	-1841
erte	-1842
▁Jon	-1843
▁Opp	-1844
▁mai	-1845
▁Year	-1846
▁gull	-1847
▁port	-1848
talien	-1849
▁Early	-1850
▁ulike	-1851
▁Filmen	-1852
▁Gustav	-1853
▁Margar	-1854
▁senare	-1855
▁Fredrik	-1856
▁univers	-1857
▁football	-1858
ove	-1859
▁Sal	-1860
▁Vin	-1861
▁won	-1862
ement	-1863
skole	-1864
▁Bill	-1865
▁lead	-1866
▁show	-1867
arriär	-1868
ipedia	-1869
▁Acade	-1870
▁blitt	-1871
▁appear	-1872
▁kommer	-1873
▁musiker	-1874
▁Historie	-1875
fe	-1876
▁Co	-1877
▁Gu	-1878
▁di	-1879
▁ve	-1880
vest	-1881
▁ant	-1882
▁bes	-1883
▁lit	-1884
▁låt	-1885
▁äld	-1886
konom	-1887
▁1945	-1888
▁inte	-1889
▁deres	-1890
▁består	-1891
▁member	-1892
▁Academy	-1893
bro	-1894
fin	-1895
ful	-1896
aker	-1897
iana	-1898
lish	-1899
omas	-1900
orth	-1901
vard	-1902
ästa	-1903
▁Tor	-1904
▁Best	-1905
▁David	-1906
▁flera	-1907
▁premi	-1908
▁Golden	-1909
ederland	-1910
▁Austral	-1911
ån	-1912
ahl	-1913
rib	-1914
ölj	-1915
▁Ne	-1916
▁Ut	-1917
▁Mid	-1918
▁ham	-1919
▁its	-1920
▁red	-1921
assen	-1922
oller	-1923
▁dist	-1924
▁British	-1925
▁började	-1926
▁spelade	-1927
▁Kristian	-1928
des	-1929
ori	-1930
▁Eg	-1931
▁Ni	-1932
▁cl	-1933
fold	-1934
▁Ole	-1935
▁enn	-1936
▁rek	-1937
▁Hand	-1938
▁Jose	-1939
▁vore	-1940
mester	-1941
▁After	-1942
▁kjend	-1943
▁Margaret	-1944
▁Storbritannien	-1945
obb	-1946
off	-1947
sje	-1948
▁im	-1949
erna	-1950
orge	-1951
slag	-1952
upen	-1953
▁Act	-1954
▁Bow	-1955
▁Fin	-1956
▁You	-1957
▁nye	-1958
▁syn	-1959
▁tog	-1960
▁tra	-1961
▁School	-1962
▁became	-1963
äd	-1964
▁sn	-1965
amat	-1966
ance	-1967
▁Que	-1968
▁Lars	-1969
▁jord	-1970
▁Harald	-1971
▁Potter	-1972
rottning	-1973
▁karriere	-1974
▁Frankrike	-1975
nt	-1976
ånd	-1977
▁us	-1978
ence	-1979
▁186	-1980
▁bor	-1981
▁ord	-1982
atten	-1983
essen	-1984
▁1969	-1985
▁Lund	-1986
▁inne	-1987
▁seks	-1988
▁hovud	-1989
▁ingen	-1990
▁församling	-1991
øj	-1992
ely	-1993
ics	-1994
▁Er	-1995
▁Ke	-1996
▁Ul	-1997
▁1971	-1998
▁Kron	-1999
▁byen	-2000
▁role	-2001
aliforn	-2002
▁Fa	-2003
▁sv	-2004
ktør	-2005
outh	-2006
▁187	-2007
▁Jan	-2008
▁Mel	-2009
▁kat	-2010
▁sel	-2011
▁styr	-2012
▁work	-2013
▁roles	-2014
▁navnet	-2015
▁repres	-2016
▁omkring	-2017
oms	-2018
ule	-2019
ytt	-2020
▁Om	-2021
aste	-2022
eren	-2023
▁188	-2024
▁För	-2025
▁Ver	-2026
▁kor	-2027
▁sett	-2028
illing	-2029
▁europ	-2030
▁forts	-2031
▁klass	-2032
▁plass	-2033
▁siste	-2034
▁språk	-2035
▁Charles	-2036
ampionship	-2037
nam	-2038
ury	-2039
älv	-2040
▁fö	-2041
bygg	-2042
iens	-2043
ital	-2044
året	-2045
▁Ang	-2046
estiv	-2047
▁1974	-2048
▁1983	-2049
▁arbet	-2050
▁meter	-2051
▁Albert	-2052
▁Louise	-2053
▁second	-2054
▁Wikipedia	-2055
▁millioner	-2056
▁Stockholms	-2057
ög	-2058
ome	-2059
une	-2060
▁No	-2061
▁Sj	-2062
▁id	-2063
atin	-2064
gram	-2065
hand	-2066
▁Lar	-2067
▁Mer	-2068
▁bli	-2069
▁Mary	-2070
▁gikk	-2071
▁during	-2072
▁folket	-2073
▁mindre	-2074
▁nasjon	-2075
▁regjer	-2076
▁Karriere	-2077
sf	-2078
kur	-2079
nga	-2080
äll	-2081
olan	-2082
▁Gar	-2083
▁sex	-2084
▁små	-2085
▁tro	-2086
gaard	-2087
▁Olav	-2088
▁Prin	-2089
rollen	-2090
▁milit	-2091
▁George	-2092
▁season	-2093
▁singer	-2094
sj	-2095
▁ta	-2096
lymp	-2097
otte	-2098
▁Ann	-2099
▁Ger	-2100
▁rel	-2101
▁Øst	-2102
huset	-2103
sborg	-2104
▁1946	-2105
▁four	-2106
▁medv	-2107
▁actor	-2108
▁mellan	-2109
▁programmet	-2110
di	-2111
kj	-2112
ood	-2113
▁Sm	-2114
▁bi	-2115
▁ek	-2116
ativ	-2117
ielt	-2118
ilte	-2119
tain	-2120
▁Can	-2121
▁Dis	-2122
▁VII	-2123
ction	-2124
▁cent	-2125
▁president	-2126
ban	-2127
ode	-2128
essa	-2129
heim	-2130
mand	-2131
ogra	-2132
▁Mad	-2133
▁Rad	-2134
▁War	-2135
▁him	-2136
▁hum	-2137
▁pla	-2138
ellem	-2139
ioner	-2140
jerne	-2141
▁Jack	-2142
▁Queen	-2143
▁skriv	-2144
▁yngre	-2145
▁Kommun	-2146
▁former	-2147
▁svenska	-2148
æv	-2149
elm	-2150
upp	-2151
▁La	-2152
kten	-2153
▁Før	-2154
▁Reg	-2155
▁Str	-2156
▁Ved	-2157
itten	-2158
▁1963	-2159
▁1978	-2160
▁Anne	-2161
▁Mart	-2162
▁team	-2163
entlig	-2164
▁Olsen	-2165
▁sjølv	-2166
▁father	-2167
BC	-2168
ada	-2169
sak	-2170
ænd	-2171
▁Pl	-2172
▁Sv	-2173
▁ca	-2174
▁em	-2175
råde	-2176
uden	-2177
usin	-2178
▁Nil	-2179
▁Pri	-2180
▁bil	-2181
▁met	-2182
▁øst	-2183
board	-2184
okrat	-2185
▁Rich	-2186
▁been	-2187
▁stör	-2188
▁Music	-2189
▁berre	-2190
▁kunst	-2191
▁tiden	-2192
grammet	-2193
▁Thomas	-2194
fore	-2195
sjon	-2196
stid	-2197
▁Bel	-2198
▁Upp	-2199
▁dat	-2200
atret	-2201
▁Pres	-2202
▁brukt	-2203
▁gamle	-2204
▁utvik	-2205
▁Anders	-2206
▁States	-2207
▁guitar	-2208
▁roller	-2209
▁familie	-2210
▁tidlegare	-2211
ara	-2212
bor	-2213
igg	-2214
▁40	-2215
▁Kl	-2216
▁la	-2217
back	-2218
sens	-2219
▁Tom	-2220
▁anv	-2221
▁sym	-2222
▁ten	-2223
ering	-2224
▁West	-2225
▁stem	-2226
▁Wales	-2227
▁arbej	-2228
▁Henrik	-2229
▁played	-2230
▁Bakgrunn	-2231
▁Alexandra	-2232
▁forfatter	-2233
öt	-2234
øp	-2235
▁!	-2236
ays	-2237
orp	-2238
▁ed	-2239
▁ge	-2240
▁ke	-2241
oved	-2242
ække	-2243
▁Ben	-2244
▁Mor	-2245
▁Sol	-2246
▁win	-2247
inare	-2248
isten	-2249
▁1950	-2250
▁Part	-2251
▁døde	-2252
▁revy	-2253
▁tilh	-2254
▁Norsk	-2255
▁medan	-2256
▁befolk	-2257
▁begynd	-2258
▁fransk	-2259
▁instru	-2260
▁musikal	-2261
▁student	-2262
▁internasjon	-2263
aft	-2264
bru	-2265
dem	-2266
dus	-2267
ony	-2268
▁Mc	-2269
ista	-2270
kker	-2271
nger	-2272
svar	-2273
▁Tel	-2274
▁held	-2275
▁kjem	-2276
ograph	-2277
▁samar	-2278
▁själv	-2279
▁ville	-2280
▁comedy	-2281
▁skrevet	-2282
agt	-2283
ios	-2284
▁Kr	-2285
▁kr	-2286
▁lu	-2287
ifte	-2288
▁Far	-2289
▁dog	-2290
▁någ	-2291
▁pre	-2292
▁run	-2293
▁väx	-2294
ielle	-2295
ologi	-2296
rough	-2297
▁Magn	-2298
▁back	-2299
▁cont	-2300
▁made	-2301
▁sted	-2302
▁åter	-2303
▁other	-2304
▁eneste	-2305
▁English	-2306
kel	-2307
▁ky	-2308
▁Cla	-2309
▁Col	-2310
▁får	-2311
▁före	-2312
▁oper	-2313
teborg	-2314
▁marts	-2315
▁bandet	-2316
▁administ	-2317
ek	-2318
omb	-2319
vid	-2320
▁ig	-2321
▁Sim	-2322
▁arr	-2323
gende	-2324
äster	-2325
ørgen	-2326
▁1952	-2327
▁Sand	-2328
▁Span	-2329
▁pass	-2330
jorden	-2331
▁aktiv	-2332
▁britt	-2333
▁stort	-2334
▁mennes	-2335
▁Californ	-2336
▁National	-2337
▁Nederland	-2338
ij	-2339
obe	-2340
▁sub	-2341
ansen	-2342
eland	-2343
ström	-2344
▁Malm	-2345
▁vide	-2346
ington	-2347
staden	-2348
▁Grupp	-2349
▁bästa	-2350
▁delen	-2351
▁årene	-2352
FL	-2353
åk	-2354
ird	-2355
▁Po	-2356
▁We	-2357
▁so	-2358
▁ti	-2359
delt	-2360
ivat	-2361
ivet	-2362
spro	-2363
▁kar	-2364
▁rep	-2365
▁sju	-2366
▁ski	-2367
dagen	-2368
stand	-2369
unnet	-2370
▁Park	-2371
▁Wien	-2372
▁norr	-2373
▁topp	-2374
▁innan	-2375
▁kvinn	-2376
▁later	-2377
▁family	-2378
▁innbyg	-2379
▁single	-2380
▁Alexander	-2381
▁drottning	-2382
ase	-2383
atr	-2384
ave	-2385
ern	-2386
ude	-2387
amen	-2388
bild	-2389
▁Sil	-2390
album	-2391
▁1940	-2392
▁1962	-2393
▁besk	-2394
▁nett	-2395
▁rett	-2396
▁Philip	-2397
▁before	-2398
▁hendes	-2399
▁regiss	-2400
▁school	-2401
▁ungdom	-2402
▁vilket	-2403
han	-2404
kta	-2405
ont	-2406
spr	-2407
▁gl	-2408
blad	-2409
▁Ven	-2410
▁Vid	-2411
abler	-2412
empel	-2413
følge	-2414
riter	-2415
▁Paul	-2416
▁Tron	-2417
▁erne	-2418
▁sina	-2419
▁slik	-2420
▁olika	-2421
▁rekke	-2422
▁Serien	-2423
▁Februar	-2424
▁Presley	-2425
▁italien	-2426
▁Göteborg	-2427
▁produced	-2428
iew	-2429
oen	-2430
rer	-2431
udd	-2432
▁Et	-2433
▁Je	-2434
▁bø	-2435
gers	-2436
orts	-2437
wood	-2438
▁Dag	-2439
▁Min	-2440
▁kol	-2441
famil	-2442
usjon	-2443
▁1936	-2444
▁Hall	-2445
▁High	-2446
▁Lind	-2447
▁Rock	-2448
▁fylk	-2449
▁roll	-2450
▁scen	-2451
▁titt	-2452
▁Maria	-2453
▁titel	-2454
▁where	-2455
▁February	-2456
▁directed	-2457
▁California	-2458
▁programled	-2459
ll	-2460
alk	-2461
yal	-2462
æld	-2463
▁Kj	-2464
▁ep	-2465
atal	-2466
kket	-2467
olke	-2468
oman	-2469
▁184	-2470
▁Bru	-2471
▁Nam	-2472
▁Ski	-2473
▁Van	-2474
▁byr	-2475
▁pol	-2476
▁sal	-2477
▁sty	-2478
alder	-2479
ammen	-2480
▁Tour	-2481
▁børn	-2482
▁full	-2483
▁post	-2484
▁aller	-2485
▁dagen	-2486
▁gjekk	-2487
▁stars	-2488
▁Magnus	-2489
▁opphav	-2490
▁februari	-2491
ces	-2492
ias	-2493
lev	-2494
ogn	-2495
▁Hj	-2496
▁So	-2497
amer	-2498
gård	-2499
irig	-2500
rika	-2501
▁lok	-2502
▁når	-2503
▁tru	-2504
sberg	-2505
under	-2506
▁kvar	-2507
ellige	-2508
▁betyd	-2509
▁radio	-2510
▁stand	-2511
▁tidig	-2512
▁kompon	-2513
▁spiller	-2514
▁prinsessan	-2515
alf	-2516
itz	-2517
rim	-2518
▁ph	-2519
akon	-2520
gång	-2521
lund	-2522
oung	-2523
▁181	-2524
▁Jer	-2525
▁bir	-2526
▁eng	-2527
anter	-2528
ighet	-2529
▁inkl	-2530
▁like	-2531
▁name	-2532
lingen	-2533
▁Angel	-2534
▁Globe	-2535
▁March	-2536
▁natur	-2537
▁since	-2538
▁tyske	-2539
▁växte	-2540
▁while	-2541
▁number	-2542
▁perfor	-2543
▁spilte	-2544
▁perioden	-2545
▁tradition	-2546
äg	-2547
▁Ag	-2548
▁Bu	-2549
▁Bod	-2550
▁Gra	-2551
▁Oct	-2552
▁Ras	-2553
▁San	-2554
▁Son	-2555
▁alt	-2556
▁len	-2557
▁säs	-2558
▁Berg	-2559
▁Knut	-2560
▁arve	-2561
▁gjort	-2562
▁samma	-2563
▁Joseph	-2564
try	-2565
urt	-2566
æst	-2567
▁On	-2568
▁Øy	-2569
aven	-2570
enny	-2571
ents	-2572
ford	-2573
vist	-2574
öder	-2575
▁Nik	-2576
▁Sof	-2577
▁lær	-2578
▁not	-2579
achim	-2580
avnet	-2581
▁1955	-2582
▁Play	-2583
▁Stud	-2584
▁Gramm	-2585
fattare	-2586
▁Bergen	-2587
▁Joachim	-2588
▁October	-2589
▁politiker	-2590
▁professional	-2591
gj	-2592
ny	-2593
ino	-2594
isc	-2595
ått	-2596
▁DR	-2597
▁Go	-2598
anch	-2599
rael	-2600
spir	-2601
▁Men	-2602
▁fun	-2603
▁meg	-2604
▁sle	-2605
▁æld	-2606
delse	-2607
plass	-2608
velop	-2609
ymnas	-2610
▁anna	-2611
▁mann	-2612
▁står	-2613
▁sølv	-2614
dannet	-2615
▁James	-2616
▁North	-2617
▁många	-2618
▁named	-2619
▁verda	-2620
odespel	-2621
▁Haakon	-2622
▁social	-2623
▁system	-2624
▁Championship	-2625
sv	-2626
int	-2627
isa	-2628
▁36	-2629
▁Du	-2630
▁dy	-2631
angr	-2632
gren	-2633
ised	-2634
ords	-2635
oven	-2636
▁Bon	-2637
▁Syd	-2638
▁lik	-2639
▁nyt	-2640
aland	-2641
▁norm	-2642
▁solo	-2643
▁stre	-2644
▁sång	-2645
refter	-2646
▁Denne	-2647
▁Franc	-2648
▁blandt	-2649
▁komiker	-2650
▁Football	-2651
▁regering	-2652
▁programledare	-2653
gre	-2654
irl	-2655
ora	-2656
sar	-2657
way	-2658
äld	-2659
▁Sa	-2660
▁Sel	-2661
▁Sve	-2662
▁kil	-2663
emark	-2664
ående	-2665
▁1957	-2666
▁Bowl	-2667
▁Love	-2668
▁Stra	-2669
▁both	-2670
▁bygg	-2671
▁kamp	-2672
▁sønn	-2673
▁voks	-2674
▁Paris	-2675
▁Troms	-2676
▁Trond	-2677
▁samtid	-2678
▁viktig	-2679
▁tradisjon	-2680
▁Universitet	-2681
any	-2682
høg	-2683
oph	-2684
▁Sw	-2685
▁si	-2686
lade	-2687
▁Fød	-2688
▁Jac	-2689
▁eig	-2690
▁top	-2691
ligen	-2692
undet	-2693
▁1953	-2694
▁crit	-2695
▁egen	-2696
▁hvil	-2697
▁inom	-2698
▁into	-2699
▁russ	-2700
▁Famil	-2701
▁Super	-2702
▁roman	-2703
erefter	-2704
▁Johann	-2705
▁Martin	-2706
▁eldste	-2707
▁seinare	-2708
▁familien	-2709
wn	-2710
ana	-2711
osp	-2712
väx	-2713
yld	-2714
▁vi	-2715
able	-2716
aden	-2717
aler	-2718
ente	-2719
reen	-2720
æren	-2721
▁nog	-2722
▁slä	-2723
ammar	-2724
isert	-2725
▁City	-2726
▁Miss	-2727
▁hopp	-2728
▁when	-2729
▁kraft	-2730
▁Daniel	-2731
▁Folket	-2732
▁Hendes	-2733
▁Intern	-2734
▁action	-2735
▁tilhør	-2736
▁Finland	-2737
▁actress	-2738
▁svenske	-2739
▁politisk	-2740
▁sesongen	-2741
▁Billboard	-2742
▁following	-2743
avn	-2744
uth	-2745
▁VI	-2746
atri	-2747
erer	-2748
ikar	-2749
vers	-2750
▁Kim	-2751
▁Sen	-2752
▁bid	-2753
▁døm	-2754
▁gra	-2755
▁hem	-2756
▁via	-2757
ating	-2758
elles	-2759
leder	-2760
ubben	-2761
ution	-2762
▁Aker	-2763
▁Bern	-2764
▁Ital	-2765
▁char	-2766
▁dess	-2767
▁skap	-2768
▁spes	-2769
▁based	-2770
▁finns	-2771
▁leder	-2772
▁offis	-2773
▁overt	-2774
▁rolle	-2775
▁række	-2776
▁Öster	-2777
skriver	-2778
▁dermed	-2779
▁vinter	-2780
arlament	-2781
dannelse	-2782
▁premiär	-2783
▁verdensc	-2784
▁debuterte	-2785
egn	-2786
ied	-2787
tre	-2788
▁Ry	-2789
▁åt	-2790
rich	-2791
▁Rob	-2792
▁Tur	-2793
▁leg	-2794
▁tot	-2795
▁vel	-2796
▁ven	-2797
▁Slot	-2798
▁dans	-2799
▁lång	-2800
▁plan	-2801
▁serv	-2802
▁skil	-2803
▁such	-2804
fattar	-2805
▁fader	-2806
▁fjell	-2807
▁gitar	-2808
▁manus	-2809
ärefter	-2810
▁europe	-2811
▁symbol	-2812
▁britisk	-2813
▁etabler	-2814
▁November	-2815
▁Telemark	-2816
▁z	-2817
ect	-2818
jär	-2819
ück	-2820
▁Ex	-2821
▁Op	-2822
▁To	-2823
▁än	-2824
imer	-2825
shus	-2826
skab	-2827
styr	-2828
▁Bir	-2829
▁Fel	-2830
▁Lin	-2831
▁hit	-2832
▁høg	-2833
▁pos	-2834
▁six	-2835
▁täv	-2836
førte	-2837
▁1939	-2838
▁cons	-2839
▁fant	-2840
▁fort	-2841
▁fyra	-2842
prisen	-2843
rasjon	-2844
▁finst	-2845
▁henne	-2846
▁kring	-2847
▁varit	-2848
angrenn	-2849
▁Andrew	-2850
▁Hennes	-2851
▁Jørgen	-2852
▁använd	-2853
▁blevet	-2854
▁original	-2855
▁tidigare	-2856
▁amerikanske	-2857
▁universitet	-2858
VI	-2859
ai	-2860
æn	-2861
ary	-2862
deb	-2863
olv	-2864
rab	-2865
ror	-2866
tes	-2867
ypt	-2868
▁nå	-2869
ific	-2870
lant	-2871
ough	-2872
rift	-2873
ross	-2874
ssen	-2875
▁180	-2876
▁Cup	-2877
▁III	-2878
▁Net	-2879
▁Ron	-2880
▁von	-2881
entet	-2882
organ	-2883
ustri	-2884
ville	-2885
▁1965	-2886
▁hele	-2887
▁hjem	-2888
▁mand	-2889
▁samf	-2890
orting	-2891
▁Grand	-2892
▁India	-2893
▁Ivars	-2894
▁andet	-2895
▁sever	-2896
▁äldre	-2897
▁gruppen	-2898
azz	-2899
hål	-2900
skj	-2901
▁ne	-2902
▁nr	-2903
helm	-2904
omen	-2905
roll	-2906
▁Aar	-2907
▁Rec	-2908
▁abd	-2909
▁bos	-2910
▁mag	-2911
▁str	-2912
angen	-2913
ended	-2914
itter	-2915
skriv	-2916
▁1900	-2917
▁1934	-2918
▁1956	-2919
▁Knud	-2920
▁grad	-2921
▁Mette	-2922
▁along	-2923
ationer	-2924
spiller	-2925
▁Edvard	-2926
▁syster	-2927
▁spillede	-2928
▁Kongelige	-2929
▁innbyggere	-2930
ds	-2931
sa	-2932
ux	-2933
åt	-2934
akk	-2935
bok	-2936
dan	-2937
dde	-2938
ose	-2939
ära	-2940
▁Do	-2941
empl	-2942
quar	-2943
▁age	-2944
▁arv	-2945
▁vit	-2946
▁web	-2947
aster	-2948
▁1961	-2949
▁Grøn	-2950
▁eksp	-2951
▁igen	-2952
▁April	-2953
▁Count	-2954
▁Elvis	-2955
▁child	-2956
▁gifte	-2957
▁perio	-2958
▁Årets	-2959
▁Landet	-2960
▁Sommer	-2961
▁region	-2962
▁Russland	-2963
▁skodespel	-2964
bj	-2965
æd	-2966
øk	-2967
vok	-2968
ært	-2969
örn	-2970
▁pe	-2971
▁sä	-2972
▁ål	-2973
ellt	-2974
unde	-2975
▁Ant	-2976
▁Hot	-2977
▁Los	-2978
▁Mär	-2979
▁døy	-2980
▁kap	-2981
▁old	-2982
akter	-2983
anden	-2984
sburg	-2985
▁1966	-2986
▁fått	-2987
▁meir	-2988
▁modt	-2989
▁nest	-2990
▁well	-2991
▁South	-2992
▁Grammy	-2993
▁Republ	-2994
▁hertig	-2995
▁økonom	-2996
▁College	-2997
▁Richard	-2998
▁albumet	-2999
▁forhold	-3000
▁several	-3001
▁tildelt	-3002
▁langrenn	-3003
▁personer	-3004
▁Kronprins	-3005
▁medverkade	-3006
▁?	-3007
ata	-3008
iop	-3009
ism	-3010
pez	-3011
urs	-3012
van	-3013
æng	-3014
▁60	-3015
följ	-3016
ield	-3017
iket	-3018
ines	-3019
slut	-3020
▁185	-3021
▁Ham	-3022
▁bod	-3023
▁gik	-3024
▁lev	-3025
▁opt	-3026
spill	-3027
ønder	-3028
▁Anna	-3029
▁June	-3030
▁Mark	-3031
▁Song	-3032
▁hust	-3033
▁mere	-3034
▁ofta	-3035
▁prin	-3036
▁spec	-3037
▁Glück	-3038
▁Siden	-3039
▁desse	-3040
▁early	-3041
▁augusti	-3042
▁grenser	-3043
▁området	-3044
▁kommunen	-3045
yrd	-3046
▁70	-3047
▁Id	-3048
▁Vi	-3049
azel	-3050
cted	-3051
gent	-3052
ient	-3053
imes	-3054
iner	-3055
isch	-3056
ivid	-3057
play	-3058
rene	-3059
▁Mag	-3060
▁NFL	-3061
▁cre	-3062
▁fot	-3063
▁imp	-3064
atern	-3065
enfor	-3066
offer	-3067
orden	-3068
pezat	-3069
produ	-3070
strid	-3071
ument	-3072
▁1948	-3073
▁1954	-3074
▁Beck	-3075
▁Leon	-3076
▁bild	-3077
▁hold	-3078
▁more	-3079
▁areal	-3080
▁elekt	-3081
▁komed	-3082
▁livet	-3083
▁major	-3084
▁numer	-3085
▁stora	-3086
▁dramat	-3087
▁produs	-3088
▁spille	-3089
▁fotball	-3090
▁karriär	-3091
▁landets	-3092
▁popular	-3093
▁Handling	-3094
væ	-3095
æs	-3096
øs	-3097
kra	-3098
sty	-3099
unk	-3100
ush	-3101
▁Hå	-3102
▁Ju	-3103
▁Ra	-3104
▁én	-3105
ates	-3106
hest	-3107
sker	-3108
ures	-3109
▁Bla	-3110
▁Day	-3111
▁Ung	-3112
▁syd	-3113
aking	-3114
ening	-3115
stant	-3116
▁Jens	-3117
▁Prem	-3118
▁bron	-3119
▁dock	-3120
▁hund	-3121
▁mang	-3122
▁vera	-3123
roller	-3124
ynorsk	-3125
▁Bjørn	-3126
▁Lille	-3127
▁Märth	-3128
▁group	-3129
▁meste	-3130
▁tekst	-3131
gruppen	-3132
varande	-3133
▁Edward	-3134
▁studio	-3135
▁yngste	-3136
▁ældste	-3137
▁hvilket	-3138
▁arranger	-3139
sb	-3140
sd	-3141
iro	-3142
lor	-3143
mel	-3144
ona	-3145
▁Då	-3146
▁SV	-3147
▁do	-3148
gain	-3149
iger	-3150
pris	-3151
uset	-3152
växt	-3153
wide	-3154
▁Fri	-3155
▁Gud	-3156
▁Inn	-3157
▁Nap	-3158
▁bel	-3159
▁ben	-3160
▁job	-3161
▁lar	-3162
▁lov	-3163
anska	-3164
enner	-3165
orter	-3166
▁1958	-3167
▁Belg	-3168
▁July	-3169
▁guld	-3170
▁kald	-3171
▁side	-3172
▁staf	-3173
▁latin	-3174
▁rekna	-3175
▁Nikola	-3176
▁deltok	-3177
▁Monpezat	-3178
▁Vestfold	-3179
jar	-3180
▁jo	-3181
alle	-3182
chie	-3183
iven	-3184
ivil	-3185
side	-3186
▁Ele	-3187
▁Fyl	-3188
▁Mil	-3189
▁ass	-3190
▁bre	-3191
▁new	-3192
▁set	-3193
andin	-3194
istan	-3195
ittle	-3196
▁Hell	-3197
▁Roll	-3198
▁arab	-3199
▁bass	-3200
▁gain	-3201
▁resp	-3202
spunkt	-3203
▁delar	-3204
▁fordi	-3205
▁igjen	-3206
▁media	-3207
▁relig	-3208
usiness	-3209
▁Disney	-3210
▁Island	-3211
▁albums	-3212
▁hustru	-3213
▁medvir	-3214
▁mother	-3215
▁desuden	-3216
▁develop	-3217
▁singles	-3218
▁största	-3219
▁begyndte	-3220
▁populære	-3221
▁worldwide	-3222
▁kalenderen	-3223
pa	-3224
fon	-3225
ign	-3226
ima	-3227
ira	-3228
ory	-3229
sem	-3230
iskt	-3231
leis	-3232
orte	-3233
usen	-3234
▁Fær	-3235
▁Gro	-3236
▁Spr	-3237
▁Tre	-3238
▁out	-3239
demar	-3240
ynyrd	-3241
▁1959	-3242
▁five	-3243
▁gick	-3244
▁host	-3245
delige	-3246
ometer	-3247
riller	-3248
▁Carol	-3249
▁Jacob	-3250
▁Melod	-3251
▁Produ	-3252
▁Rosen	-3253
▁årets	-3254
andinav	-3255
▁Berlin	-3256
▁Israel	-3257
▁vanleg	-3258
▁grensar	-3259
▁stafett	-3260
▁September	-3261
▁parlament	-3262
liv	-3263
veg	-3264
ægt	-3265
øya	-3266
▁80	-3267
▁Lo	-3268
▁Od	-3269
▁Sy	-3270
arth	-3271
cket	-3272
heng	-3273
hopp	-3274
ksam	-3275
rinn	-3276
sdel	-3277
åren	-3278
▁Mal	-3279
▁Mat	-3280
▁Til	-3281
▁fil	-3282
▁fys	-3283
▁tar	-3284
eller	-3285
orten	-3286
rådte	-3287
▁1944	-3288
▁Barb	-3289
▁Sund	-3290
▁främ	-3291
▁gång	-3292
▁hatt	-3293
▁kons	-3294
▁kyrk	-3295
▁than	-3296
▁verk	-3297
ounced	-3298
slaget	-3299
sprung	-3300
▁Malmö	-3301
▁faren	-3302
▁humor	-3303
▁kvart	-3304
▁laget	-3305
▁lille	-3306
▁title	-3307
▁vandt	-3308
azelina	-3309
quarter	-3310
▁Indian	-3311
▁Larsen	-3312
▁gammel	-3313
▁inspir	-3314
▁Angeles	-3315
▁college	-3316
▁delstat	-3317
▁produkt	-3318
▁release	-3319
▁flyttade	-3320
▁inkluder	-3321
▁Folketinget	-3322
▁representer	-3323
ho	-3324
lo	-3325
ée	-3326
ady	-3327
ags	-3328
har	-3329
jet	-3330
ues	-3331
ute	-3332
▁Av	-3333
gori	-3334
hald	-3335
jøen	-3336
rikt	-3337
▁182	-3338
▁Bil	-3339
▁exp	-3340
▁voc	-3341
▁øya	-3342
snitt	-3343
▁1943	-3344
▁Hert	-3345
▁Matt	-3346
▁Stre	-3347
▁krit	-3348
▁leng	-3349
▁noko	-3350
▁pres	-3351
kommer	-3352
ritten	-3353
▁Diana	-3354
▁Stats	-3355
▁detta	-3356
▁dømes	-3357
▁ålder	-3358
ospital	-3359
▁Aarhus	-3360
▁Rasmus	-3361
▁portra	-3362
▁utbild	-3363
▁begynte	-3364
▁tilbage	-3365
AF	-3366
æt	-3367
gje	-3368
izz	-3369
sey	-3370
▁Qu	-3371
▁ev	-3372
▁tj	-3373
▁øv	-3374
atet	-3375
bold	-3376
bror	-3377
erud	-3378
etta	-3379
inen	-3380
kurr	-3381
oper	-3382
▁500	-3383
▁SVT	-3384
▁Sin	-3385
▁bak	-3386
▁ork	-3387
▁tek	-3388
alend	-3389
ennet	-3390
figur	-3391
ially	-3392
ighed	-3393
isser	-3394
ividu	-3395
▁1930	-3396
▁Asia	-3397
▁Wash	-3398
▁gong	-3399
▁haft	-3400
▁menn	-3401
▁ster	-3402
▁they	-3403
▁Album	-3404
▁begge	-3405
▁Märtha	-3406
▁början	-3407
▁indtil	-3408
▁konger	-3409
▁sommer	-3410
▁Jackson	-3411
▁Records	-3412
▁tronføl	-3413
▁Akershus	-3414
▁Vazelina	-3415
▁därefter	-3416
▁Washington	-3417
uc	-3418
æg	-3419
ble	-3420
hem	-3421
hen	-3422
idd	-3423
mär	-3424
neb	-3425
▁Ak	-3426
▁Hø	-3427
▁mø	-3428
▁sæ	-3429
ctor	-3430
flix	-3431
serv	-3432
vært	-3433
▁Art	-3434
▁Del	-3435
▁Fer	-3436
▁Gen	-3437
▁Nic	-3438
▁Tob	-3439
▁ang	-3440
▁ark	-3441
▁est	-3442
acter	-3443
aller	-3444
erade	-3445
oppen	-3446
språk	-3447
▁Finn	-3448
▁eget	-3449
▁helt	-3450
▁läng	-3451
▁stil	-3452
▁tett	-3453
▁then	-3454
▁tida	-3455
▁uden	-3456
writer	-3457
ærende	-3458
▁gross	-3459
▁stift	-3460
▁third	-3461
ationen	-3462
▁deltog	-3463
▁fleste	-3464
▁større	-3465
familien	-3466
▁Leonard	-3467
▁Netflix	-3468
▁gregori	-3469
▁quarter	-3470
▁artikler	-3471
▁engelske	-3472
▁national	-3473
▁internasjonale	-3474
aga	-3475
enk	-3476
kje	-3477
mid	-3478
▁32	-3479
▁45	-3480
isme	-3481
itte	-3482
nsyn	-3483
ries	-3484
rige	-3485
stäl	-3486
utom	-3487
▁BBC	-3488
▁Cro	-3489
▁Frå	-3490
▁mar	-3491
▁sna	-3492
laget	-3493
rasil	-3494
▁Born	-3495
▁Elis	-3496
▁bety	-3497
▁high	-3498
▁slog	-3499
▁tjen	-3500
histor	-3501
skolan	-3502
▁Inter	-3503
▁Royal	-3504
▁havet	-3505
▁hvert	-3506
▁valgt	-3507
▁Øster	-3508
ienborg	-3509
meister	-3510
▁Europe	-3511
▁Irland	-3512
▁Väster	-3513
▁derfor	-3514
▁mellem	-3515
▁spelar	-3516
▁staden	-3517
▁turner	-3518
▁history	-3519
estivalen	-3520
▁ursprung	-3521
▁Københavns	-3522
▁forskellige	-3523
▁verdenskrig	-3524
cy	-3525
yp	-3526
ged	-3527
oft	-3528
uro	-3529
vet	-3530
▁Ek	-3531
▁Ka	-3532
▁Pe	-3533
▁Sn	-3534
▁dø	-3535
anse	-3536
cker	-3537
egor	-3538
feld	-3539
ired	-3540
iter	-3541
skon	-3542
▁One	-3543
▁dav	-3544
▁fri	-3545
▁høy	-3546
arden	-3547
byggj	-3548
rimin	-3549
skola	-3550
▁1800	-3551
▁pian	-3552
▁stod	-3553
▁supp	-3554
artist	-3555
filmen	-3556
▁Louis	-3557
▁again	-3558
▁dagar	-3559
▁figur	-3560
▁great	-3561
▁kilde	-3562
▁skild	-3563
▁viser	-3564
fjorden	-3565
▁Konger	-3566
▁altern	-3567
▁featur	-3568
▁republ	-3569
demokrat	-3570
▁Strauss	-3571
▁startet	-3572
▁versjon	-3573
▁written	-3574
▁brittisk	-3575
▁Australia	-3576
▁Trondheim	-3577
▁italiensk	-3578
TA	-3579
gs	-3580
ht	-3581
sø	-3582
yt	-3583
▁ˈ	-3584
kka	-3585
las	-3586
mor	-3587
uel	-3588
öll	-3589
▁Ba	-3590
▁Di	-3591
▁mo	-3592
adem	-3593
ards	-3594
aten	-3595
atra	-3596
ksom	-3597
rive	-3598
uten	-3599
▁Bay	-3600
▁Lud	-3601
▁Off	-3602
▁Red	-3603
▁tem	-3604
ander	-3605
ently	-3606
grund	-3607
holdt	-3608
ummer	-3609
▁1905	-3610
▁Cent	-3611
▁Just	-3612
▁Sing	-3613
▁Stav	-3614
▁cast	-3615
▁game	-3616
▁kval	-3617
▁laga	-3618
enskap	-3619
iserte	-3620
▁Holly	-3621
▁Robin	-3622
▁Sofia	-3623
▁eldre	-3624
▁honom	-3625
▁måtte	-3626
▁olymp	-3627
alderen	-3628
▁Bernad	-3629
▁gained	-3630
▁søster	-3631
▁moderne	-3632
▁through	-3633
▁Valdemar	-3634
▁säsongen	-3635
▁character	-3636
▁daværende	-3637
▁millionar	-3638
▁befolkning	-3639
▁quarterback	-3640
▁verdenscupen	-3641
apt	-3642
asy	-3643
bre	-3644
ico	-3645
mål	-3646
änn	-3647
▁Kö	-3648
▁sa	-3649
atar	-3650
inna	-3651
irka	-3652
olin	-3653
träd	-3654
uler	-3655
ween	-3656
ådde	-3657
▁Bra	-3658
▁Bry	-3659
▁Max	-3660
▁När	-3661
▁Pol	-3662
▁Ter	-3663
▁lyd	-3664
aktør	-3665
allen	-3666
anser	-3667
▁1910	-3668
▁1929	-3669
▁1933	-3670
▁Ball	-3671
▁Byen	-3672
▁Girl	-3673
▁Merc	-3674
▁gjer	-3675
▁only	-3676
▁rank	-3677
▁skot	-3678
serien	-3679
▁Olymp	-3680
▁anden	-3681
▁byrja	-3682
▁nokre	-3683
▁spela	-3684
▁spilt	-3685
irigent	-3686
▁Astrid	-3687
▁Hansen	-3688
▁Italia	-3689
▁døydde	-3690
▁gammal	-3691
▁giftet	-3692
▁kontin	-3693
▁miljon	-3694
▁område	-3695
▁Nilsson	-3696
▁general	-3697
▁samband	-3698
▁begynder	-3699
▁deretter	-3700
▁familjen	-3701
▁historie	-3702
▁Jørgensen	-3703
▁announced	-3704
▁fortsatte	-3705
▁internation	-3706
▁kronprinsesse	-3707
DC	-3708
uf	-3709
xt	-3710
fly	-3711
omp	-3712
orm	-3713
rip	-3714
▁90	-3715
▁ac	-3716
▁bu	-3717
anna	-3718
erad	-3719
hund	-3720
kter	-3721
lers	-3722
ople	-3723
oret	-3724
ower	-3725
satt	-3726
sett	-3727
unds	-3728
▁183	-3729
▁Ros	-3730
▁Vik	-3731
▁fer	-3732
▁gud	-3733
▁1920	-3734
▁1951	-3735
▁Emmy	-3736
▁Pict	-3737
▁Sles	-3738
▁chef	-3739
▁förs	-3740
▁main	-3741
▁tekn	-3742
▁this	-3743
▁åren	-3744
iation	-3745
iverse	-3746
▁Radio	-3747
▁Sedan	-3748
▁final	-3749
▁langu	-3750
▁meget	-3751
▁nytta	-3752
▁until	-3753
▁virke	-3754
▁young	-3755
asjoner	-3756
ography	-3757
▁Little	-3758
▁dannet	-3759
▁enligt	-3760
▁foreld	-3761
▁resten	-3762
▁særleg	-3763
▁Premier	-3764
▁Slesvig	-3765
▁billion	-3766
▁finalen	-3767
▁musical	-3768
▁Grønland	-3769
▁fjernsyn	-3770
▁individu	-3771
▁vokalist	-3772
▁Andersson	-3773
add	-3774
air	-3775
anz	-3776
fød	-3777
göt	-3778
næv	-3779
omm	-3780
orf	-3781
stå	-3782
ube	-3783
▁33	-3784
▁EM	-3785
▁IX	-3786
▁NM	-3787
▁ob	-3788
ages	-3789
alth	-3790
amma	-3791
edag	-3792
edes	-3793
ined	-3794
kast	-3795
ones	-3796
smål	-3797
thur	-3798
vert	-3799
ören	-3800
▁Arn	-3801
▁Cob	-3802
▁Cra	-3803
▁Fal	-3804
▁Fre	-3805
▁God	-3806
▁Got	-3807
▁Maj	-3808
▁Rog	-3809
▁XVI	-3810
▁dok	-3811
▁enk	-3812
▁fag	-3813
▁hol	-3814
▁hög	-3815
▁sik	-3816
▁åra	-3817
änder	-3818
▁1935	-3819
▁Amal	-3820
▁Busk	-3821
▁Jord	-3822
▁Kung	-3823
▁Rand	-3824
▁Salt	-3825
▁Ukra	-3826
▁anim	-3827
▁inde	-3828
▁infl	-3829
▁init	-3830
▁jazz	-3831
▁luft	-3832
▁mult	-3833
▁språ	-3834
▁Henry	-3835
▁Scott	-3836
▁being	-3837
▁coach	-3838
▁førte	-3839
▁krist	-3840
▁lande	-3841
▁skole	-3842
asjonen	-3843
▁Arthur	-3844
▁Holmen	-3845
▁Namnet	-3846
▁Turner	-3847
▁calend	-3848
▁screen	-3849
▁between	-3850
▁opprinn	-3851
▁starred	-3852
forfatter	-3853
▁arbeidet	-3854
▁innbyggj	-3855
▁låtskriv	-3856
▁komponist	-3857
▁medvirket	-3858
▁studerade	-3859
▁Bernadotte	-3860
▁songwriter	-3861
bu	-3862
kr	-3863
æk	-3864
ato	-3865
die	-3866
rif	-3867
rom	-3868
ual	-3869
ønt	-3870
▁qu	-3871
blem	-3872
bruk	-3873
fors	-3874
ktet	-3875
ktor	-3876
laim	-3877
øder	-3878
▁Cap	-3879
▁Old	-3880
▁ald	-3881
▁day	-3882
▁fru	-3883
▁här	-3884
▁kej	-3885
▁ste	-3886
▁veg	-3887
▁war	-3888
other	-3889
▁Bond	-3890
▁Mell	-3891
▁bare	-3892
▁hånd	-3893
▁pris	-3894
▁tolv	-3895
▁vind	-3896
ighest	-3897
▁Marit	-3898
▁Moder	-3899
▁Stein	-3900
▁found	-3901
▁huset	-3902
▁konst	-3903
▁wrest	-3904
▁Afrika	-3905
▁basert	-3906
▁junior	-3907
▁litter	-3908
▁player	-3909
▁priser	-3910
▁privat	-3911
▁stadig	-3912
▁periode	-3913
▁playing	-3914
▁spillet	-3915
▁engelska	-3916
▁nordvest	-3917
▁thriller	-3918
▁uddannet	-3919
▁professor	-3920
▁skodespelar	-3921
▁programleder	-3922
FA	-3923
ät	-3924
ail	-3925
ani	-3926
bar	-3927
cle	-3928
iff	-3929
ior	-3930
skt	-3931
uch	-3932
via	-3933
änt	-3934
øbt	-3935
▁Gj	-3936
▁Kv	-3937
▁NA	-3938
▁ga	-3939
emat	-3940
itch	-3941
ized	-3942
nade	-3943
rian	-3944
sats	-3945
sätt	-3946
test	-3947
øpet	-3948
▁Høj	-3949
▁Kan	-3950
▁Lab	-3951
▁PDC	-3952
▁Pre	-3953
▁Rev	-3954
▁nov	-3955
▁sem	-3956
▁skj	-3957
▁try	-3958
alled	-3959
utive	-3960
▁1937	-3961
▁Port	-3962
▁Rose	-3963
▁VIII	-3964
▁Wind	-3965
▁blod	-3966
▁fest	-3967
▁följ	-3968
▁noen	-3969
▁sjuk	-3970
abetet	-3971
elling	-3972
▁Simon	-3973
▁State	-3974
▁enter	-3975
aggrund	-3976
▁Harris	-3977
▁Napole	-3978
▁Street	-3979
▁bedste	-3980
▁bestem	-3981
▁främst	-3982
▁fylket	-3983
▁mycket	-3984
▁public	-3985
▁succes	-3986
▁kvinner	-3987
▁premier	-3988
▁Buskerud	-3989
▁regisser	-3990
▁starring	-3991
▁Hollywood	-3992
▁guitarist	-3993
▁offentlig	-3994
▁represent	-3995
▁författare	-3996
kv	-3997
yg	-3998
öp	-3999
öv	-4000
iki	-4001
nar	-4002
tak	-4003
▁00	-4004
alan	-4005
anny	-4006
eden	-4007
fred	-4008
hamn	-4009
ndel	-4010
ogen	-4011
quel	-4012
rote	-4013
▁Bur	-4014
▁Est	-4015
▁Rik	-4016
▁Tex	-4017
▁Vil	-4018
▁alf	-4019
▁ing	-4020
gtesk	-4021
idler	-4022
ience	-4023
ional	-4024
ledes	-4025
ockey	-4026
▁1938	-4027
▁Kina	-4028
▁Kore	-4029
▁Post	-4030
▁Star	-4031
▁This	-4032
▁kalt	-4033
▁prev	-4034
▁prof	-4035
▁took	-4036
▁vill	-4037
▁åtte	-4038
følgen	-4039
heimer	-4040
istisk	-4041
opphøg	-4042
skolen	-4043
▁Benny	-4044
▁Erich	-4045
▁Håkon	-4046
▁Köpen	-4047
▁Princ	-4048
▁Søren	-4049
▁bokst	-4050
▁cirka	-4051
▁innen	-4052
▁lever	-4053
▁månad	-4054
▁romer	-4055
▁sæson	-4056
værende	-4057
▁Jensen	-4058
▁acting	-4059
▁gjerne	-4060
▁gånger	-4061
▁kongen	-4062
▁prisen	-4063
▁result	-4064
▁songen	-4065
▁avsnitt	-4066
▁konstit	-4067
▁organis	-4068
▁slutten	-4069
▁calendar	-4070
▁menneske	-4071
▁medlemmer	-4072
▁nominations	-4073
XX	-4074
co	-4075
to	-4076
ya	-4077
øv	-4078
zon	-4079
öst	-4080
▁IS	-4081
▁UK	-4082
ante	-4083
brud	-4084
emon	-4085
olls	-4086
pool	-4087
rale	-4088
sons	-4089
unst	-4090
▁Are	-4091
▁Ass	-4092
▁Bol	-4093
▁Gun	-4094
▁Lee	-4095
▁Out	-4096
▁Ren	-4097
▁Sid	-4098
▁can	-4099
▁col	-4100
▁jur	-4101
▁lav	-4102
▁rig	-4103
▁ått	-4104
brott	-4105
delig	-4106
endte	-4107
ismen	-4108
ities	-4109
opher	-4110
orgen	-4111
råder	-4112
▁Dies	-4113
▁Hard	-4114
▁Time	-4115
▁club	-4116
▁enda	-4117
▁head	-4118
▁last	-4119
▁long	-4120
▁sänd	-4121
▁vara	-4122
enborg	-4123
▁Actor	-4124
▁Chris	-4125
▁Darts	-4126
▁Egypt	-4127
▁White	-4128
▁death	-4129
▁defin	-4130
▁denna	-4131
▁femte	-4132
▁heile	-4133
▁lands	-4134
▁mykje	-4135
▁still	-4136
estival	-4137
▁Canada	-4138
▁Fødsel	-4139
▁Spring	-4140
▁fjerde	-4141
▁serier	-4142
▁served	-4143
▁vilken	-4144
ellemann	-4145
▁Kingdom	-4146
▁Mercury	-4147
▁company	-4148
▁handels	-4149
▁highest	-4150
▁kategor	-4151
▁leading	-4152
▁various	-4153
▁Kommunen	-4154
▁allerede	-4155
▁director	-4156
▁startede	-4157
▁performan	-4158
▁samarbeid	-4159
▁Spellemann	-4160
▁administrat	-4161
▁sangskriver	-4162
70	-4163
hj	-4164
ky	-4165
ty	-4166
ela	-4167
rio	-4168
skl	-4169
tet	-4170
øst	-4171
▁EP	-4172
▁Pu	-4173
▁Tw	-4174
▁ow	-4175
▁sö	-4176
amme	-4177
arte	-4178
atch	-4179
cast	-4180
cert	-4181
nast	-4182
▁Bor	-4183
▁Rig	-4184
▁dec	-4185
annen	-4186
arned	-4187
ature	-4188
field	-4189
heter	-4190
iffer	-4191
ommer	-4192
onger	-4193
stend	-4194
vækst	-4195
yttet	-4196
▁1912	-4197
▁1949	-4198
▁Patr	-4199
▁Soph	-4200
▁Till	-4201
▁educ	-4202
▁hjel	-4203
▁them	-4204
bladet	-4205
ically	-4206
område	-4207
▁Musik	-4208
▁Polit	-4209
▁Texas	-4210
▁achie	-4211
▁antal	-4212
▁domin	-4213
▁folke	-4214
▁ident	-4215
▁influ	-4216
▁sprin	-4217
unionen	-4218
▁danska	-4219
▁föräld	-4220
▁offent	-4221
▁publik	-4222
▁spelte	-4223
▁Johnson	-4224
▁artikel	-4225
▁franske	-4226
▁likevel	-4227
▁Nordland	-4228
▁appeared	-4229
▁direktør	-4230
▁industri	-4231
▁klassisk	-4232
▁premiere	-4233
▁samtidig	-4234
▁studerte	-4235
▁världens	-4236
▁Bilopphøg	-4237
▁Elisabeth	-4238
▁politiske	-4239
▁gregorianske	-4240
60	-4241
hy	-4242
li	-4243
ös	-4244
eds	-4245
giv	-4246
ivt	-4247
ivå	-4248
kan	-4249
urr	-4250
wig	-4251
øse	-4252
▁Fe	-4253
▁Ty	-4254
▁Up	-4255
▁ak	-4256
▁ni	-4257
▁we	-4258
asin	-4259
ball	-4260
ders	-4261
ench	-4262
ject	-4263
rine	-4264
▁Bre	-4265
▁Kor	-4266
▁Rod	-4267
▁Tay	-4268
▁Tun	-4269
▁amb	-4270
▁amt	-4271
▁loc	-4272
elege	-4273
ights	-4274
ksess	-4275
medal	-4276
ovjet	-4277
teret	-4278
▁1901	-4279
▁1918	-4280
▁Schw	-4281
▁live	-4282
skapen	-4283
▁House	-4284
▁Liver	-4285
▁Oppen	-4286
▁arver	-4287
▁grand	-4288
▁greve	-4289
▁stage	-4290
▁svært	-4291
istiske	-4292
▁Arbeid	-4293
▁Prince	-4294
▁Social	-4295
▁Sveits	-4296
▁bliver	-4297
▁commer	-4298
▁forbin	-4299
▁sesong	-4300
▁sidste	-4301
▁Uppväxt	-4302
▁Venstre	-4303
▁flyttet	-4304
▁geograf	-4305
▁problem	-4306
▁sångare	-4307
▁världen	-4308
▁framgång	-4309
▁karakter	-4310
▁miljoner	-4311
▁Margareta	-4312
▁underhold	-4313
▁folketings	-4314
▁Oppenheimer	-4315
▁alternative	-4316
20	-4317
öj	-4318
act	-4319
che	-4320
ges	-4321
hov	-4322
iat	-4323
nie	-4324
okk	-4325
åne	-4326
ætt	-4327
▁35	-4328
▁go	-4329
anda	-4330
chef	-4331
inne	-4332
kont	-4333
länd	-4334
onym	-4335
ropp	-4336
sfor	-4337
stod	-4338
talt	-4339
ving	-4340
▁Bob	-4341
▁Nør	-4342
▁Sib	-4343
▁add	-4344
▁bør	-4345
▁fær	-4346
▁sur	-4347
▁syv	-4348
▁ton	-4349
ennar	-4350
ifter	-4351
leiar	-4352
▁1926	-4353
▁1942	-4354
▁Hels	-4355
▁Sach	-4356
▁Thor	-4357
▁bliv	-4358
▁dram	-4359
▁døbt	-4360
▁elev	-4361
▁epis	-4362
▁forl	-4363
▁gjen	-4364
▁hela	-4365
▁kyst	-4366
▁rapp	-4367
▁real	-4368
▁riks	-4369
▁webs	-4370
igaste	-4371
instru	-4372
irchen	-4373
olades	-4374
▁Bened	-4375
▁Kjell	-4376
▁Peder	-4377
▁Polen	-4378
▁class	-4379
▁inled	-4380
▁plats	-4381
▁posit	-4382
▁refer	-4383
▁revol	-4384
▁slekt	-4385
▁Dramat	-4386
▁During	-4387
▁Ludvig	-4388
▁ganger	-4389
▁instit	-4390
▁krigen	-4391
▁promin	-4392
▁radiop	-4393
▁regent	-4394
▁romant	-4395
▁signed	-4396
▁songar	-4397
▁starta	-4398
▁Japanese	-4399
▁arbetade	-4400
▁efterføl	-4401
▁accolades	-4402
▁kongelige	-4403
▁mennesker	-4404
▁europeiske	-4405
▁betydninger	-4406
po	-4407
på	-4408
hör	-4409
ody	-4410
spl	-4411
uka	-4412
vär	-4413
▁fj	-4414
▁øn	-4415
AFTA	-4416
aint	-4417
atre	-4418
eleb	-4419
iews	-4420
ists	-4421
ivis	-4422
kort	-4423
orer	-4424
shol	-4425
sida	-4426
▁300	-4427
▁Ala	-4428
▁Kro	-4429
▁Nob	-4430
▁Ott	-4431
▁Sec	-4432
▁Sug	-4433
▁Tro	-4434
▁Vol	-4435
▁jød	-4436
▁noe	-4437
▁occ	-4438
▁pri	-4439
▁ska	-4440
▁teg	-4441
atrix	-4442
bjørn	-4443
forsk	-4444
ikker	-4445
rolle	-4446
serie	-4447
slutt	-4448
ually	-4449
åring	-4450
▁1924	-4451
▁Anth	-4452
▁Bert	-4453
▁Over	-4454
▁Poul	-4455
▁Wahl	-4456
▁driv	-4457
▁godt	-4458
▁grav	-4459
▁renn	-4460
▁sold	-4461
skabet	-4462
▁BAFTA	-4463
▁Folke	-4464
▁Great	-4465
▁Smith	-4466
▁bodde	-4467
▁först	-4468
▁følge	-4469
▁kontr	-4470
▁ledde	-4471
▁løpet	-4472
▁match	-4473
▁month	-4474
▁riket	-4475
▁super	-4476
▁uttry	-4477
götland	-4478
▁Brasil	-4479
▁French	-4480
▁Gruppe	-4481
▁Instit	-4482
▁Nation	-4483
▁Privat	-4484
▁Sønder	-4485
▁Taylor	-4486
▁bestod	-4487
▁betegn	-4488
▁felles	-4489
▁gymnas	-4490
▁länder	-4491
▁modern	-4492
▁raised	-4493
▁vidare	-4494
arrieren	-4495
kalender	-4496
årsdagen	-4497
▁Nielsen	-4498
▁Partenk	-4499
▁exempel	-4500
▁filmene	-4501
▁service	-4502
▁tilbake	-4503
▁Napoleon	-4504
▁Pictures	-4505
▁business	-4506
▁flyttede	-4507
▁language	-4508
▁orkester	-4509
▁Köpenhamn	-4510
▁Liverpool	-4511
▁litteratur	-4512
▁regeringstid	-4513
ps	-4514
aks	-4515
amn	-4516
ita	-4517
kar	-4518
mig	-4519
pet	-4520
ric	-4521
sun	-4522
ula	-4523
una	-4524
▁FI	-4525
▁Rh	-4526
▁Ve	-4527
byen	-4528
cing	-4529
ikte	-4530
issa	-4531
kret	-4532
oden	-4533
ould	-4534
pend	-4535
ught	-4536
valg	-4537
vend	-4538
▁Haw	-4539
▁Mol	-4540
▁Ram	-4541
▁Tit	-4542
▁Way	-4543
▁Win	-4544
▁vir	-4545
ivate	-4546
still	-4547
▁1919	-4548
▁Frid	-4549
▁Lyng	-4550
▁Oden	-4551
▁fann	-4552
▁flag	-4553
▁fotb	-4554
▁lite	-4555
▁tatt	-4556
▁tran	-4557
▁utgj	-4558
▁vald	-4559
▁vedt	-4560
banden	-4561
ctions	-4562
emplar	-4563
gangen	-4564
▁Lasse	-4565
▁Mange	-4566
▁Stort	-4567
▁annan	-4568
▁award	-4569
▁deler	-4570
▁gange	-4571
▁heilt	-4572
▁kolon	-4573
▁langs	-4574
▁medal	-4575
▁områd	-4576
▁regel	-4577
▁skift	-4578
▁trans	-4579
▁tyska	-4580
▁udnæv	-4581
▁Atlant	-4582
▁bidrag	-4583
▁deltag	-4584
▁funger	-4585
▁gruppe	-4586
▁hennar	-4587
▁inform	-4588
▁kysten	-4589
▁midten	-4590
▁omfatt	-4591
▁recogn	-4592
▁regnes	-4593
▁territ	-4594
▁tittel	-4595
▁videre	-4596
▁vunnet	-4597
▁Beatrix	-4598
▁Holsten	-4599
▁grupper	-4600
▁klassen	-4601
▁mangler	-4602
▁militær	-4603
▁portray	-4604
▁således	-4605
▁numerous	-4606
▁previous	-4607
▁forbindelse	-4608
▁Bilopphøggers	-4609
▁International	-4610
▁Partenkirchen	-4611
ré	-4612
aka	-4613
bin	-4614
edd	-4615
esl	-4616
fyl	-4617
gor	-4618
mit	-4619
▁AB	-4620
▁Mr	-4621
▁ba	-4622
▁äg	-4623
drag	-4624
edal	-4625
hern	-4626
menn	-4627
ogle	-4628
rede	-4629
vand	-4630
øper	-4631
▁Ari	-4632
▁Big	-4633
▁Dre	-4634
▁How	-4635
▁Lor	-4636
▁dre	-4637
▁ext	-4638
▁ill	-4639
▁mån	-4640
▁såk	-4641
asons	-4642
bland	-4643
etten	-4644
ident	-4645
ining	-4646
itets	-4647
otten	-4648
punkt	-4649
▁1700	-4650
▁1921	-4651
▁1922	-4652
▁Birg	-4653
▁Från	-4654
▁Gran	-4655
▁Guld	-4656
▁Gull	-4657
▁Jean	-4658
▁Mikk	-4659
▁Prix	-4660
▁Ragn	-4661
▁bort	-4662
▁brød	-4663
▁bygd	-4664
▁dikt	-4665
▁eitt	-4666
▁gitt	-4667
▁list	-4668
▁sket	-4669
▁Roman	-4670
▁Skott	-4671
▁Steen	-4672
▁bøker	-4673
▁eight	-4674
▁inden	-4675
▁kirke	-4676
▁ledet	-4677
▁liten	-4678
▁plate	-4679
▁släpp	-4680
▁udgav	-4681
▁Parker	-4682
▁Wilson	-4683
▁avslut	-4684
▁bronse	-4685
▁compet	-4686
▁dommer	-4687
▁earned	-4688
▁forskj	-4689
▁gången	-4690
▁slutet	-4691
▁talent	-4692
▁vokste	-4693
▁worked	-4694
▁Freddie	-4695
▁Gruppen	-4696
▁Helsing	-4697
▁Sachsen	-4698
▁Studios	-4699
▁against	-4700
▁brother	-4701
▁commerc	-4702
▁russisk	-4703
▁sentrum	-4704
ospitalet	-4705
▁Bakgrund	-4706
▁Finnmark	-4707
▁dirigent	-4708
▁followed	-4709
▁nominert	-4710
▁personal	-4711
▁radiopro	-4712
▁tronfölj	-4713
▁Charlotte	-4714
▁medverkat	-4715
▁regjering	-4716
▁gennembrud	-4717
▁huvudrollen	-4718
▁international	-4719
bø	-4720
ök	-4721
▁Ä	-4722
aff	-4723
esh	-4724
ily	-4725
jef	-4726
que	-4727
▁58	-4728
▁IV	-4729
▁Og	-4730
▁Ox	-4731
▁fi	-4732
▁hö	-4733
alet	-4734
edom	-4735
hild	-4736
ison	-4737
skar	-4738
unch	-4739
weiz	-4740
äder	-4741
øver	-4742
▁Ama	-4743
▁Bul	-4744
▁Cas	-4745
▁Dee	-4746
▁Fil	-4747
▁Ker	-4748
▁Lov	-4749
▁McC	-4750
▁Mov	-4751
▁Pal	-4752
▁Sir	-4753
▁Sus	-4754
▁Wat	-4755
▁bry	-4756
▁bud	-4757
▁due	-4758
▁mød	-4759
▁råd	-4760
aften	-4761
eskap	-4762
fjord	-4763
iment	-4764
rebro	-4765
thers	-4766
▁1906	-4767
▁Back	-4768
▁Emma	-4769
▁Garm	-4770
▁Hill	-4771
▁Maud	-4772
▁Mess	-4773
▁Olof	-4774
▁Oper	-4775
▁Tenn	-4776
▁Tony	-4777
▁Wall	-4778
▁alla	-4779
▁fars	-4780
▁hvis	-4781
▁rang	-4782
▁regi	-4783
▁sign	-4784
▁some	-4785
▁tilt	-4786
▁vers	-4787
▁vist	-4788
bakken	-4789
lingar	-4790
ringer	-4791
scupen	-4792
▁Björn	-4793
▁Camil	-4794
▁Skars	-4795
▁gresk	-4796
▁lange	-4797
▁liste	-4798
▁låten	-4799
▁minst	-4800
▁några	-4801
▁prest	-4802
▁storm	-4803
▁tillb	-4804
▁åring	-4805
gteskab	-4806
igheter	-4807
▁Amazon	-4808
▁Hertug	-4809
▁Norske	-4810
▁Sammen	-4811
▁ansatt	-4812
▁foræld	-4813
▁grevin	-4814
▁kjente	-4815
▁klasse	-4816
▁middel	-4817
▁religi	-4818
▁Drammen	-4819
▁Wilhelm	-4820
▁klubben	-4821
▁monarki	-4822
▁populær	-4823
▁spanske	-4824
▁verksam	-4825
▁website	-4826
▁Baggrund	-4827
▁Holstein	-4828
▁monarken	-4829
▁Skarsgård	-4830
▁alfabetet	-4831
▁offisielt	-4832
▁skandinav	-4833
shospitalet	-4834
▁langrennsl	-4835
▁Olsenbanden	-4836
BA	-4837
CA	-4838
ræ	-4839
atn	-4840
erg	-4841
eth	-4842
ips	-4843
när	-4844
umb	-4845
ves	-4846
äns	-4847
▁38	-4848
▁Ei	-4849
▁Ky	-4850
▁Mü	-4851
▁Ze	-4852
▁dö	-4853
▁lä	-4854
bout	-4855
eleg	-4856
eman	-4857
eres	-4858
gest	-4859
iell	-4860
inge	-4861
lath	-4862
orna	-4863
osof	-4864
resp	-4865
ærer	-4866
▁Air	-4867
▁Mot	-4868
▁Sig	-4869
▁Tim	-4870
▁Tra	-4871
▁Trø	-4872
▁ger	-4873
▁mov	-4874
▁mul	-4875
▁sat	-4876
▁slo	-4877
▁stø	-4878
▁typ	-4879
ances	-4880
ativt	-4881
grens	-4882
heten	-4883
maren	-4884
ology	-4885
overn	-4886
sport	-4887
øyane	-4888
▁1928	-4889
▁Dahl	-4890
▁Disk	-4891
▁Fame	-4892
▁Flor	-4893
▁Gunn	-4894
▁Holm	-4895
▁Lady	-4896
▁Show	-4897
▁Stol	-4898
▁Väst	-4899
▁disk	-4900
▁hitt	-4901
▁høyr	-4902
▁jule	-4903
▁lagt	-4904
▁mill	-4905
▁plat	-4906
▁samm	-4907
▁sida	-4908
▁årig	-4909
bandet	-4910
estern	-4911
gruppe	-4912
hammer	-4913
irkede	-4914
ndelag	-4915
person	-4916
stater	-4917
▁Abies	-4918
▁André	-4919
▁Einar	-4920
▁Green	-4921
▁Hoved	-4922
▁Jones	-4923
▁Niels	-4924
▁disse	-4925
▁flert	-4926
▁intro	-4927
▁lokal	-4928
▁ordet	-4929
▁reach	-4930
▁seven	-4931
▁slægt	-4932
▁tilkn	-4933
ataljon	-4934
partiet	-4935
program	-4936
spelare	-4937
▁Diesen	-4938
▁Ronald	-4939
▁Sophie	-4940
▁farfar	-4941
▁mester	-4942
▁return	-4943
▁sequel	-4944
▁skrive	-4945
▁staten	-4946
▁truleg	-4947
▁central	-4948
▁direkte	-4949
▁include	-4950
▁members	-4951
▁partiet	-4952
▁samfunn	-4953
▁slottet	-4954
▁suksess	-4955
▁Garmisch	-4956
▁attended	-4957
▁critical	-4958
▁derefter	-4959
▁dokument	-4960
▁greatest	-4961
▁kommuner	-4962
▁regissör	-4963
▁Benedikte	-4964
▁Josephine	-4965
▁Trøndelag	-4966
▁Sommerlath	-4967
▁nomination	-4968
▁produksjon	-4969
▁successful	-4970
▁Frederiksen	-4971
40	-4972
HL	-4973
amb	-4974
ben	-4975
går	-4976
iør	-4977
kes	-4978
ots	-4979
ran	-4980
rek	-4981
rup	-4982
vor	-4983
zen	-4984
ång	-4985
▁Nr	-4986
▁Ud	-4987
▁ry	-4988
▁tw	-4989
abab	-4990
akob	-4991
asak	-4992
enta	-4993
ever	-4994
ible	-4995
ifor	-4996
ippe	-4997
krig	-4998
ndom	-4999
oice	-5000
orks	-5001
ript	-5002
skog	-5003
stud	-5004
årst	-5005
▁178	-5006
▁179	-5007
▁400	-5008
▁Bab	-5009
▁End	-5010
▁Imp	-5011
▁Let	-5012
▁Luc	-5013
▁Mem	-5014
▁Num	-5015
▁ast	-5016
▁aut	-5017
▁høj	-5018
▁lin	-5019
▁mix	-5020
anche	-5021
arten	-5022
ninga	-5023
ribut	-5024
strøm	-5025
øster	-5026
▁1941	-5027
▁Alan	-5028
▁East	-5029
▁Viet	-5030
▁With	-5031
▁føds	-5032
▁gren	-5033
▁grøn	-5034
▁make	-5035
▁rose	-5036
▁turn	-5037
▁uten	-5038
▁valg	-5039
arbeid	-5040
lanter	-5041
partem	-5042
sterne	-5043
ylland	-5044
▁Alice	-5045
▁Skåne	-5046
▁gradu	-5047
▁katol	-5048
▁nådde	-5049
▁scene	-5050
▁spelt	-5051
▁tider	-5052
▁trone	-5053
▁tyder	-5054
▁video	-5055
▁wrote	-5056
kteskap	-5057
skrigen	-5058
▁Donald	-5059
▁German	-5060
▁Google	-5061
▁Hellas	-5062
▁Navnet	-5063
▁Ungarn	-5064
▁Walter	-5065
▁Wiener	-5066
▁ansvar	-5067
▁artikk	-5068
▁called	-5069
▁enkelt	-5070
▁events	-5071
▁franch	-5072
▁kilder	-5073
▁kroner	-5074
▁nation	-5075
▁samman	-5076
▁sommar	-5077
▁særlig	-5078
▁Andreas	-5079
▁Larsson	-5080
▁Nynorsk	-5081
▁Vincent	-5082
▁birolle	-5083
▁parents	-5084
▁starten	-5085
▁udgivet	-5086
▁utvikla	-5087
▁winning	-5088
▁Leonardo	-5089
▁achieved	-5090
▁etablert	-5091
▁historia	-5092
▁russiske	-5093
▁tilhørte	-5094
▁Bernstein	-5095
▁opphavleg	-5096
▁producent	-5097
▁Australien	-5098
▁Diskografi	-5099
▁Christopher	-5100
▁parlamentar	-5101
▁innbyggjarar	-5102
48	-5103
50	-5104
hn	-5105
nå	-5106
ace	-5107
fir	-5108
ipe	-5109
ova	-5110
rey	-5111
syn	-5112
træ	-5113
vir	-5114
vit	-5115
xem	-5116
▁43	-5117
▁Ap	-5118
▁Ep	-5119
▁Su	-5120
▁Tj	-5121
▁bö	-5122
▁cm	-5123
▁pa	-5124
▁vå	-5125
alls	-5126
anne	-5127
atab	-5128
emus	-5129
etts	-5130
have	-5131
ikke	-5132
insk	-5133
kene	-5134
mont	-5135
wall	-5136
▁Des	-5137
▁Jag	-5138
▁Jim	-5139
▁Kal	-5140
▁Kap	-5141
▁Kir	-5142
▁Tru	-5143
▁Wag	-5144
▁bol	-5145
▁fod	-5146
▁klo	-5147
▁låg	-5148
▁mel	-5149
▁pap	-5150
▁sos	-5151
achel	-5152
andre	-5153
bergs	-5154
esten	-5155
inden	-5156
oming	-5157
revet	-5158
sjekk	-5159
skamp	-5160
slags	-5161
utter	-5162
▁1000	-5163
▁1927	-5164
▁Barn	-5165
▁Fram	-5166
▁Inge	-5167
▁Lang	-5168
▁adel	-5169
▁area	-5170
▁besl	-5171
▁curr	-5172
▁dobb	-5173
▁ekst	-5174
▁elva	-5175
▁fict	-5176
▁hvem	-5177
▁intr	-5178
▁many	-5179
▁mott	-5180
▁porn	-5181
▁rekl	-5182
▁satt	-5183
▁teen	-5184
ensson	-5185
filmer	-5186
holder	-5187
medlem	-5188
navnet	-5189
spelar	-5190
▁Brian	-5191
▁Broad	-5192
▁Class	-5193
▁Donau	-5194
▁Henri	-5195
▁Konge	-5196
▁Refer	-5197
▁Söder	-5198
▁alder	-5199
▁among	-5200
▁bakgr	-5201
▁deras	-5202
▁enkel	-5203
▁etapp	-5204
▁front	-5205
▁inför	-5206
▁langt	-5207
▁model	-5208
▁place	-5209
▁sendt	-5210
▁skilt	-5211
▁touch	-5212
▁verds	-5213
▁vokal	-5214
▁ytter	-5215
ologisk	-5216
steater	-5217
▁Hessen	-5218
▁Schles	-5219
▁arbejd	-5220
▁brukte	-5221
▁flytta	-5222
▁krimin	-5223
▁provin	-5224
▁status	-5225
▁större	-5226
atherine	-5227
idlertid	-5228
sprogram	-5229
▁Country	-5230
▁Italien	-5231
▁Statens	-5232
▁bassist	-5233
▁einaste	-5234
▁fantasy	-5235
▁formand	-5236
▁manager	-5237
▁måneder	-5238
▁voksede	-5239
visninger	-5240
▁Pedersen	-5241
▁albummet	-5242
▁demokrat	-5243
▁egentlig	-5244
▁musician	-5245
▁nasjonal	-5246
▁standard	-5247
▁tittelen	-5248
författare	-5249
programmet	-5250
▁Skottland	-5251
▁brittiska	-5252
▁countries	-5253
▁forfattar	-5254
▁medlemmar	-5255
▁premiered	-5256
▁Glücksburg	-5257
▁Prinsessan	-5258
▁Stortinget	-5259
▁imidlertid	-5260
▁tronfølger	-5261
▁Lillehammer	-5262
▁hovedrollen	-5263
▁verdensmester	-5264
▁administrasjon	-5265
bt	-5266
go	-5267
ye	-5268
ås	-5269
ago	-5270
bas	-5271
fri	-5272
köp	-5273
lad	-5274
oma	-5275
sec	-5276
ønn	-5277
▁46	-5278
▁Ah	-5279
▁EU	-5280
▁Kh	-5281
▁Ta	-5282
abel	-5283
arch	-5284
barn	-5285
book	-5286
hard	-5287
igen	-5288
ippi	-5289
kant	-5290
lede	-5291
send	-5292
sket	-5293
ssel	-5294
sågs	-5295
ular	-5296
ände	-5297
▁Afr	-5298
▁Eve	-5299
▁Joe	-5300
▁Met	-5301
▁Nav	-5302
▁Nye	-5303
▁Vir	-5304
▁Vär	-5305
▁dra	-5306
▁hør	-5307
▁pal	-5308
▁tak	-5309
alekt	-5310
andet	-5311
elses	-5312
encer	-5313
esper	-5314
ikere	-5315
iskop	-5316
parti	-5317
stedt	-5318
ständ	-5319
varte	-5320
ånare	-5321
▁Adam	-5322
▁Arab	-5323
▁Brig	-5324
▁Euro	-5325
▁Fant	-5326
▁Halv	-5327
▁Lenn	-5328
▁Midt	-5329
▁Tina	-5330
▁aner	-5331
▁borg	-5332
▁bred	-5333
▁drum	-5334
▁just	-5335
▁skiv	-5336
▁test	-5337
▁tolk	-5338
▁Året	-5339
ababes	-5340
ansson	-5341
ending	-5342
inburg	-5343
namnet	-5344
▁Dansk	-5345
▁Jakob	-5346
▁Night	-5347
▁Prisc	-5348
▁Saint	-5349
▁Sound	-5350
▁Svend	-5351
▁Young	-5352
▁barne	-5353
▁fyrst	-5354
▁solgt	-5355
▁songs	-5356
▁total	-5357
▁yards	-5358
ivision	-5359
organis	-5360
▁Jersey	-5361
▁Johnny	-5362
▁Odense	-5363
▁Oxford	-5364
▁Sovjet	-5365
▁Watson	-5366
▁alltid	-5367
▁dagens	-5368
▁grensa	-5369
▁latter	-5370
▁people	-5371
▁sangen	-5372
▁sports	-5373
▁uppmär	-5374
▁århund	-5375
tainment	-5376
▁America	-5377
▁Amerika	-5378
▁Camilla	-5379
▁Nikolai	-5380
▁Roberts	-5381
▁Vietnam	-5382
▁Vilhelm	-5383
▁nominer	-5384
▁normalt	-5385
▁norrønt	-5386
▁opprett	-5387
▁respekt	-5388
▁reviews	-5389
▁studier	-5390
▁sørvest	-5391
▁Østfold	-5392
sminister	-5393
▁eksempel	-5394
▁konstnär	-5395
▁nordiske	-5396
▁omfatter	-5397
▁vocalist	-5398
▁Schleswig	-5399
▁Sugababes	-5400
▁alongside	-5401
▁kilometer	-5402
▁olympiske	-5403
ifestivalen	-5404
▁Programmet	-5405
▁arvefølgen	-5406
▁genombrott	-5407
▁offisielle	-5408
▁supporting	-5409
▁Amalienborg	-5410
▁Universitetet	-5411
▁ursprungligen	-5412
FC	-5413
ju	-5414
aen	-5415
ape	-5416
day	-5417
era	-5418
fte	-5419
hög	-5420
ink	-5421
løy	-5422
nem	-5423
oks	-5424
sor	-5425
äff	-5426
▁55	-5427
▁99	-5428
▁AS	-5429
▁IP	-5430
▁Il	-5431
▁ir	-5432
abri	-5433
aked	-5434
asia	-5435
aust	-5436
bama	-5437
bour	-5438
ells	-5439
igan	-5440
iget	-5441
iggo	-5442
line	-5443
onde	-5444
oten	-5445
post	-5446
takt	-5447
utin	-5448
veck	-5449
▁Beg	-5450
▁Bok	-5451
▁Dal	-5452
▁Ern	-5453
▁Gal	-5454
▁Græ	-5455
▁Hed	-5456
▁Här	-5457
▁Mac	-5458
▁Row	-5459
▁Top	-5460
▁Var	-5461
▁bur	-5462
▁erh	-5463
▁jap	-5464
▁pra	-5465
▁rum	-5466
▁und	-5467
▁ute	-5468
▁vän	-5469
arnas	-5470
attle	-5471
efter	-5472
erede	-5473
hagen	-5474
ively	-5475
skilt	-5476
strup	-5477
vende	-5478
▁Borg	-5479
▁Comm	-5480
▁Face	-5481
▁Laur	-5482
▁Lill	-5483
▁Lisa	-5484
▁Mads	-5485
▁Stan	-5486
▁YouT	-5487
▁allt	-5488
▁days	-5489
▁ever	-5490
▁finn	-5491
▁glob	-5492
▁gres	-5493
▁grev	-5494
▁kant	-5495
▁prim	-5496
▁sele	-5497
▁teik	-5498
kretær	-5499
ligere	-5500
mannen	-5501
spolit	-5502
▁Anton	-5503
▁Bodil	-5504
▁Felix	-5505
▁Kevin	-5506
▁Luxem	-5507
▁Movie	-5508
▁Ordet	-5509
▁Viggo	-5510
▁avled	-5511
▁boede	-5512
▁flest	-5513
▁hjelp	-5514
▁inneh	-5515
▁omtal	-5516
▁oprin	-5517
▁separ	-5518
▁sjakk	-5519
▁sonen	-5520
▁uttal	-5521
isering	-5522
▁Danish	-5523
▁Danske	-5524
▁Højhed	-5525
▁Manche	-5526
▁Senere	-5527
▁Silvia	-5528
▁blivit	-5529
▁familj	-5530
▁forret	-5531
▁hundre	-5532
▁kallas	-5533
▁kvinne	-5534
▁stemme	-5535
▁touchd	-5536
eskommun	-5537
▁austral	-5538
▁manliga	-5539
▁prinsen	-5540
▁private	-5541
▁seasons	-5542
▁utanför	-5543
▁Caroline	-5544
▁Historia	-5545
▁Johannes	-5546
▁Svensson	-5547
▁hovedsak	-5548
▁invånare	-5549
▁kongehus	-5550
▁tvilling	-5551
▁Rasmussen	-5552
▁franchise	-5553
▁historisk	-5554
▁Glücksborg	-5555
▁Manchester	-5556
▁Sønderborg	-5557
▁sammenlagt	-5558
▁screenplay	-5559
23	-5560
ci	-5561
fr	-5562
ko	-5563
▁Æ	-5564
ads	-5565
bes	-5566
eln	-5567
fär	-5568
nte	-5569
omo	-5570
ulf	-5571
øen	-5572
▁42	-5573
▁Az	-5574
▁Sø	-5575
aldt	-5576
cean	-5577
cher	-5578
icia	-5579
isar	-5580
jerg	-5581
komm	-5582
midt	-5583
ness	-5584
omer	-5585
otta	-5586
rade	-5587
rätt	-5588
sdal	-5589
vald	-5590
valt	-5591
ydig	-5592
▁Eva	-5593
▁Law	-5594
▁Mex	-5595
▁NHL	-5596
▁Ola	-5597
▁Sun	-5598
▁XXX	-5599
▁deg	-5600
▁emb	-5601
▁fur	-5602
▁ide	-5603
▁mis	-5604
▁nya	-5605
acher	-5606
adrat	-5607
atisk	-5608
derne	-5609
ellen	-5610
essee	-5611
feldt	-5612
fører	-5613
gaver	-5614
idder	-5615
izzie	-5616
lande	-5617
paret	-5618
raust	-5619
▁1917	-5620
▁1923	-5621
▁Chin	-5622
▁Emil	-5623
▁Ford	-5624
▁Math	-5625
▁Nils	-5626
▁They	-5627
▁cand	-5628
▁each	-5629
▁fall	-5630
▁føre	-5631
▁oppt	-5632
▁phot	-5633
▁skip	-5634
▁stru	-5635
errike	-5636
harmon	-5637
ibland	-5638
ughter	-5639
▁Assoc	-5640
▁Clark	-5641
▁Grund	-5642
▁Huset	-5643
▁Korea	-5644
▁Slott	-5645
▁Stone	-5646
▁chart	-5647
▁leiar	-5648
▁moved	-5649
▁parti	-5650
▁sista	-5651
▁slutt	-5652
▁slått	-5653
▁story	-5654
området	-5655
▁Career	-5656
▁Dizzie	-5657
▁Follow	-5658
▁Græken	-5659
▁Lynyrd	-5660
▁Marvel	-5661
▁Musikk	-5662
▁Warner	-5663
▁become	-5664
▁gonger	-5665
▁greske	-5666
▁having	-5667
▁interv	-5668
▁kammer	-5669
▁kompos	-5670
▁normal	-5671
▁oppdag	-5672
▁partic	-5673
▁placer	-5674
▁prosje	-5675
▁report	-5676
▁stedet	-5677
▁stream	-5678
▁syskon	-5679
▁varier	-5680
fattaren	-5681
▁Patrick	-5682
▁Profess	-5683
▁Skynyrd	-5684
▁Spanien	-5685
▁Windsor	-5686
▁acclaim	-5687
▁critics	-5688
▁fødsels	-5689
▁grossed	-5690
▁konsert	-5691
▁skriven	-5692
▁stemmer	-5693
▁Atlanter	-5694
▁hovudsak	-5695
▁kunstner	-5696
▁territor	-5697
▁Tennessee	-5698
▁nominated	-5699
▁performed	-5700
▁regerings	-5701
▁Austerrike	-5702
▁commercial	-5703
▁instrument	-5704
▁prominence	-5705
▁viktigaste	-5706
▁begyndelsen	-5707
▁efterfølgende	-5708
TO	-5709
bi	-5710
bel	-5711
chn	-5712
fäl	-5713
ini	-5714
nev	-5715
omi	-5716
ota	-5717
ows	-5718
row	-5719
uts	-5720
äck	-5721
åra	-5722
▁37	-5723
▁41	-5724
▁88	-5725
▁IF	-5726
▁cy	-5727
▁jr	-5728
▁læ	-5729
akth	-5730
cept	-5731
edøm	-5732
gjen	-5733
håll	-5734
iale	-5735
istr	-5736
raff	-5737
rikk	-5738
skil	-5739
slen	-5740
tein	-5741
verd	-5742
well	-5743
älla	-5744
▁165	-5745
▁Cru	-5746
▁Fyr	-5747
▁Hov	-5748
▁Hus	-5749
▁Jes	-5750
▁Lis	-5751
▁Mah	-5752
▁Mia	-5753
▁Pak	-5754
▁Pil	-5755
▁Rem	-5756
▁Res	-5757
▁Run	-5758
▁aud	-5759
▁beh	-5760
▁eff	-5761
▁ful	-5762
▁inc	-5763
▁inf	-5764
▁kjø	-5765
▁kry	-5766
▁log	-5767
▁nem	-5768
▁sim	-5769
▁stå	-5770
▁tio	-5771
cklen	-5772
eligt	-5773
esong	-5774
forma	-5775
jinga	-5776
nande	-5777
ordet	-5778
qvist	-5779
round	-5780
stall	-5781
vekst	-5782
yrkan	-5783
▁1500	-5784
▁Card	-5785
▁Chic	-5786
▁Corn	-5787
▁Egon	-5788
▁Gent	-5789
▁Gjer	-5790
▁Long	-5791
▁Penn	-5792
▁Ring	-5793
▁Rolf	-5794
▁Vamp	-5795
▁Zant	-5796
▁came	-5797
▁died	-5798
▁fred	-5799
▁kjøp	-5800
▁late	-5801
▁lyck	-5802
▁makt	-5803
▁männ	-5804
▁natt	-5805
▁næst	-5806
▁rätt	-5807
▁skol	-5808
▁skre	-5809
▁unge	-5810
▁vars	-5811
▁went	-5812
arthqu	-5813
ential	-5814
lighet	-5815
songer	-5816
teater	-5817
▁Asker	-5818
▁Black	-5819
▁Dagen	-5820
▁Gabri	-5821
▁Gotha	-5822
▁Sonja	-5823
▁Tunes	-5824
▁ansat	-5825
▁bedst	-5826
▁føder	-5827
▁kända	-5828
▁kåret	-5829
▁piano	-5830
▁shows	-5831
▁skudd	-5832
▁state	-5833
▁there	-5834
▁times	-5835
▁tourn	-5836
danning	-5837
esidens	-5838
inburgh	-5839
sterrik	-5840
▁Argent	-5841
▁Coburg	-5842
▁Factor	-5843
▁Hammar	-5844
▁Oscars	-5845
▁Player	-5846
▁astron	-5847
▁berätt	-5848
▁bosatt	-5849
▁contin	-5850
▁delvis	-5851
▁dennes	-5852
▁formed	-5853
▁fremst	-5854
▁fylker	-5855
▁følger	-5856
▁league	-5857
▁lokale	-5858
▁making	-5859
▁meddel	-5860
▁säsong	-5861
▁temper	-5862
▁Örebro	-5863
▁Schweiz	-5864
▁Ukraina	-5865
▁created	-5866
▁filosof	-5867
▁konkurr	-5868
▁kvadrat	-5869
▁nynorsk	-5870
▁skihopp	-5871
▁special	-5872
▁søraust	-5873
▁tillhör	-5874
▁ungdoms	-5875
akthrough	-5876
▁Broadway	-5877
▁Eriksson	-5878
▁Facebook	-5879
▁Festival	-5880
▁Geografi	-5881
▁militære	-5882
▁tilhører	-5883
▁ægteskab	-5884
▁Christina	-5885
▁Edinburgh	-5886
▁Following	-5887
▁Priscilla	-5888
▁Rosenborg	-5889
▁arbejdede	-5890
▁bestående	-5891
▁dåvarande	-5892
▁flertydig	-5893
▁grunnlagt	-5894
▁karrieren	-5895
▁kvinnliga	-5896
▁produsert	-5897
▁Filmografi	-5898
▁Grækenland	-5899
▁Kristoffer	-5900
▁debutalbum	-5901
▁debuterade	-5902
▁medvirkede	-5903
▁production	-5904
▁regeringen	-5905
▁tournament	-5906
▁Christoffer	-5907
▁låtskrivare	-5908
▁championship	-5909
▁Christiansborg	-5910
kh	-5911
ér	-5912
ati	-5913
bil	-5914
lys	-5915
løs	-5916
rør	-5917
ued	-5918
öra	-5919
ørk	-5920
▁85	-5921
▁Ib	-5922
▁Jr	-5923
▁Li	-5924
▁Ør	-5925
alde	-5926
burn	-5927
cken	-5928
elin	-5929
ensl	-5930
gran	-5931
hatt	-5932
idge	-5933
kamp	-5934
lach	-5935
leik	-5936
osed	-5937
ound	-5938
sala	-5939
sequ	-5940
sken	-5941
skin	-5942
svis	-5943
tert	-5944
urch	-5945
yrka	-5946
▁177	-5947
▁365	-5948
▁800	-5949
▁Fle	-5950
▁Hug	-5951
▁Høy	-5952
▁Leg	-5953
▁Møl	-5954
▁Mün	-5955
▁Naz	-5956
▁Når	-5957
▁Sjå	-5958
▁Sty	-5959
▁Tøn	-5960
▁Vas	-5961
▁bra	-5962
▁dig	-5963
▁ish	-5964
▁kär	-5965
▁mob	-5966
▁non	-5967
▁ren	-5968
▁sjå	-5969
▁sve	-5970
andid	-5971
andra	-5972
dalen	-5973
ennis	-5974
ental	-5975
estin	-5976
eteor	-5977
heder	-5978
illed	-5979
kjent	-5980
ktion	-5981
musik	-5982
neipp	-5983
riket	-5984
sjøen	-5985
ømmer	-5986
▁1908	-5987
▁1925	-5988
▁Alle	-5989
▁Arne	-5990
▁Beat	-5991
▁Cast	-5992
▁Ever	-5993
▁Ivan	-5994
▁Kass	-5995
▁Live	-5996
▁Mike	-5997
▁Nick	-5998
▁Popp	-5999
▁Vikt	-6000
▁eige	-6001
▁inng	-6002
▁mist	-6003
▁nära	-6004
▁skid	-6005
▁skog	-6006
▁slag	-6007
▁spør	-6008
▁tour	-6009
▁vise	-6010
▁Åles	-6011
former	-6012
imedia	-6013
ligare	-6014
metime	-6015
system	-6016
udover	-6017
årsdag	-6018
▁Bland	-6019
▁Eleon	-6020
▁Heart	-6021
▁Josef	-6022
▁Karin	-6023
▁Salah	-6024
▁Store	-6025
▁blive	-6026
▁celeb	-6027
▁civil	-6028
▁fandt	-6029
▁foret	-6030
▁frist	-6031
▁lenge	-6032
▁lærer	-6033
▁måned	-6034
▁nokon	-6035
▁udvik	-6036
▁varje	-6037
▁viste	-6038
ampions	-6039
igheten	-6040
pendent	-6041
▁Første	-6042
▁Gymnas	-6043
▁Jesper	-6044
▁Middel	-6045
▁Spania	-6046
▁Tromsø	-6047
▁driver	-6048
▁illust	-6049
▁kjende	-6050
▁konser	-6051
▁omtalt	-6052
▁plater	-6053
▁portug	-6054
▁senior	-6055
▁solgte	-6056
▁spelat	-6057
▁sprint	-6058
▁titler	-6059
▁vanlig	-6060
▁Holmenk	-6061
▁Mecklen	-6062
▁Opvækst	-6063
▁Ronaldo	-6064
▁Svenska	-6065
▁Teatret	-6066
▁flertal	-6067
▁fodbold	-6068
▁framför	-6069
▁handlar	-6070
▁largest	-6071
▁utenfor	-6072
▁Ålesund	-6073
▁Sørensen	-6074
▁artister	-6075
▁becoming	-6076
▁eftersom	-6077
▁modtaget	-6078
▁Primetime	-6079
▁arrangert	-6080
▁bokstaven	-6081
▁eksemplar	-6082
▁tidspunkt	-6083
▁Eurovision	-6084
▁debuterede	-6085
▁instruktør	-6086
▁världskrig	-6087
▁appearances	-6088
▁opprinnelig	-6089
▁breakthrough	-6090
▁forskjellige	-6091
▁programleiar	-6092
▁Kronprinsesse	-6093
▁Sovjetunionen	-6094
▁Statsminister	-6095
▁langrennsløper	-6096
nu	-6097
vi	-6098
äc	-6099
▁x	-6100
ano	-6101
awa	-6102
fæl	-6103
gin	-6104
ijk	-6105
ila	-6106
iva	-6107
udi	-6108
yer	-6109
▁75	-6110
▁82	-6111
▁Fj	-6112
▁Gh	-6113
▁Oh	-6114
▁dj	-6115
▁ko	-6116
akes	-6117
alte	-6118
aman	-6119
beck	-6120
bund	-6121
edde	-6122
enes	-6123
igde	-6124
ilog	-6125
keri	-6126
ktur	-6127
løst	-6128
mund	-6129
nant	-6130
owns	-6131
stra	-6132
tere	-6133
ämnd	-6134
åpen	-6135
▁ABC	-6136
▁Arm	-6137
▁Auk	-6138
▁Bas	-6139
▁Fog	-6140
▁Gaz	-6141
▁Hep	-6142
▁Hor	-6143
▁Lau	-6144
▁Not	-6145
▁Pan	-6146
▁Sar	-6147
▁Tal	-6148
▁Von	-6149
▁bag	-6150
▁hom	-6151
▁tår	-6152
arius	-6153
endal	-6154
eslag	-6155
ipend	-6156
itary	-6157
itler	-6158
naden	-6159
press	-6160
rence	-6161
skild	-6162
sunam	-6163
ubile	-6164
unnit	-6165
ystem	-6166
ætter	-6167
▁1814	-6168
▁1916	-6169
▁1932	-6170
▁Arts	-6171
▁Arve	-6172
▁Club	-6173
▁Comp	-6174
▁Hood	-6175
▁Iran	-6176
▁Jane	-6177
▁Norr	-6178
▁Ober	-6179
▁Sunn	-6180
▁Team	-6181
▁Your	-6182
▁ball	-6183
▁bara	-6184
▁defe	-6185
▁disp	-6186
▁find	-6187
▁gode	-6188
▁gått	-6189
▁half	-6190
▁hjæl	-6191
▁kone	-6192
▁lans	-6193
▁line	-6194
▁mynd	-6195
▁shar	-6196
▁trop	-6197
▁uppt	-6198
▁vere	-6199
enburg	-6200
ingham	-6201
lighed	-6202
stedet	-6203
trädde	-6204
undsen	-6205
▁Crash	-6206
▁Engel	-6207
▁Faren	-6208
▁Gener	-6209
▁Kroat	-6210
▁Qatar	-6211
▁Times	-6212
▁deira	-6213
▁energ	-6214
▁föret	-6215
▁heldt	-6216
▁kines	-6217
▁kusin	-6218
▁lista	-6219
▁längd	-6220
▁mater	-6221
▁nogle	-6222
▁sport	-6223
▁suver	-6224
▁svart	-6225
▁trekk	-6226
▁vissa	-6227
▁våren	-6228
▁Bandet	-6229
▁Belgia	-6230
▁Columb	-6231
▁Cooper	-6232
▁Wagner	-6233
▁ambass	-6234
▁around	-6235
▁arrang	-6236
▁brukar	-6237
▁filmat	-6238
▁fylkes	-6239
▁indust	-6240
▁natten	-6241
▁sånger	-6242
▁titlen	-6243
▁utgitt	-6244
▁valgte	-6245
▁øvrige	-6246
handling	-6247
ologiske	-6248
▁Andrews	-6249
▁Anthony	-6250
▁Chinese	-6251
▁Kommune	-6252
▁Spanish	-6253
▁Uppsala	-6254
▁element	-6255
▁feature	-6256
▁kallade	-6257
▁meister	-6258
▁perform	-6259
▁stammer	-6260
▁udnævnt	-6261
▁Eleonora	-6262
▁Harrison	-6263
▁artiklar	-6264
▁daughter	-6265
▁elektron	-6266
▁ishockey	-6267
▁musikken	-6268
▁positive	-6269
▁spesielt	-6270
▁säsonger	-6271
▁Wikimedia	-6272
▁delstater	-6273
▁developed	-6274
▁historien	-6275
▁hovedstad	-6276
▁huvudroll	-6277
▁hovedrolle	-6278
▁Mecklenburg	-6279
▁amerikanska	-6280
▁fylkeskommun	-6281
▁Rigshospitalet	-6282
19	-6283
TV	-6284
ki	-6285
lä	-6286
oo	-6287
amt	-6288
bæk	-6289
dra	-6290
ief	-6291
iem	-6292
lon	-6293
oke	-6294
rak	-6295
vej	-6296
åda	-6297
▁44	-6298
▁47	-6299
▁63	-6300
▁CE	-6301
▁FC	-6302
▁Ga	-6303
▁Hy	-6304
▁MM	-6305
▁lo	-6306
▁ær	-6307
ayed	-6308
dere	-6309
dest	-6310
esen	-6311
gade	-6312
gift	-6313
hets	-6314
ifth	-6315
ikon	-6316
ival	-6317
orps	-6318
ovak	-6319
pass	-6320
plan	-6321
prin	-6322
rant	-6323
rees	-6324
rime	-6325
rone	-6326
uxen	-6327
äckt	-6328
øren	-6329
▁150	-6330
▁176	-6331
▁Aqu	-6332
▁Ark	-6333
▁Dem	-6334
▁Där	-6335
▁Eit	-6336
▁Hem	-6337
▁Inc	-6338
▁Led	-6339
▁Mod	-6340
▁Nat	-6341
▁Reb	-6342
▁Syl	-6343
▁Two	-6344
▁any	-6345
▁gem	-6346
▁née	-6347
▁præ	-6348
▁sär	-6349
▁ænd	-6350
adern	-6351
asser	-6352
bejde	-6353
deles	-6354
ified	-6355
ikten	-6356
ished	-6357
ising	-6358
lades	-6359
loven	-6360
norsk	-6361
nsson	-6362
ocken	-6363
staur	-6364
verka	-6365
ärare	-6366
▁1600	-6367
▁1931	-6368
▁Anni	-6369
▁Blue	-6370
▁Bodø	-6371
▁Camp	-6372
▁Coll	-6373
▁Fair	-6374
▁Fran	-6375
▁Game	-6376
▁Isab	-6377
▁Kamp	-6378
▁Kari	-6379
▁Life	-6380
▁Otto	-6381
▁Real	-6382
▁Serb	-6383
▁Stad	-6384
▁What	-6385
▁adop	-6386
▁dels	-6387
▁fame	-6388
▁fart	-6389
▁flyg	-6390
▁jobb	-6391
▁miss	-6392
▁mænd	-6393
▁opnå	-6394
▁pron	-6395
▁prop	-6396
▁term	-6397
ensive	-6398
ingane	-6399
istent	-6400
ringen	-6401
samisk	-6402
skilde	-6403
skjelv	-6404
▁Anker	-6405
▁Bruck	-6406
▁Enter	-6407
▁Kirke	-6408
▁Media	-6409
▁Molde	-6410
▁Story	-6411
▁Viken	-6412
▁about	-6413
▁altså	-6414
▁anses	-6415
▁broad	-6416
▁colla	-6417
▁compl	-6418
▁danna	-6419
▁desig	-6420
▁frien	-6421
▁halvt	-6422
▁hæren	-6423
▁klubb	-6424
▁konfl	-6425
▁mødte	-6426
▁neder	-6427
▁poäng	-6428
▁prakt	-6429
▁sange	-6430
▁sikre	-6431
emplate	-6432
esøster	-6433
handler	-6434
isjonen	-6435
▁Arnold	-6436
▁Fylket	-6437
▁Puigde	-6438
▁Stille	-6439
▁Willie	-6440
▁barnet	-6441
▁dramas	-6442
▁ekonom	-6443
▁forlov	-6444
▁govern	-6445
▁hosted	-6446
▁igenom	-6447
▁jobbet	-6448
▁kejser	-6449
▁koncer	-6450
▁modtog	-6451
▁rekord	-6452
▁sister	-6453
▁skreiv	-6454
▁titles	-6455
karriere	-6456
mentator	-6457
▁Contest	-6458
▁Gjennom	-6459
▁Lennart	-6460
▁YouTube	-6461
▁arabisk	-6462
▁engager	-6463
▁mennesk	-6464
▁nytårst	-6465
▁officer	-6466
▁områder	-6467
▁politik	-6468
▁present	-6469
▁records	-6470
▁restaur	-6471
▁started	-6472
▁tilsvar	-6473
▁Amundsen	-6474
▁Eksterne	-6475
▁European	-6476
▁Margrete	-6477
▁Pakistan	-6478
▁Universe	-6479
▁Williams	-6480
▁arabiske	-6481
▁distrikt	-6482
▁fotbolls	-6483
▁latinske	-6484
▁minister	-6485
▁republik	-6486
▁sentrale	-6487
▁Catherine	-6488
▁Donaldson	-6489
▁Mikkelsen	-6490
▁Privatliv	-6491
▁education	-6492
▁kalendern	-6493
▁nederland	-6494
▁nuvarande	-6495
▁nuværende	-6496
▁prinsessa	-6497
▁Österrike	-6498
partementet	-6499
▁Puigdemont	-6500
▁kongehuset	-6501
▁originally	-6502
▁previously	-6503
▁respektive	-6504
▁hovudsakleg	-6505
▁världskriget	-6506
▁skandinaviske	-6507
▁underholdning	-6508
▁kronprinsessan	-6509
▁socialdemokrat	-6510
NU	-6511
hr	-6512
ih	-6513
ti	-6514
ze	-6515
aug	-6516
beg	-6517
cel	-6518
dig	-6519
ipl	-6520
kin	-6521
nan	-6522
osf	-6523
sid	-6524
tek	-6525
uck	-6526
unt	-6527
wen	-6528
▁34	-6529
▁56	-6530
▁Lø	-6531
▁Må	-6532
▁Ur	-6533
▁rø	-6534
▁ub	-6535
akar	-6536
bete	-6537
etty	-6538
imat	-6539
ktis	-6540
lagd	-6541
makt	-6542
mans	-6543
ralt	-6544
remi	-6545
skip	-6546
unne	-6547
vere	-6548
wijk	-6549
änst	-6550
ædik	-6551
ærum	-6552
▁Cal	-6553
▁Cam	-6554
▁Dol	-6555
▁Has	-6556
▁Kla	-6557
▁Lit	-6558
▁Pac	-6559
▁Pla	-6560
▁Roy	-6561
▁Sea	-6562
▁Sko	-6563
▁Swe	-6564
▁dep	-6565
▁doc	-6566
▁ele	-6567
▁hot	-6568
▁law	-6569
▁luf	-6570
▁lys	-6571
▁nøy	-6572
▁omd	-6573
▁psy	-6574
▁tab	-6575
▁tri	-6576
▁vol	-6577
▁wid	-6578
arded	-6579
asman	-6580
herre	-6581
lings	-6582
orpor	-6583
rarna	-6584
terte	-6585
trent	-6586
usive	-6587
▁1907	-6588
▁ABBA	-6589
▁Chat	-6590
▁Dani	-6591
▁Hver	-6592
▁Jeff	-6593
▁Juan	-6594
▁Khan	-6595
▁Mass	-6596
▁Midd	-6597
▁Sant	-6598
▁Sval	-6599
▁Värm	-6600
▁Walt	-6601
▁alko	-6602
▁båda	-6603
▁dage	-6604
▁erst	-6605
▁feir	-6606
▁fikt	-6607
▁grew	-6608
▁høgt	-6609
▁høve	-6610
▁mess	-6611
▁midt	-6612
▁near	-6613
▁open	-6614
▁pros	-6615
▁used	-6616
▁vari	-6617
▁vatn	-6618
▁wife	-6619
▁writ	-6620
asjons	-6621
deligt	-6622
egrupp	-6623
ention	-6624
iteter	-6625
ording	-6626
valget	-6627
ventyr	-6628
▁First	-6629
▁Fritz	-6630
▁Galen	-6631
▁Heide	-6632
▁Hæren	-6633
▁Irish	-6634
▁Julia	-6635
▁Norén	-6636
▁Vrees	-6637
▁begin	-6638
▁cover	-6639
▁engag	-6640
▁fifth	-6641
▁foran	-6642
▁hende	-6643
▁imper	-6644
▁indre	-6645
▁kropp	-6646
▁låtar	-6647
▁minor	-6648
▁motor	-6649
▁often	-6650
▁orden	-6651
▁owner	-6652
▁repla	-6653
▁seier	-6654
▁sette	-6655
▁skyld	-6656
▁stjer	-6657
▁söder	-6658
▁teams	-6659
▁vilka	-6660
▁vorte	-6661
▁would	-6662
ländska	-6663
olution	-6664
stendig	-6665
stället	-6666
ubileum	-6667
▁Ifølge	-6668
▁Kilmer	-6669
▁Marian	-6670
▁Mellom	-6671
▁Mexico	-6672
▁Portug	-6673
▁Samtid	-6674
▁Ungdom	-6675
▁aldrig	-6676
▁celebr	-6677
▁female	-6678
▁finans	-6679
▁indbyg	-6680
▁invest	-6681
▁joined	-6682
▁lenger	-6683
▁primar	-6684
▁rekkje	-6685
▁stader	-6686
▁sändes	-6687
▁totalt	-6688
▁utgang	-6689
skaparna	-6690
▁Charlie	-6691
▁Laborde	-6692
▁arbejde	-6693
▁century	-6694
▁innhald	-6695
▁kommers	-6696
▁matemat	-6697
▁människ	-6698
▁sentral	-6699
▁vitskap	-6700
▁Bruckner	-6701
▁Internet	-6702
▁Isabella	-6703
▁Jacobsen	-6704
▁Tønsberg	-6705
▁champion	-6706
▁efterful	-6707
▁interess	-6708
▁portugis	-6709
▁romantic	-6710
▁romerske	-6711
▁släpptes	-6712
▁Kristians	-6713
▁Stavanger	-6714
▁forsanger	-6715
▁kvarandre	-6716
▁musikalen	-6717
▁regissert	-6718
▁Australian	-6719
▁Margaretha	-6720
▁Nyårsdagen	-6721
▁landslaget	-6722
▁musikalske	-6723
▁Association	-6724
▁Tillsammans	-6725
▁fyrstehuset	-6726
▁recognition	-6727
▁produktioner	-6728
▁utgangspunkt	-6729
▁Atlanterhavet	-6730
▁Västergötland	-6731
▁kongefamilien	-6732
▁administrative	-6733
15	-6734
24	-6735
30	-6736
BN	-6737
BS	-6738
án	-6739
III	-6740
amf	-6741
ava	-6742
bot	-6743
con	-6744
eck	-6745
eks	-6746
fra	-6747
fug	-6748
kil	-6749
ois	-6750
osa	-6751
sag	-6752
sky	-6753
▁AI	-6754
▁BC	-6755
▁CO	-6756
aken	-6757
bard	-6758
best	-6759
bets	-6760
emen	-6761
fall	-6762
fron	-6763
føre	-6764
hert	-6765
hood	-6766
isco	-6767
isin	-6768
mest	-6769
ntak	-6770
self	-6771
sing	-6772
sper	-6773
stal	-6774
stil	-6775
used	-6776
vrig	-6777
▁Ath	-6778
▁Bam	-6779
▁Bet	-6780
▁Cop	-6781
▁Emp	-6782
▁Ett	-6783
▁Fem	-6784
▁Lie	-6785
▁Pop	-6786
▁Try	-6787
▁Veg	-6788
▁box	-6789
▁bus	-6790
▁cat	-6791
▁fab	-6792
▁fir	-6793
▁fre	-6794
▁hin	-6795
▁jud	-6796
▁løb	-6797
▁mur	-6798
▁pen	-6799
▁vik	-6800
▁vår	-6801
▁öpp	-6802
aksen	-6803
antar	-6804
ellig	-6805
elson	-6806
enten	-6807
hoved	-6808
innan	-6809
inner	-6810
istar	-6811
linga	-6812
områd	-6813
order	-6814
start	-6815
tnant	-6816
usten	-6817
▁1863	-6818
▁1872	-6819
▁1915	-6820
▁Army	-6821
▁Bang	-6822
▁Bjer	-6823
▁Brun	-6824
▁Både	-6825
▁Gorm	-6826
▁Hend	-6827
▁Ikke	-6828
▁Kvin	-6829
▁Mand	-6830
▁Mold	-6831
▁NATO	-6832
▁Oliv	-6833
▁Open	-6834
▁Plot	-6835
▁Simp	-6836
▁Sten	-6837
▁Vold	-6838
▁dele	-6839
▁erob	-6840
▁fisk	-6841
▁home	-6842
▁krav	-6843
▁left	-6844
▁meld	-6845
▁måte	-6846
▁näst	-6847
▁phil	-6848
▁raud	-6849
▁runt	-6850
▁tale	-6851
▁tids	-6852
▁utgå	-6853
▁vict	-6854
▁väst	-6855
▁whom	-6856
▁ægte	-6857
amerik	-6858
aparte	-6859
avheng	-6860
parten	-6861
sdelen	-6862
ställd	-6863
verket	-6864
▁Bruce	-6865
▁Bærum	-6866
▁Detta	-6867
▁Group	-6868
▁Helle	-6869
▁Party	-6870
▁Sande	-6871
▁Since	-6872
▁Skjer	-6873
▁Troll	-6874
▁Verde	-6875
▁adapt	-6876
▁aldri	-6877
▁birth	-6878
▁comed	-6879
▁dessa	-6880
▁finsk	-6881
▁gamla	-6882
▁gifta	-6883
▁invol	-6884
▁marri	-6885
▁melod	-6886
▁mixed	-6887
▁power	-6888
▁prote	-6889
▁punkt	-6890
▁raskt	-6891
▁short	-6892
▁spent	-6893
▁sprog	-6894
▁stopp	-6895
▁strid	-6896
▁style	-6897
▁trett	-6898
▁users	-6899
▁äkten	-6900
asjonar	-6901
debuter	-6902
igheder	-6903
▁Hitler	-6904
▁Ivanho	-6905
▁Majest	-6906
▁Melodi	-6907
▁Salten	-6908
▁Sloven	-6909
▁Steven	-6910
▁Vinter	-6911
▁arkite	-6912
▁barneb	-6913
▁common	-6914
▁därmed	-6915
▁gruppa	-6916
▁heller	-6917
▁høyrer	-6918
▁ifølge	-6919
▁kaldet	-6920
▁kalles	-6921
▁kyrkja	-6922
▁months	-6923
▁rights	-6924
▁skilde	-6925
▁skrift	-6926
▁sønner	-6927
▁tronar	-6928
▁utsågs	-6929
▁utveck	-6930
▁vatten	-6931
▁winner	-6932
▁writer	-6933
▁äldste	-6934
secutive	-6935
årsaften	-6936
▁Florida	-6937
▁Georgia	-6938
▁Harvard	-6939
▁History	-6940
▁Indones	-6941
▁Spencer	-6942
▁Tidlige	-6943
▁Zealand	-6944
▁dialekt	-6945
▁endring	-6946
▁enkelte	-6947
▁eventyr	-6948
▁follows	-6949
▁further	-6950
▁husband	-6951
▁kontakt	-6952
▁players	-6953
▁selskap	-6954
▁working	-6955
enborgske	-6956
▁Andersen	-6957
▁Arbeider	-6958
▁Karlsson	-6959
▁Michigan	-6960
▁Princess	-6961
▁Svalbard	-6962
▁addition	-6963
▁ekteskap	-6964
▁fotograf	-6965
▁framleis	-6966
▁gitarist	-6967
▁håndbold	-6968
▁included	-6969
▁kontrakt	-6970
▁military	-6971
▁musikere	-6972
▁nordaust	-6973
▁nordlege	-6974
▁publikum	-6975
▁redaktør	-6976
▁systemet	-6977
▁utdannet	-6978
▁Francisco	-6979
▁Gymnasium	-6980
▁Johansson	-6981
▁Staveland	-6982
▁Steinbeck	-6983
▁Vreeswijk	-6984
▁regerande	-6985
▁statsover	-6986
▁Kongeriket	-6987
▁Television	-6988
▁låtskriver	-6989
▁revolusjon	-6990
▁Alexandrine	-6991
▁Middelhavet	-6992
▁verdskrigen	-6993
▁ytterligare	-6994
▁befolkningen	-6995
▁Galenskaparna	-6996
▁skådespelaren	-6997
▁Socialdemokrat	-6998
▁Storbritanniens	-6999
▁manusförfattare	-7000
mo	-7001
tj	-7002
ua	-7003
wa	-7004
zy	-7005
EFA	-7006
aut	-7007
bag	-7008
bry	-7009
com	-7010
fil	-7011
hop	-7012
ids	-7013
lek	-7014
lik	-7015
män	-7016
ogs	-7017
olo	-7018
pan	-7019
sat	-7020
sex	-7021
sjö	-7022
tar	-7023
uff	-7024
uly	-7025
æra	-7026
æss	-7027
▁48	-7028
▁81	-7029
▁87	-7030
▁Ax	-7031
▁Bø	-7032
▁Så	-7033
▁VG	-7034
▁ej	-7035
▁hy	-7036
adet	-7037
bart	-7038
dern	-7039
erie	-7040
erin	-7041
estr	-7042
flyt	-7043
idde	-7044
ifin	-7045
imot	-7046
inte	-7047
ione	-7048
irée	-7049
klar	-7050
lere	-7051
leve	-7052
namn	-7053
onia	-7054
osse	-7055
ract	-7056
rick	-7057
stam	-7058
unna	-7059
vind	-7060
wald	-7061
wing	-7062
▁158	-7063
▁169	-7064
▁App	-7065
▁Aud	-7066
▁Dir	-7067
▁Høg	-7068
▁Jos	-7069
▁Les	-7070
▁Lib	-7071
▁Mic	-7072
▁Pap	-7073
▁Rav	-7074
▁Sta	-7075
▁dyr	-7076
▁etn	-7077
▁key	-7078
▁rej	-7079
▁sek	-7080
▁sjø	-7081
▁spe	-7082
▁tyd	-7083
ancer	-7084
annel	-7085
banen	-7086
cover	-7087
egård	-7088
ellow	-7089
ettet	-7090
jorde	-7091
leton	-7092
shold	-7093
skift	-7094
srett	-7095
undes	-7096
ungen	-7097
uthor	-7098
zilla	-7099
øerne	-7100
øyene	-7101
▁1808	-7102
▁1882	-7103
▁Buck	-7104
▁Char	-7105
▁Dess	-7106
▁Fast	-7107
▁Hann	-7108
▁ISBN	-7109
▁Line	-7110
▁Pier	-7111
▁Ross	-7112
▁Salm	-7113
▁Sher	-7114
▁Side	-7115
▁Supp	-7116
▁bank	-7117
▁byer	-7118
▁döpt	-7119
▁egne	-7120
▁exec	-7121
▁foun	-7122
▁grän	-7123
▁hard	-7124
▁hits	-7125
▁hjäl	-7126
▁nivå	-7127
▁page	-7128
▁prov	-7129
▁tele	-7130
▁åtta	-7131
ablish	-7132
asters	-7133
iggins	-7134
imited	-7135
itions	-7136
landsk	-7137
nelsen	-7138
rennet	-7139
rifter	-7140
steder	-7141
unched	-7142
wealth	-7143
▁Brown	-7144
▁Bästa	-7145
▁Dance	-7146
▁Found	-7147
▁Franz	-7148
▁Games	-7149
▁Messi	-7150
▁Roger	-7151
▁Skole	-7152
▁Sunnm	-7153
▁Tamil	-7154
▁Union	-7155
▁Vinci	-7156
▁Women	-7157
▁abdic	-7158
▁alene	-7159
▁crime	-7160
▁egypt	-7161
▁elect	-7162
▁ensem	-7163
▁fører	-7164
▁holdt	-7165
▁human	-7166
▁landa	-7167
▁large	-7168
▁levde	-7169
▁lærte	-7170
▁novel	-7171
▁omkom	-7172
▁redan	-7173
▁runde	-7174
▁satte	-7175
▁udkom	-7176
▁varav	-7177
ensborg	-7178
ensinde	-7179
eringen	-7180
ikation	-7181
landske	-7182
outhern	-7183
plassen	-7184
respond	-7185
stjerne	-7186
▁Alfred	-7187
▁Blanch	-7188
▁Common	-7189
▁County	-7190
▁Erling	-7191
▁Gunnar	-7192
▁Hammer	-7193
▁Master	-7194
▁Nelson	-7195
▁Norden	-7196
▁Stolpe	-7197
▁Studio	-7198
▁Tasman	-7199
▁Victor	-7200
▁bokmål	-7201
▁borger	-7202
▁brukes	-7203
▁endast	-7204
▁finnes	-7205
▁kandid	-7206
▁nyttår	-7207
▁ranked	-7208
▁scient	-7209
▁varian	-7210
▁videos	-7211
▁vunnit	-7212
orkester	-7213
steatern	-7214
tyskland	-7215
▁Actress	-7216
▁Alabama	-7217
▁Barndom	-7218
▁München	-7219
▁Schmidt	-7220
▁Toblach	-7221
▁används	-7222
▁baserad	-7223
▁erstatt	-7224
▁forkort	-7225
▁giftede	-7226
▁handler	-7227
▁inledde	-7228
▁introdu	-7229
▁overtog	-7230
▁procent	-7231
▁synonym	-7232
▁tiderna	-7233
▁tävlade	-7234
▁uavheng	-7235
▁unionen	-7236
arthquake	-7237
kilometer	-7238
▁collabor	-7239
▁consider	-7240
▁filmerna	-7241
▁grundlag	-7242
▁herunder	-7243
▁inneheld	-7244
▁istället	-7245
▁landslag	-7246
▁regionen	-7247
▁relation	-7248
▁returned	-7249
▁skiftede	-7250
▁statsråd	-7251
instrument	-7252
▁Dagbladet	-7253
▁Universal	-7254
▁establish	-7255
▁featuring	-7256
▁selskapet	-7257
▁vanlegvis	-7258
▁wrestling	-7259
▁økonomisk	-7260
▁Marienborg	-7261
▁historiske	-7262
▁instrueret	-7263
▁kvindelige	-7264
▁landskapet	-7265
▁nogensinde	-7266
▁officially	-7267
▁officielle	-7268
▁betegnelsen	-7269
▁development	-7270
▁independent	-7271
▁performance	-7272
▁tronföljden	-7273
▁Professional	-7274
▁individuelle	-7275
▁konstitution	-7276
▁oldenborgske	-7277
▁performances	-7278
▁universitetet	-7279
▁fotbollsspelare	-7280
oy	-7281
sr	-7282
és	-7283
asc	-7284
emy	-7285
fru	-7286
hel	-7287
län	-7288
læg	-7289
mir	-7290
ols	-7291
ope	-7292
ops	-7293
ram	-7294
roe	-7295
ros	-7296
sol	-7297
ukk	-7298
vil	-7299
æde	-7300
øgn	-7301
▁49	-7302
▁52	-7303
▁62	-7304
▁67	-7305
▁71	-7306
▁84	-7307
▁91	-7308
▁97	-7309
▁FN	-7310
▁Ko	-7311
▁SM	-7312
▁pj	-7313
ador	-7314
amot	-7315
aner	-7316
ania	-7317
ario	-7318
atan	-7319
auen	-7320
eset	-7321
eten	-7322
ffer	-7323
full	-7324
gdag	-7325
gjer	-7326
hjem	-7327
ills	-7328
ipal	-7329
itta	-7330
ives	-7331
kong	-7332
mene	-7333
ndag	-7334
olas	-7335
omon	-7336
phis	-7337
pros	-7338
sjef	-7339
skan	-7340
sång	-7341
ulen	-7342
väst	-7343
ynam	-7344
årig	-7345
▁Bad	-7346
▁But	-7347
▁Cur	-7348
▁Dam	-7349
▁Die	-7350
▁Dom	-7351
▁Dra	-7352
▁Dun	-7353
▁Død	-7354
▁Eld	-7355
▁Eug	-7356
▁Hum	-7357
▁Jew	-7358
▁Kom	-7359
▁Lil	-7360
▁Lyn	-7361
▁Mir	-7362
▁Mos	-7363
▁Nag	-7364
▁Now	-7365
▁Say	-7366
▁Set	-7367
▁Tir	-7368
▁car	-7369
▁cop	-7370
▁cor	-7371
▁def	-7372
▁fut	-7373
▁hor	-7374
▁kop	-7375
▁kän	-7376
▁mog	-7377
▁myt	-7378
▁oft	-7379
▁okk	-7380
▁opr	-7381
▁ref	-7382
▁sjö	-7383
▁slå	-7384
▁tag	-7385
▁tel	-7386
eball	-7387
ebror	-7388
endom	-7389
galan	-7390
gjort	-7391
iting	-7392
maker	-7393
plats	-7394
shire	-7395
skede	-7396
styre	-7397
xamen	-7398
▁1889	-7399
▁1913	-7400
▁Brad	-7401
▁Cher	-7402
▁Flem	-7403
▁Good	-7404
▁Grim	-7405
▁Home	-7406
▁Kjer	-7407
▁Krig	-7408
▁Leif	-7409
▁Mach	-7410
▁Mann	-7411
▁Noir	-7412
▁Også	-7413
▁Rick	-7414
▁Selv	-7415
▁Stig	-7416
▁UEFA	-7417
▁Verd	-7418
▁When	-7419
▁anti	-7420
▁biop	-7421
▁book	-7422
▁cour	-7423
▁desc	-7424
▁fatt	-7425
▁fjär	-7426
▁heil	-7427
▁help	-7428
▁hurt	-7429
▁jakt	-7430
▁klar	-7431
▁leve	-7432
▁mass	-7433
▁nine	-7434
▁opna	-7435
▁skud	-7436
▁sten	-7437
▁svar	-7438
▁uppv	-7439
▁view	-7440
▁will	-7441
ashion	-7442
bundet	-7443
hattan	-7444
iteten	-7445
kultur	-7446
köping	-7447
leburg	-7448
linger	-7449
remiär	-7450
republ	-7451
riften	-7452
status	-7453
usland	-7454
vokset	-7455
▁Canad	-7456
▁Dream	-7457
▁Ernst	-7458
▁Helen	-7459
▁Huvud	-7460
▁Jesus	-7461
▁Known	-7462
▁Numme	-7463
▁Ocean	-7464
▁Poppe	-7465
▁Shave	-7466
▁Sibyl	-7467
▁Ström	-7468
▁agent	-7469
▁alvor	-7470
▁angre	-7471
▁anven	-7472
▁attem	-7473
▁boken	-7474
▁darts	-7475
▁endra	-7476
▁fanns	-7477
▁fjord	-7478
▁foreg	-7479
▁forve	-7480
▁gjeve	-7481
▁liges	-7482
▁något	-7483
▁optræ	-7484
▁order	-7485
▁stund	-7486
▁såsom	-7487
▁troll	-7488
▁träff	-7489
▁tusen	-7490
▁urval	-7491
▁valde	-7492
▁woman	-7493
ademiet	-7494
borough	-7495
irektør	-7496
ization	-7497
konkurr	-7498
ordenen	-7499
ountain	-7500
teatret	-7501
uskript	-7502
verkeri	-7503
▁Bulgar	-7504
▁Fylkes	-7505
▁Indien	-7506
▁Jordan	-7507
▁Julian	-7508
▁Lystad	-7509
▁Petter	-7510
▁Samuel	-7511
▁Strand	-7512
▁Sweden	-7513
▁Vester	-7514
▁Virgin	-7515
▁actors	-7516
▁daglig	-7517
▁döptes	-7518
▁fordel	-7519
▁fourth	-7520
▁ibland	-7521
▁kvalif	-7522
▁perman	-7523
▁samlet	-7524
▁skolan	-7525
▁stater	-7526
▁sterkt	-7527
▁tsunam	-7528
▁utgjør	-7529
▁Østrig	-7530
industri	-7531
redaktør	-7532
▁Beatles	-7533
▁Company	-7534
▁Europas	-7535
▁Francis	-7536
▁Hepburn	-7537
▁Ivanhoe	-7538
▁Memphis	-7539
▁Nikolaj	-7540
▁Russian	-7541
▁Sinatra	-7542
▁Twitter	-7543
▁alkohol	-7544
▁content	-7545
▁dobbelt	-7546
▁fiction	-7547
▁fristil	-7548
▁henhold	-7549
▁kanalen	-7550
▁kraftig	-7551
▁kristne	-7552
▁miniser	-7553
▁månader	-7554
▁reached	-7555
▁science	-7556
▁slutade	-7557
▁starter	-7558
▁tilldel	-7559
▁virksom	-7560
▁Business	-7561
▁Deretter	-7562
▁Frankrig	-7563
▁Godzilla	-7564
▁Konstant	-7565
▁byrjinga	-7566
▁grossing	-7567
▁indspill	-7568
▁japanske	-7569
▁landskap	-7570
▁mandlige	-7571
▁omfattar	-7572
▁relativt	-7573
▁sommeren	-7574
▁starting	-7575
▁stilling	-7576
▁Berleburg	-7577
▁Institute	-7578
▁Manhattan	-7579
▁President	-7580
▁Springste	-7581
▁executive	-7582
▁framgångs	-7583
▁hvorefter	-7584
▁inkludert	-7585
▁institutt	-7586
▁julianske	-7587
▁politikar	-7588
▁regerende	-7589
▁samtidigt	-7590
▁Gustafsson	-7591
▁appearance	-7592
▁produceret	-7593
▁programmer	-7594
▁touchdowns	-7595
▁consecutive	-7596
▁stadsteater	-7597
departementet	-7598
▁Entertainment	-7599
▁Frederiksberg	-7600
▁mellomalderen	-7601
▁fodboldspiller	-7602
▁internasjonalt	-7603
BO	-7604
DA	-7605
gd	-7606
rä	-7607
vs	-7608
xy	-7609
zz	-7610
▁é	-7611
asj	-7612
hab	-7613
iby	-7614
isp	-7615
ize	-7616
key	-7617
ksh	-7618
løp	-7619
mil	-7620
ogg	-7621
ril	-7622
sal	-7623
ssa	-7624
ulu	-7625
øne	-7626
øve	-7627
▁51	-7628
▁64	-7629
▁73	-7630
▁78	-7631
▁Dj	-7632
▁Es	-7633
▁NT	-7634
▁OS	-7635
▁Os	-7636
▁næ	-7637
▁ön	-7638
anen	-7639
anke	-7640
atis	-7641
blom	-7642
bott	-7643
bred	-7644
brød	-7645
cell	-7646
cess	-7647
ecil	-7648
elly	-7649
esle	-7650
fart	-7651
fect	-7652
hæng	-7653
ians	-7654
iber	-7655
idar	-7656
ilda	-7657
indi	-7658
løse	-7659
mine	-7660
mond	-7661
odia	-7662
ofon	-7663
oren	-7664
rens	-7665
samf	-7666
snit	-7667
språ	-7668
star	-7669
ural	-7670
vern	-7671
åkly	-7672
ödra	-7673
▁138	-7674
▁148	-7675
▁170	-7676
▁174	-7677
▁175	-7678
▁250	-7679
▁Aal	-7680
▁Bal	-7681
▁Bed	-7682
▁Boy	-7683
▁Cle	-7684
▁Fro	-7685
▁Fug	-7686
▁Gam	-7687
▁Hav	-7688
▁Kat	-7689
▁Ken	-7690
▁Kol	-7691
▁Mis	-7692
▁Myr	-7693
▁Mør	-7694
▁Pet	-7695
▁Små	-7696
▁Sum	-7697
▁cap	-7698
▁ene	-7699
▁fär	-7700
▁gir	-7701
▁gör	-7702
▁hed	-7703
▁hjå	-7704
▁jeg	-7705
▁kva	-7706
▁neg	-7707
▁nio	-7708
▁pil	-7709
▁pot	-7710
▁ran	-7711
▁sla	-7712
▁snø	-7713
▁sål	-7714
▁sæl	-7715
▁tim	-7716
▁väl	-7717
achus	-7718
alkun	-7719
brudd	-7720
clear	-7721
elder	-7722
emann	-7723
føres	-7724
gerne	-7725
holms	-7726
iella	-7727
iellt	-7728
ierna	-7729
ierne	-7730
iplom	-7731
jente	-7732
komst	-7733
ksamm	-7734
ockan	-7735
onien	-7736
schef	-7737
sholm	-7738
sprog	-7739
tolem	-7740
uelle	-7741
▁1903	-7742
▁1909	-7743
▁Bapt	-7744
▁Bros	-7745
▁Fire	-7746
▁From	-7747
▁Grin	-7748
▁Kirk	-7749
▁Mind	-7750
▁Moon	-7751
▁Nash	-7752
▁Sara	-7753
▁Sent	-7754
▁Shak	-7755
▁Sogn	-7756
▁Spec	-7757
▁Wald	-7758
▁Want	-7759
▁Witt	-7760
▁berg	-7761
▁blot	-7762
▁boka	-7763
▁camp	-7764
▁data	-7765
▁dato	-7766
▁fakt	-7767
▁germ	-7768
▁gest	-7769
▁girl	-7770
▁gram	-7771
▁især	-7772
▁jarl	-7773
▁kirk	-7774
▁lett	-7775
▁litt	-7776
▁paid	-7777
▁phys	-7778
▁prom	-7779
▁punk	-7780
▁purs	-7781
▁sats	-7782
▁sete	-7783
▁sist	-7784
▁stab	-7785
▁sätt	-7786
▁text	-7787
anskje	-7788
demort	-7789
estill	-7790
iarder	-7791
kommun	-7792
neider	-7793
ningsm	-7794
sjonen	-7795
svaret	-7796
taland	-7797
▁Aften	-7798
▁Allen	-7799
▁Aller	-7800
▁Cecil	-7801
▁Claud	-7802
▁Danny	-7803
▁Earth	-7804
▁Filip	-7805
▁Høiby	-7806
▁Jonas	-7807
▁Journ	-7808
▁Penns	-7809
▁Phill	-7810
▁Samme	-7811
▁Sankt	-7812
▁Schau	-7813
▁Schul	-7814
▁Spill	-7815
▁Svent	-7816
▁Swift	-7817
▁annen	-7818
▁betyr	-7819
▁faste	-7820
▁forsø	-7821
▁frukt	-7822
▁klart	-7823
▁komme	-7824
▁låter	-7825
▁minne	-7826
▁older	-7827
▁opera	-7828
▁papir	-7829
▁press	-7830
▁snart	-7831
▁strat	-7832
▁trona	-7833
▁visse	-7834
▁återv	-7835
fession	-7836
geloven	-7837
itionen	-7838
▁Barbie	-7839
▁Bayern	-7840
▁Bertil	-7841
▁Church	-7842
▁Flåkly	-7843
▁France	-7844
▁Kassel	-7845
▁Kongen	-7846
▁Slovak	-7847
▁Svarte	-7848
▁Tsjekk	-7849
▁Willem	-7850
▁author	-7851
▁aviser	-7852
▁biolog	-7853
▁budget	-7854
▁bygger	-7855
▁böcker	-7856
▁commun	-7857
▁expand	-7858
▁folker	-7859
▁keiser	-7860
▁marked	-7861
▁modell	-7862
▁norska	-7863
▁områda	-7864
▁rapper	-7865
▁ridder	-7866
▁sjette	-7867
▁skuesp	-7868
▁slaget	-7869
▁spansk	-7870
▁theatr	-7871
▁utgjer	-7872
▁äldsta	-7873
høgskole	-7874
ografisk	-7875
ographic	-7876
▁Aalborg	-7877
▁African	-7878
▁Berling	-7879
▁Bjørgen	-7880
▁Chicago	-7881
▁Estelle	-7882
▁Frances	-7883
▁Herbert	-7884
▁Kongens	-7885
▁Seinare	-7886
▁arbetat	-7887
▁faderns	-7888
▁founded	-7889
▁founder	-7890
▁halvøya	-7891
▁influen	-7892
▁innført	-7893
▁kanskje	-7894
▁ligesom	-7895
▁married	-7896
▁overtok	-7897
▁project	-7898
▁samiske	-7899
▁singlen	-7900
▁spesial	-7901
▁teksten	-7902
▁uttrykk	-7903
▁version	-7904
högskolan	-7905
▁Carolina	-7906
▁Columbia	-7907
▁Götaland	-7908
▁Lyngstad	-7909
▁Petersen	-7910
▁Ragnhild	-7911
▁Sunnmøre	-7912
▁Template	-7913
▁Vestland	-7914
▁baseball	-7915
▁featured	-7916
▁forældre	-7917
▁includes	-7918
▁interest	-7919
▁kontroll	-7920
▁launched	-7921
▁official	-7922
▁opvokset	-7923
▁sammensl	-7924
▁särskilt	-7925
▁undervis	-7926
▁uppvuxen	-7927
▁youngest	-7928
ographical	-7929
▁Bonaparte	-7930
▁Champions	-7931
▁Drottning	-7932
▁Selskapet	-7933
▁Voldemort	-7934
▁attention	-7935
▁broadcast	-7936
▁delstaten	-7937
▁europeisk	-7938
▁gymnasiet	-7939
▁kategorin	-7940
▁kringkast	-7941
▁nomineret	-7942
▁produsent	-7943
▁soloalbum	-7944
▁stortings	-7945
▁streaming	-7946
▁studenter	-7947
▁Supporting	-7948
▁milliarder	-7949
▁samarbejde	-7950
▁självständ	-7951
▁spillefilm	-7952
▁tilknyttet	-7953
ministrasjon	-7954
▁huvudroller	-7955
▁julkalender	-7956
▁uppmärksamm	-7957
▁Commonwealth	-7958
▁hovedsakelig	-7959
▁representerer	-7960
▁parlamentarisk	-7961
▁professionally	-7962
21	-7963
vä	-7964
Cap	-7965
ahn	-7966
bog	-7967
cht	-7968
dam	-7969
erv	-7970
eus	-7971
fag	-7972
frå	-7973
fyr	-7974
jan	-7975
keb	-7976
kre	-7977
lav	-7978
lyn	-7979
mag	-7980
mod	-7981
oga	-7982
rie	-7983
sby	-7984
trä	-7985
tsj	-7986
uba	-7987
uer	-7988
upr	-7989
ura	-7990
äkn	-7991
ærk	-7992
▁01	-7993
▁07	-7994
▁39	-7995
▁69	-7996
▁86	-7997
▁94	-7998
▁96	-7999
▁Hæ	-8000
▁Jö	-8001
▁Na	-8002
▁SN	-8003
▁Si	-8004
amin	-8005
asen	-8006
atør	-8007
dige	-8008
ebra	-8009
elis	-8010
emer	-8011
fort	-8012
iety	-8013
jekt	-8014
lane	-8015
mers	-8016
ocus	-8017
oget	-8018
port	-8019
rona	-8020
rådt	-8021
skor	-8022
stan	-8023
ters	-8024
veld	-8025
▁153	-8026
▁Ast	-8027
▁Bøk	-8028
▁Cav	-8029
▁Cor	-8030
▁Esp	-8031
▁Fab	-8032
▁Fru	-8033
▁Gir	-8034
▁HBO	-8035
▁Hal	-8036
▁Hur	-8037
▁Kle	-8038
▁Kos	-8039
▁Nok	-8040
▁Ord	-8041
▁Ork	-8042
▁Sav	-8043
▁Säs	-8044
▁aks	-8045
▁bla	-8046
▁blå	-8047
▁few	-8048
▁græ	-8049
▁hof	-8050
▁kre	-8051
▁läm	-8052
▁moh	-8053
▁mye	-8054
▁net	-8055
▁nev	-8056
▁now	-8057
▁own	-8058
▁rör	-8059
▁røy	-8060
▁sag	-8061
▁uts	-8062
agnit	-8063
aktig	-8064
anner	-8065
bourg	-8066
ellet	-8067
enede	-8068
erien	-8069
ernes	-8070
faren	-8071
iator	-8072
icted	-8073
ility	-8074
kkjer	-8075
oment	-8076
quare	-8077
right	-8078
rikes	-8079
ställ	-8080
stænd	-8081
vania	-8082
▁1869	-8083
▁1895	-8084
▁1899	-8085
▁Blod	-8086
▁Cage	-8087
▁Frem	-8088
▁Heid	-8089
▁Hjal	-8090
▁Ivar	-8091
▁Kath	-8092
▁Kjær	-8093
▁Lide	-8094
▁Maur	-8095
▁Møre	-8096
▁Namn	-8097
▁Paus	-8098
▁Porn	-8099
▁Sayn	-8100
▁Shaw	-8101
▁atom	-8102
▁djup	-8103
▁drev	-8104
▁earl	-8105
▁egna	-8106
▁erkl	-8107
▁heim	-8108
▁komm	-8109
▁kost	-8110
▁legg	-8111
▁leks	-8112
▁oppk	-8113
▁oppn	-8114
▁self	-8115
▁spor	-8116
▁take	-8117
▁Åren	-8118
asinet	-8119
deling	-8120
edagen	-8121
eleine	-8122
ground	-8123
gående	-8124
hertug	-8125
istens	-8126
▁Agder	-8127
▁Allan	-8128
▁Bamse	-8129
▁Brand	-8130
▁Bratt	-8131
▁Catal	-8132
▁Desse	-8133
▁DiCap	-8134
▁Grace	-8135
▁Hanna	-8136
▁Kings	-8137
▁Latin	-8138
▁Olavs	-8139
▁Steve	-8140
▁Their	-8141
▁Volda	-8142
▁annon	-8143
▁bolig	-8144
▁confl	-8145
▁danse	-8146
▁difor	-8147
▁døtre	-8148
▁exper	-8149
▁fiske	-8150
▁games	-8151
▁house	-8152
▁jobba	-8153
▁kunde	-8154
▁källa	-8155
▁miljø	-8156
▁møtte	-8157
▁norra	-8158
▁nåede	-8159
▁omgre	-8160
▁poeng	-8161
▁skott	-8162
▁sterk	-8163
▁styrk	-8164
▁taget	-8165
▁ungar	-8166
▁utvid	-8167
▁voice	-8168
derburg	-8169
ktioner	-8170
minster	-8171
ributed	-8172
rollene	-8173
språket	-8174
ssenter	-8175
umenter	-8176
ylvania	-8177
æsident	-8178
▁Barcel	-8179
▁Carlos	-8180
▁Cruise	-8181
▁Dennis	-8182
▁Foreld	-8183
▁Kultur	-8184
▁Ledger	-8185
▁Marius	-8186
▁Morgan	-8187
▁Person	-8188
▁Rikard	-8189
▁Screen	-8190
▁Viborg	-8191
▁Wright	-8192
▁across	-8193
▁bilder	-8194
▁biskop	-8195
▁differ	-8196
▁eksped	-8197
▁endret	-8198
▁fulgte	-8199
▁kallad	-8200
▁numera	-8201
▁oftast	-8202
▁online	-8203
▁posten	-8204
▁revyer	-8205
▁skotår	-8206
▁språka	-8207
▁steder	-8208
▁støtte	-8209
▁tidene	-8210
▁titeln	-8211
▁unntak	-8212
▁vänner	-8213
▁väster	-8214
ectively	-8215
genstein	-8216
kommande	-8217
sekretær	-8218
▁Carlsen	-8219
▁Central	-8220
▁Collins	-8221
▁Daniels	-8222
▁Familie	-8223
▁Karriär	-8224
▁Området	-8225
▁Oppland	-8226
▁Shakesp	-8227
▁Simpson	-8228
▁Småland	-8229
▁Theatre	-8230
▁complet	-8231
▁dannede	-8232
▁drummer	-8233
▁folkesk	-8234
▁franska	-8235
▁halvdel	-8236
▁marknad	-8237
▁nuclear	-8238
▁omtrent	-8239
▁pageant	-8240
▁sjukdom	-8241
▁skrivit	-8242
▁subsequ	-8243
▁tillfäl	-8244
▁ægtefæl	-8245
achusetts	-8246
ataljonen	-8247
neippbrød	-8248
▁Canadian	-8249
▁Champion	-8250
▁Flåklypa	-8251
▁Færøerne	-8252
▁Kaliforn	-8253
▁Marianne	-8254
▁Mathilde	-8255
▁Portugal	-8256
▁Republic	-8257
▁Schulman	-8258
▁Virginia	-8259
▁bakgrunn	-8260
▁defeated	-8261
▁deltager	-8262
▁ensemble	-8263
▁folkemus	-8264
▁fortsatt	-8265
▁kallades	-8266
▁nordlige	-8267
▁nordmenn	-8268
▁perioder	-8269
▁politiet	-8270
▁referred	-8271
▁regenter	-8272
▁sommaren	-8273
uddannelse	-8274
▁Lidegaard	-8275
▁Madeleine	-8276
▁Nationalt	-8277
▁betydning	-8278
▁filmprodu	-8279
▁inklusive	-8280
▁landskamp	-8281
▁portrayed	-8282
▁religiøse	-8283
▁storebror	-8284
▁teatersty	-8285
▁tronfølge	-8286
▁Østerrike	-8287
▁Berlingske	-8288
▁Folkeparti	-8289
▁Konstantin	-8290
▁Sandefjord	-8291
▁Sonderburg	-8292
▁artikkelen	-8293
▁förekommer	-8294
▁fødselsdag	-8295
▁italienske	-8296
▁manuskript	-8297
▁nytårstale	-8298
▁performing	-8299
▁personlige	-8300
▁tronarving	-8301
▁uddannelse	-8302
▁Christensen	-8303
▁Helsingborg	-8304
▁Kalifornien	-8305
▁eksemplarer	-8306
▁Holmenkollen	-8307
▁Nederlandene	-8308
▁Pennsylvania	-8309
▁Wittgenstein	-8310
▁relationship	-8311
▁Massachusetts	-8312
▁internasjonal	-8313
▁skuespillerinde	-8314
dy	-8315
gn	-8316
hu	-8317
jk	-8318
må	-8319
sg	-8320
VID	-8321
aya	-8322
bad	-8323
bom	-8324
but	-8325
chi	-8326
hew	-8327
igr	-8328
jeg	-8329
lim	-8330
nat	-8331
ria	-8332
sla	-8333
tus	-8334
wan	-8335
yen	-8336
öld	-8337
öts	-8338
øra	-8339
▁05	-8340
▁08	-8341
▁79	-8342
▁95	-8343
▁DN	-8344
▁Gi	-8345
▁Ja	-8346
▁KI	-8347
▁Of	-8348
▁lj	-8349
▁rö	-8350
adel	-8351
anth	-8352
arta	-8353
chan	-8354
dags	-8355
egan	-8356
esta	-8357
ferd	-8358
fisk	-8359
gäng	-8360
haug	-8361
inas	-8362
inea	-8363
isem	-8364
kjer	-8365
llup	-8366
odes	-8367
opol	-8368
rapp	-8369
rien	-8370
rust	-8371
skid	-8372
uble	-8373
unge	-8374
vare	-8375
værk	-8376
▁160	-8377
▁168	-8378
▁Abd	-8379
▁Att	-8380
▁Bah	-8381
▁Bør	-8382
▁Gjø	-8383
▁Jeg	-8384
▁Kra	-8385
▁Lam	-8386
▁Lew	-8387
▁Lid	-8388
▁Någ	-8389
▁Odd	-8390
▁Ove	-8391
▁Ret	-8392
▁Rum	-8393
▁Sab	-8394
▁Tol	-8395
▁Tyr	-8396
▁etc	-8397
▁fad	-8398
▁fug	-8399
▁læn	-8400
▁nab	-8401
▁pod	-8402
▁rap	-8403
▁sil	-8404
▁tap	-8405
▁use	-8406
▁vej	-8407
▁vet	-8408
▁wik	-8409
▁änd	-8410
alace	-8411
andem	-8412
angel	-8413
bøker	-8414
elden	-8415
ferds	-8416
gaste	-8417
gelig	-8418
igert	-8419
ingsl	-8420
inter	-8421
ittel	-8422
iving	-8423
jande	-8424
ligan	-8425
onder	-8426
quist	-8427
ragte	-8428
reich	-8429
satte	-8430
uther	-8431
vaeus	-8432
våpen	-8433
ället	-8434
▁1896	-8435
▁Abbe	-8436
▁Adel	-8437
▁Berk	-8438
▁Eric	-8439
▁FIFA	-8440
▁Foss	-8441
▁Gary	-8442
▁Glad	-8443
▁Grek	-8444
▁Haug	-8445
▁Herm	-8446
▁Hiro	-8447
▁Hong	-8448
▁Hopp	-8449
▁Hugh	-8450
▁Hugo	-8451
▁Hund	-8452
▁Jess	-8453
▁Juni	-8454
▁Kate	-8455
▁Kent	-8456
▁Kors	-8457
▁Kurt	-8458
▁Like	-8459
▁Lord	-8460
▁Marc	-8461
▁Mont	-8462
▁Odin	-8463
▁Oran	-8464
▁Pers	-8465
▁Ruth	-8466
▁Ryan	-8467
▁Trav	-8468
▁Voss	-8469
▁bomb	-8470
▁bord	-8471
▁forg	-8472
▁free	-8473
▁gent	-8474
▁gjev	-8475
▁grek	-8476
▁jern	-8477
▁leia	-8478
▁magt	-8479
▁mord	-8480
▁peng	-8481
▁rikt	-8482
▁scor	-8483
▁slot	-8484
▁stam	-8485
▁tank	-8486
▁vare	-8487
borger	-8488
ckerna	-8489
delser	-8490
formen	-8491
icated	-8492
inemat	-8493
länder	-8494
nebrog	-8495
olding	-8496
rovers	-8497
skrift	-8498
though	-8499
ælland	-8500
▁Alban	-8501
▁Bille	-8502
▁Blues	-8503
▁COVID	-8504
▁Claus	-8505
▁Datab	-8506
▁Fried	-8507
▁Jason	-8508
▁Julie	-8509
▁Liste	-8510
▁Nobel	-8511
▁Pippi	-8512
▁Saman	-8513
▁Samma	-8514
▁Stand	-8515
▁Storm	-8516
▁Svein	-8517
▁There	-8518
▁Trent	-8519
▁Water	-8520
▁anled	-8521
▁bruka	-8522
▁deter	-8523
▁duoen	-8524
▁eigen	-8525
▁fleir	-8526
▁forma	-8527
▁helst	-8528
▁initi	-8529
▁knytt	-8530
▁samle	-8531
▁skisk	-8532
▁systr	-8533
▁techn	-8534
▁vansk	-8535
▁vinne	-8536
▁vunne	-8537
▁övrig	-8538
▁øyane	-8539
familie	-8540
finalen	-8541
gariket	-8542
heatret	-8543
iblandt	-8544
jylland	-8545
levende	-8546
prinsen	-8547
ropolit	-8548
yllands	-8549
▁Actors	-8550
▁Galile	-8551
▁Gregor	-8552
▁Ingvar	-8553
▁Jewish	-8554
▁Julius	-8555
▁Mellan	-8556
▁Nansen	-8557
▁Sangen	-8558
▁Svensk	-8559
▁Sydney	-8560
▁Walker	-8561
▁beslut	-8562
▁biroll	-8563
▁diplom	-8564
▁distin	-8565
▁domest	-8566
▁ekstra	-8567
▁elektr	-8568
▁erhöll	-8569
▁filmsk	-8570
▁fjärde	-8571
▁flytte	-8572
▁forlag	-8573
▁forlod	-8574
▁horror	-8575
▁hvorav	-8576
▁insats	-8577
▁kampen	-8578
▁kommit	-8579
▁listen	-8580
▁living	-8581
▁minutt	-8582
▁nesten	-8583
▁prædik	-8584
▁sitcom	-8585
▁sosial	-8586
▁symfon	-8587
▁terror	-8588
▁toppen	-8589
▁transl	-8590
▁venner	-8591
▁vundet	-8592
▁widely	-8593
kontrakt	-8594
servator	-8595
sättning	-8596
▁Belgien	-8597
▁Develop	-8598
▁Ireland	-8599
▁Litauen	-8600
▁Machine	-8601
▁Northug	-8602
▁Program	-8603
▁Romsdal	-8604
▁Salomon	-8605
▁Sellers	-8606
▁Solberg	-8607
▁Sventon	-8608
▁Tidende	-8609
▁Ulvaeus	-8610
▁current	-8611
▁derimot	-8612
▁identif	-8613
▁igennem	-8614
▁optaget	-8615
▁pianist	-8616
▁samling	-8617
▁språket	-8618
▁strateg	-8619
▁tilgjen	-8620
▁uppväxt	-8621
▁Database	-8622
▁DiCaprio	-8623
▁Herefter	-8624
▁Hospital	-8625
▁Kungliga	-8626
▁Majestæt	-8627
▁Mountain	-8628
▁ambassad	-8629
▁animated	-8630
▁anvendes	-8631
▁brothers	-8632
▁foreldre	-8633
▁formellt	-8634
▁forsvars	-8635
▁hinanden	-8636
▁innanfor	-8637
▁keyboard	-8638
▁komposit	-8639
▁mannlige	-8640
▁medaljer	-8641
▁overført	-8642
▁particip	-8643
▁position	-8644
▁selected	-8645
▁tillbaka	-8646
▁upptäckt	-8647
▁utviklet	-8648
festivalen	-8649
▁Argentina	-8650
▁Dannebrog	-8651
▁Derudover	-8652
▁Internett	-8653
▁Middleton	-8654
▁Nashville	-8655
▁Schneider	-8656
▁appearing	-8657
▁föräldrar	-8658
▁graduated	-8659
▁initially	-8660
▁officielt	-8661
▁provinsen	-8662
▁viktigste	-8663
▁egentligen	-8664
▁fastlandet	-8665
▁geografisk	-8666
▁jordskjelv	-8667
▁konfession	-8668
▁sangerinde	-8669
▁soloartist	-8670
▁temperatur	-8671
▁throughout	-8672
▁Development	-8673
▁Fredensborg	-8674
▁Springfield	-8675
▁Svartehavet	-8676
▁Westminster	-8677
▁begynnelsen	-8678
▁författaren	-8679
▁henholdsvis	-8680
▁nominerades	-8681
▁regjeringen	-8682
▁Kristiansand	-8683
▁biographical	-8684
▁konstitusjon	-8685
▁respectively	-8686
▁verdsmeister	-8687
▁Frederiksborg	-8688
▁representerte	-8689
▁tekstforfatter	-8690
▁internationella	-8691
▁konfessionarius	-8692
▁premiärminister	-8693
ca	-8694
hi	-8695
jr	-8696
ni	-8697
oe	-8698
vo	-8699
ón	-8700
ari	-8701
avy	-8702
cks	-8703
fab	-8704
fot	-8705
gas	-8706
gde	-8707
hre	-8708
høj	-8709
iti	-8710
ito	-8711
kap	-8712
lio	-8713
nor	-8714
näs	-8715
oku	-8716
oli	-8717
rod	-8718
seg	-8719
sko	-8720
sti	-8721
uns	-8722
vek	-8723
väl	-8724
win	-8725
ämt	-8726
▁09	-8727
▁54	-8728
▁57	-8729
▁66	-8730
▁72	-8731
▁93	-8732
▁98	-8733
▁Bö	-8734
▁DC	-8735
▁DM	-8736
▁FA	-8737
▁Gn	-8738
▁IM	-8739
▁SS	-8740
▁Vå	-8741
▁vä	-8742
▁åp	-8743
amie	-8744
avor	-8745
clif	-8746
elva	-8747
enna	-8748
erar	-8749
erat	-8750
heit	-8751
imin	-8752
iple	-8753
isse	-8754
ksle	-8755
last	-8756
lene	-8757
ming	-8758
napp	-8759
pper	-8760
pres	-8761
rert	-8762
rogø	-8763
rupt	-8764
ston	-8765
tale	-8766
time	-8767
ttet	-8768
uell	-8769
umar	-8770
usal	-8771
utan	-8772
xter	-8773
æsen	-8774
ønns	-8775
▁101	-8776
▁136	-8777
▁163	-8778
▁Bat	-8779
▁Dyr	-8780
▁Dés	-8781
▁Fly	-8782
▁Hag	-8783
▁Him	-8784
▁Hög	-8785
▁Isl	-8786
▁Jun	-8787
▁Kun	-8788
▁Lag	-8789
▁Lah	-8790
▁Lan	-8791
▁NBC	-8792
▁Rud	-8793
▁Syn	-8794
▁Tes	-8795
▁Wen	-8796
▁arm	-8797
▁cer	-8798
▁dru	-8799
▁dår	-8800
▁fan	-8801
▁lad	-8802
▁løs	-8803
▁män	-8804
▁näm	-8805
▁opg	-8806
▁sak	-8807
▁spr	-8808
▁sum	-8809
▁vad	-8810
▁vak	-8811
▁väg	-8812
▁yrk	-8813
ansas	-8814
deleg	-8815
egnet	-8816
ektiv	-8817
enden	-8818
ender	-8819
errik	-8820
fjell	-8821
iende	-8822
ikter	-8823
ippet	-8824
irkus	-8825
ivile	-8826
kning	-8827
leren	-8828
oland	-8829
onsin	-8830
opper	-8831
ordan	-8832
rover	-8833
råkan	-8834
shand	-8835
valgt	-8836
yting	-8837
ænger	-8838
æsent	-8839
øtter	-8840
▁1100	-8841
▁1660	-8842
▁Alla	-8843
▁Axel	-8844
▁Bjør	-8845
▁Bull	-8846
▁Down	-8847
▁Even	-8848
▁Grön	-8849
▁Inga	-8850
▁Jule	-8851
▁Krag	-8852
▁Linz	-8853
▁Lion	-8854
▁Lise	-8855
▁Lyon	-8856
▁Mari	-8857
▁Mars	-8858
▁NTNU	-8859
▁Nass	-8860
▁Reed	-8861
▁That	-8862
▁Tolk	-8863
▁Tram	-8864
▁Trop	-8865
▁Ture	-8866
▁Tyrk	-8867
▁Wars	-8868
▁Wolf	-8869
▁cert	-8870
▁conv	-8871
▁coup	-8872
▁cult	-8873
▁doll	-8874
▁down	-8875
▁emer	-8876
▁ende	-8877
▁gård	-8878
▁hald	-8879
▁kære	-8880
▁lade	-8881
▁ling	-8882
▁lykk	-8883
▁lyst	-8884
▁ring	-8885
▁snab	-8886
▁symp	-8887
▁tilf	-8888
▁utom	-8889
▁vinn	-8890
ailand	-8891
cliffe	-8892
ensene	-8893
entzen	-8894
espill	-8895
instit	-8896
lemann	-8897
musikk	-8898
opatra	-8899
ottern	-8900
posten	-8901
skidåk	-8902
stream	-8903
ularly	-8904
vester	-8905
weight	-8906
▁Abbey	-8907
▁Aleks	-8908
▁Antar	-8909
▁Blant	-8910
▁Blood	-8911
▁Bonde	-8912
▁Chart	-8913
▁Child	-8914
▁China	-8915
▁Copen	-8916
▁Costa	-8917
▁Crowe	-8918
▁Fayed	-8919
▁Fødde	-8920
▁Guild	-8921
▁Guill	-8922
▁Hamar	-8923
▁Hindi	-8924
▁Larry	-8925
▁Lejon	-8926
▁Lewis	-8927
▁Lotta	-8928
▁Neder	-8929
▁Nokre	-8930
▁Oslof	-8931
▁Paret	-8932
▁Sidan	-8933
▁Sofie	-8934
▁Tomas	-8935
▁advok	-8936
▁aired	-8937
▁artar	-8938
▁atomb	-8939
▁autom	-8940
▁bedre	-8941
▁behöv	-8942
▁beveg	-8943
▁dager	-8944
▁dance	-8945
▁decid	-8946
▁delta	-8947
▁eigne	-8948
▁enten	-8949
▁flott	-8950
▁försö	-8951
▁gamal	-8952
▁gjeld	-8953
▁gjera	-8954
▁immig	-8955
▁kaldt	-8956
▁kanal	-8957
▁konse	-8958
▁label	-8959
▁moren	-8960
▁någon	-8961
▁overs	-8962
▁resul	-8963
▁skule	-8964
▁slags	-8965
▁släkt	-8966
▁stork	-8967
▁tromm	-8968
▁union	-8969
▁vises	-8970
▁works	-8971
▁Ørsta	-8972
achelor	-8973
amerika	-8974
aternal	-8975
grupper	-8976
ikasjon	-8977
ildring	-8978
jeneste	-8979
ortsett	-8980
ossible	-8981
plasser	-8982
skiftet	-8983
stundes	-8984
▁Bjerre	-8985
▁Guinea	-8986
▁Helmig	-8987
▁Kypros	-8988
▁Lovisa	-8989
▁Monica	-8990
▁Møller	-8991
▁Nicola	-8992
▁Oberst	-8993
▁Oliver	-8994
▁Palace	-8995
▁Ptolem	-8996
▁Second	-8997
▁Sprogø	-8998
▁Tobias	-8999
▁Travol	-9000
▁Winter	-9001
▁afsnit	-9002
▁annual	-9003
▁bakken	-9004
▁bruker	-9005
▁bygget	-9006
▁dannar	-9007
▁dynast	-9008
▁etappe	-9009
▁fadern	-9010
▁findes	-9011
▁formid	-9012
▁frivil	-9013
▁global	-9014
▁gongen	-9015
▁gratis	-9016
▁hjælpe	-9017
▁idrott	-9018
▁israel	-9019
▁kombin	-9020
▁pronun	-9021
▁scenen	-9022
▁singel	-9023
▁sønnen	-9024
▁tidigt	-9025
▁valdes	-9026
▁vocals	-9027
stedelen	-9028
▁Channel	-9029
▁Désirée	-9030
▁Guldbag	-9031
▁Jylland	-9032
▁Nordisk	-9033
▁Rowling	-9034
▁Sibylla	-9035
▁Special	-9036
▁attende	-9037
▁beskriv	-9038
▁bokstav	-9039
▁consist	-9040
▁eksamen	-9041
▁fashion	-9042
▁fødslen	-9043
▁install	-9044
▁klokken	-9045
▁koncert	-9046
▁korleis	-9047
▁ledende	-9048
▁lengste	-9049
▁militär	-9050
▁motsvar	-9051
▁musikar	-9052
▁reality	-9053
▁retning	-9054
▁romaner	-9055
▁semifin	-9056
▁skriver	-9057
▁stadium	-9058
▁stammar	-9059
▁trommer	-9060
▁utanfor	-9061
▁vanlege	-9062
▁världsc	-9063
servative	-9064
▁Allerede	-9065
▁Division	-9066
▁Familien	-9067
▁Færøyane	-9068
▁Ingeborg	-9069
▁Kristina	-9070
▁Kroatien	-9071
▁Michelle	-9072
▁Oppvekst	-9073
▁Rogaland	-9074
▁Roskilde	-9075
▁Southern	-9076
▁Svendsen	-9077
▁Thailand	-9078
▁Wahlgren	-9079
▁arbeidde	-9080
▁arbejdet	-9081
▁artiklen	-9082
▁barnbarn	-9083
▁bildades	-9084
▁brukarar	-9085
▁children	-9086
▁composed	-9087
▁industry	-9088
▁intellig	-9089
▁material	-9090
▁monarker	-9091
▁optrådte	-9092
▁recorded	-9093
▁regarded	-9094
▁replaced	-9095
▁spelades	-9096
▁strekker	-9097
▁tjeneste	-9098
▁träffade	-9099
▁vinteren	-9100
harmoniker	-9101
▁Barcelona	-9102
▁Innlandet	-9103
▁Lorentzen	-9104
▁Louisiana	-9105
▁Nordsjøen	-9106
▁Oldenburg	-9107
▁Radcliffe	-9108
▁Skandinav	-9109
▁Tasmanien	-9110
▁austerrik	-9111
▁kommunane	-9112
▁political	-9113
▁selvstænd	-9114
▁underhåll	-9115
▁utbildade	-9116
▁utdanning	-9117
▁Østlandet	-9118
▁Copenhagen	-9119
▁Kristensen	-9120
▁Kristiania	-9121
▁Lillestrøm	-9122
▁Luxembourg	-9123
▁considered	-9124
▁dokumentar	-9125
▁dronninger	-9126
▁earthquake	-9127
▁frontfigur	-9128
▁kvinnelige	-9129
▁trommeslag	-9130
eteorologisk	-9131
▁Productions	-9132
▁photography	-9133
▁världscupen	-9134
▁tradisjonelt	-9135
▁Kristofferson	-9136
▁middelalderen	-9137
▁skådespelarna	-9138
IV	-9139
dd	-9140
læ	-9141
sä	-9142
ال	-9143
ado	-9144
aku	-9145
alo	-9146
aul	-9147
bäv	-9148
cci	-9149
cka	-9150
fat	-9151
ieg	-9152
oot	-9153
oro	-9154
ová	-9155
sst	-9156
sök	-9157
ärn	-9158
årt	-9159
▁03	-9160
▁53	-9161
▁59	-9162
▁68	-9163
▁83	-9164
▁89	-9165
▁Hä	-9166
▁Hö	-9167
▁Mi	-9168
▁NO	-9169
▁Ri	-9170
▁SI	-9171
▁Va	-9172
▁WW	-9173
▁XV	-9174
▁kg	-9175
▁lø	-9176
▁mö	-9177
▁Ål	-9178
▁Ås	-9179
▁äm	-9180
anon	-9181
apen	-9182
away	-9183
edel	-9184
edie	-9185
elve	-9186
erto	-9187
etes	-9188
gick	-9189
ialt	-9190
ibet	-9191
ices	-9192
ideo	-9193
ifer	-9194
inar	-9195
ises	-9196
jakk	-9197
kall	-9198
leks	-9199
leys	-9200
omma	-9201
phia	-9202
rash	-9203
read	-9204
sche	-9205
show	-9206
skol	-9207
sund	-9208
tida	-9209
uled	-9210
umer	-9211
wart	-9212
work	-9213
øgte	-9214
▁120	-9215
▁145	-9216
▁155	-9217
▁900	-9218
▁AFC	-9219
▁Alp	-9220
▁Ash	-9221
▁Cre	-9222
▁Edu	-9223
▁Eid	-9224
▁Eno	-9225
▁Get	-9226
▁Gri	-9227
▁Gyp	-9228
▁ISO	-9229
▁Ish	-9230
▁Jay	-9231
▁Las	-9232
▁Leo	-9233
▁Mur	-9234
▁Nya	-9235
▁Sem	-9236
▁Skj	-9237
▁Sur	-9238
▁avl	-9239
▁bör	-9240
▁cas	-9241
▁dit	-9242
▁elv	-9243
▁gør	-9244
▁hur	-9245
▁hål	-9246
▁idé	-9247
▁kur	-9248
▁kör	-9249
▁les	-9250
▁løy	-9251
▁mun	-9252
▁naz	-9253
▁oss	-9254
▁pjä	-9255
▁soc	-9256
▁øen	-9257
akota	-9258
aktör	-9259
aling	-9260
anten	-9261
artal	-9262
asaki	-9263
astro	-9264
betet	-9265
bolag	-9266
cupen	-9267
earch	-9268
föret	-9269
gräns	-9270
ician	-9271
ikael	-9272
isere	-9273
ivert	-9274
klubb	-9275
krets	-9276
kunst	-9277
opold	-9278
oppet	-9279
osing	-9280
ountb	-9281
rades	-9282
ribed	-9283
risen	-9284
stånd	-9285
tiden	-9286
union	-9287
usdal	-9288
ørdag	-9289
▁1848	-9290
▁1859	-9291
▁1870	-9292
▁1892	-9293
▁1904	-9294
▁1914	-9295
▁Ahle	-9296
▁Anka	-9297
▁Bare	-9298
▁Bent	-9299
▁Bron	-9300
▁Bryg	-9301
▁Dark	-9302
▁Dato	-9303
▁Falk	-9304
▁Fogh	-9305
▁Form	-9306
▁Fort	-9307
▁Gade	-9308
▁Gott	-9309
▁Gren	-9310
▁Grev	-9311
▁Gyld	-9312
▁Half	-9313
▁Happ	-9314
▁Last	-9315
▁Lena	-9316
▁Linn	-9317
▁Luft	-9318
▁Lång	-9319
▁Made	-9320
▁Marg	-9321
▁Moss	-9322
▁Nett	-9323
▁Niro	-9324
▁Oluf	-9325
▁Pern	-9326
▁Plan	-9327
▁Rain	-9328
▁Rasp	-9329
▁Ryss	-9330
▁Shel	-9331
▁Teck	-9332
▁Vill	-9333
▁Vlad	-9334
▁Week	-9335
▁besø	-9336
▁body	-9337
▁brig	-9338
▁date	-9339
▁diam	-9340
▁flyt	-9341
▁fløy	-9342
▁gjør	-9343
▁göra	-9344
▁hjer	-9345
▁idag	-9346
▁idet	-9347
▁kust	-9348
▁livs	-9349
▁love	-9350
▁male	-9351
▁ment	-9352
▁midn	-9353
▁målt	-9354
▁next	-9355
▁påst	-9356
▁radi	-9357
▁rema	-9358
▁send	-9359
▁skab	-9360
▁span	-9361
▁styl	-9362
▁säga	-9363
▁ting	-9364
▁trag	-9365
▁trio	-9366
▁trol	-9367
▁venn	-9368
▁youn	-9369
agelse	-9370
ansett	-9371
blemer	-9372
bridge	-9373
engene	-9374
erande	-9375
gjorde	-9376
idrett	-9377
konomi	-9378
krigen	-9379
kråkan	-9380
kysten	-9381
ningst	-9382
produs	-9383
ribent	-9384
staver	-9385
undtra	-9386
uprenn	-9387
ästare	-9388
ørende	-9389
▁Agnet	-9390
▁Alger	-9391
▁Apple	-9392
▁Arena	-9393
▁Death	-9394
▁Falun	-9395
▁Fargo	-9396
▁Feder	-9397
▁Fisch	-9398
▁Hawai	-9399
▁Helin	-9400
▁Hilde	-9401
▁Hotel	-9402
▁Konst	-9403
▁Kunst	-9404
▁Lippe	-9405
▁Medal	-9406
▁Moore	-9407
▁Myhre	-9408
▁Natas	-9409
▁Orden	-9410
▁Stork	-9411
▁Strøm	-9412
▁Vegas	-9413
▁Wrest	-9414
▁adopt	-9415
▁aften	-9416
▁almin	-9417
▁anerk	-9418
▁auton	-9419
▁berøm	-9420
▁brand	-9421
▁break	-9422
▁brugt	-9423
▁bytte	-9424
▁bøger	-9425
▁børne	-9426
▁chang	-9427
▁därpå	-9428
▁estim	-9429
▁every	-9430
▁guest	-9431
▁hebra	-9432
▁indel	-9433
▁innte	-9434
▁jorda	-9435
▁klima	-9436
▁kompl	-9437
▁linje	-9438
▁lived	-9439
▁løbet	-9440
▁neste	-9441
▁owned	-9442
▁plays	-9443
▁princ	-9444
▁præst	-9445
▁sched	-9446
▁sende	-9447
▁sider	-9448
▁solok	-9449
▁south	-9450
▁stoff	-9451
▁styrt	-9452
▁størr	-9453
▁sådan	-9454
▁tross	-9455
▁tving	-9456
▁using	-9457
▁utgje	-9458
▁varme	-9459
▁vider	-9460
▁vinna	-9461
▁watch	-9462
▁Århus	-9463
▁ældre	-9464
arriket	-9465
ference	-9466
formand	-9467
förande	-9468
istiska	-9469
ksamhet	-9470
medalje	-9471
orthern	-9472
ringham	-9473
stående	-9474
▁Advent	-9475
▁Bonnie	-9476
▁Cardin	-9477
▁Center	-9478
▁Comedy	-9479
▁Enligt	-9480
▁Fadern	-9481
▁Gjøvik	-9482
▁Harlem	-9483
▁Helene	-9484
▁Holger	-9485
▁Idrett	-9486
▁Ingolf	-9487
▁Kalmar	-9488
▁Mikael	-9489
▁Morten	-9490
▁Mountb	-9491
▁Nasjon	-9492
▁Newton	-9493
▁Olsson	-9494
▁Origin	-9495
▁People	-9496
▁Pommer	-9497
▁Ragnar	-9498
▁Renner	-9499
▁Schwar	-9500
▁Sesong	-9501
▁Songen	-9502
▁Sverre	-9503
▁Tyrkia	-9504
▁advent	-9505
▁arrest	-9506
▁direkt	-9507
▁examen	-9508
▁förhål	-9509
▁högsta	-9510
▁hösten	-9511
▁idrett	-9512
▁ingick	-9513
▁jødisk	-9514
▁kriget	-9515
▁kungen	-9516
▁mindst	-9517
▁mottok	-9518
▁muslim	-9519
▁office	-9520
▁oftest	-9521
▁police	-9522
▁presse	-9523
▁provid	-9524
▁reklam	-9525
▁skotsk	-9526
▁solist	-9527
▁spesif	-9528
▁stilen	-9529
▁styrke	-9530
▁termin	-9531
▁throne	-9532
▁tjänst	-9533
▁trådte	-9534
▁vendte	-9535
länderna	-9536
regionen	-9537
▁Barbara	-9538
▁Britain	-9539
▁Classic	-9540
▁Clausen	-9541
▁Denmark	-9542
▁Folkete	-9543
▁Germany	-9544
▁However	-9545
▁Landets	-9546
▁Matador	-9547
▁Pacific	-9548
▁Poulsen	-9549
▁Salming	-9550
▁Seattle	-9551
▁Stewart	-9552
▁artists	-9553
▁brought	-9554
▁contain	-9555
▁distrib	-9556
▁diverse	-9557
▁komedie	-9558
▁limited	-9559
▁nordøst	-9560
▁omdirig	-9561
▁opnåede	-9562
▁opvækst	-9563
▁romanen	-9564
▁stundom	-9565
▁svenskt	-9566
▁teatret	-9567
▁tilsett	-9568
▁tiltale	-9569
▁viktige	-9570
▁writing	-9571
▁younger	-9572
▁äventyr	-9573
▁økonomi	-9574
ssenteret	-9575
▁Albummet	-9576
▁Birgitta	-9577
▁Cornelis	-9578
▁Därefter	-9579
▁Forenede	-9580
▁Nørgaard	-9581
▁Phillips	-9582
▁Politisk	-9583
▁Samtidig	-9584
▁Sommaren	-9585
▁arbejder	-9586
▁comedian	-9587
▁consists	-9588
▁flaggdag	-9589
▁forbunds	-9590
▁genomför	-9591
▁grundlov	-9592
▁ingeniør	-9593
▁innenfor	-9594
▁intervju	-9595
▁katolske	-9596
▁kriminal	-9597
▁leksikon	-9598
▁liknande	-9599
▁motstand	-9600
▁multiple	-9601
▁någonsin	-9602
▁overgang	-9603
▁prosjekt	-9604
▁repræsen	-9605
▁residens	-9606
▁resultat	-9607
▁samtliga	-9608
▁sketchen	-9609
▁sprinten	-9610
▁utgjorde	-9611
instruktør	-9612
orporation	-9613
produksjon	-9614
respondent	-9615
▁Ahlefeldt	-9616
▁Churchill	-9617
▁Frederick	-9618
▁Frederiks	-9619
▁Gyldendal	-9620
▁Tidligere	-9621
▁beginning	-9622
▁kommunene	-9623
▁musikalsk	-9624
▁människor	-9625
▁nasjonald	-9626
▁originalt	-9627
▁permanent	-9628
▁portrayal	-9629
▁releasing	-9630
▁samfunnet	-9631
▁versjonen	-9632
▁äktenskap	-9633
sprogrammet	-9634
▁Foundation	-9635
▁Kongeriget	-9636
▁Regeringen	-9637
▁Revolution	-9638
▁Saltkråkan	-9639
▁Strömstedt	-9640
▁adaptation	-9641
▁filmatiser	-9642
▁folkegrupp	-9643
▁foreldrene	-9644
▁heriblandt	-9645
▁hertuginde	-9646
▁indbyggere	-9647
▁inkluderer	-9648
▁kategorien	-9649
▁mainstream	-9650
▁nordsamisk	-9651
▁utbildning	-9652
▁økonomiske	-9653
▁Christiania	-9654
▁Fredrikstad	-9655
▁Mountbatten	-9656
▁Sandringham	-9657
▁Skuespiller	-9658
▁Stillehavet	-9659
▁distributed	-9660
▁established	-9661
▁influential	-9662
▁informasjon	-9663
▁kommentator	-9664
▁längdskidåk	-9665
▁personality	-9666
▁henvisninger	-9667
▁skuespillere	-9668
▁Östergötland	-9669
▁Nederländerna	-9670
▁skuespilleren	-9671
▁internationale	-9672
▁radioprogrammet	-9673
22	-9674
AS	-9675
EN	-9676
mi	-9677
su	-9678
vd	-9679
yo	-9680
ür	-9681
acy	-9682
avl	-9683
aye	-9684
bud	-9685
cca	-9686
ebo	-9687
ega	-9688
elf	-9689
ety	-9690
evn	-9691
hea	-9692
hug	-9693
ify	-9694
kal	-9695
mas	-9696
ods	-9697
okn	-9698
oor	-9699
pte	-9700
rep	-9701
slä	-9702
tog	-9703
tra	-9704
wer	-9705
ydd	-9706
ält	-9707
▁04	-9708
▁06	-9709
▁Fu	-9710
▁Hu	-9711
▁NS	-9712
▁Ug	-9713
▁ag	-9714
▁bj	-9715
▁ka	-9716
▁va	-9717
▁ök	-9718
agar	-9719
aged	-9720
aghy	-9721
amet	-9722
antz	-9723
asje	-9724
bury	-9725
døde	-9726
elde	-9727
fekt	-9728
foss	-9729
gard	-9730
holt	-9731
iers	-9732
ilar	-9733
isha	-9734
kins	-9735
kkar	-9736
ksem	-9737
mosf	-9738
navn	-9739
ners	-9740
omic	-9741
otto	-9742
ouch	-9743
ques	-9744
rari	-9745
rykk	-9746
skom	-9747
spil	-9748
till	-9749
uelt	-9750
ugos	-9751
ured	-9752
uren	-9753
uthi	-9754
veka	-9755
verv	-9756
värd	-9757
yske	-9758
änts	-9759
ärde	-9760
æger	-9761
ølve	-9762
ønik	-9763
ører	-9764
▁115	-9765
▁141	-9766
▁167	-9767
▁Alf	-9768
▁Fur	-9769
▁Gas	-9770
▁Had	-9771
▁Ice	-9772
▁Ike	-9773
▁Kid	-9774
▁Lav	-9775
▁McG	-9776
▁Nov	-9777
▁Nyt	-9778
▁Orc	-9779
▁Pra	-9780
▁Råd	-9781
▁Sjø	-9782
▁Spe	-9783
▁Sud	-9784
▁Søs	-9785
▁Ted	-9786
▁Tje	-9787
▁Tok	-9788
▁Tot	-9789
▁Vig	-9790
▁Väl	-9791
▁Who	-9792
▁Wid	-9793
▁air	-9794
▁bal	-9795
▁ban	-9796
▁bom	-9797
▁cru	-9798
▁fal	-9799
▁frø	-9800
▁hid	-9801
▁hip	-9802
▁how	-9803
▁jäm	-9804
▁lyr	-9805
▁may	-9806
▁mig	-9807
▁påb	-9808
▁rød	-9809
▁san	-9810
▁saw	-9811
▁sko	-9812
▁spl	-9813
▁såg	-9814
▁vul	-9815
ading	-9816
aktär	-9817
amnet	-9818
anken	-9819
edans	-9820
essig	-9821
fødte	-9822
geren	-9823
giver	-9824
hamed	-9825
icoot	-9826
igste	-9827
kraft	-9828
levde	-9829
miljø	-9830
offic	-9831
orary	-9832
orgon	-9833
rater	-9834
reger	-9835
resse	-9836
rosso	-9837
shavn	-9838
smenn	-9839
ssjef	-9840
stone	-9841
terne	-9842
unnen	-9843
urred	-9844
usine	-9845
valet	-9846
venth	-9847
viger	-9848
äknas	-9849
▁1300	-9850
▁1818	-9851
▁1898	-9852
▁Balt	-9853
▁Bost	-9854
▁Boys	-9855
▁Capp	-9856
▁Crit	-9857
▁Dead	-9858
▁Deep	-9859
▁Døde	-9860
▁Etym	-9861
▁Fall	-9862
▁Fraf	-9863
▁Gall	-9864
▁Gård	-9865
▁Iver	-9866
▁Jazz	-9867
▁Jenn	-9868
▁Lanc	-9869
▁Lock	-9870
▁Roma	-9871
▁Schl	-9872
▁Snow	-9873
▁Stef	-9874
▁Svan	-9875
▁Sølv	-9876
▁Vend	-9877
▁Vinn	-9878
▁Wood	-9879
▁acqu	-9880
▁bäst	-9881
▁comm	-9882
▁cred	-9883
▁dart	-9884
▁drag	-9885
▁døgn	-9886
▁enev	-9887
▁euro	-9888
▁gran	-9889
▁heir	-9890
▁hens	-9891
▁jarn	-9892
▁kart	-9893
▁kast	-9894
▁kona	-9895
▁käll	-9896
▁lige	-9897
▁lyss	-9898
▁måle	-9899
▁olje	-9900
▁oppg	-9901
▁park	-9902
▁pens	-9903
▁psyk	-9904
▁sagt	-9905
▁sann	-9906
▁sjef	-9907
▁strå	-9908
▁syng	-9909
▁takt	-9910
▁tala	-9911
▁tent	-9912
▁veks	-9913
aktion	-9914
avisen	-9915
bejder	-9916
berett	-9917
borgar	-9918
delsen	-9919
dommen	-9920
edømme	-9921
father	-9922
føring	-9923
iserer	-9924
ission	-9925
lavien	-9926
lement	-9927
ningom	-9928
onsert	-9929
otland	-9930
rossen	-9931
sdelar	-9932
skaper	-9933
skende	-9934
staten	-9935
staven	-9936
styrke	-9937
usalem	-9938
valgte	-9939
▁Annie	-9940
▁Baden	-9941
▁Berit	-9942
▁Betty	-9943
▁Bobby	-9944
▁Cohen	-9945
▁Color	-9946
▁Dessa	-9947
▁Disse	-9948
▁Domin	-9949
▁Every	-9950
▁Force	-9951
▁Genom	-9952
▁Gnags	-9953
▁Imper	-9954
▁Ingen	-9955
▁Jugos	-9956
▁Lager	-9957
▁Monte	-9958
▁Natur	-9959
▁Never	-9960
▁Några	-9961
▁Patri	-9962
▁Reder	-9963
▁Roald	-9964
▁Scene	-9965
▁Short	-9966
▁Sibir	-9967
▁Sjølv	-9968
▁Solna	-9969
▁Stall	-9970
▁Tyler	-9971
▁arter	-9972
▁assoc	-9973
▁beröm	-9974
▁bevar	-9975
▁claim	-9976
▁condu	-9977
▁conne	-9978
▁contr	-9979
▁endte	-9980
▁entre	-9981
▁favor	-9982
▁firma	-9983
▁flykt	-9984
▁focus	-9985
▁forel	-9986
▁fritt	-9987
▁gjest	-9988
▁kolle	-9989
▁navne	-9990
▁nedst	-9991
▁occas	-9992
▁prega	-9993
▁rolla	-9994
▁round	-9995
▁skala	-9996
▁skipa	-9997
▁spons	-9998
▁synge	-9999
▁söner	-10000
▁these	-10001
▁utbre	-10002
▁utmär	-10003
▁utnem	-10004
▁whose	-10005
▁yrkes	-10006
atarina	-10007
bolaget	-10008
ciation	-10009
enteret	-10010
esongen	-10011
fecture	-10012
illings	-10013
imately	-10014
klassen	-10015
ksjonar	-10016
ordning	-10017
værdige	-10018
▁Athena	-10019
▁Dagens	-10020
▁Dakota	-10021
▁Elling	-10022
▁Girona	-10023
▁Hunter	-10024
▁Kanada	-10025
▁Libert	-10026
▁Lyngby	-10027
▁Madrid	-10028
▁Matoma	-10029
▁Medlem	-10030
▁Mickey	-10031
▁Miller	-10032
▁Office	-10033
▁Posten	-10034
▁Shelby	-10035
▁Sussex	-10036
▁Verden	-10037
▁arbete	-10038
▁behövs	-10039
▁brødre	-10040
▁bøkene	-10041
▁därför	-10042
▁filmar	-10043
▁finish	-10044
▁fiolin	-10045
▁formål	-10046
▁future	-10047
▁förlor	-10048
▁fødsel	-10049
▁følgje	-10050
▁ganske	-10051
▁gifter	-10052
▁grønne	-10053
▁harmon	-10054
▁hvoraf	-10055
▁inngår	-10056
▁innlem	-10057
▁kolleg	-10058
▁kunstn	-10059
▁leader	-10060
▁lineup	-10061
▁maskin	-10062
▁meldte	-10063
▁mitten	-10064
▁moving	-10065
▁opført	-10066
▁platin	-10067
▁praise	-10068
▁profil	-10069
▁samisk	-10070
▁siffer	-10071
▁skedde	-10072
▁sketch	-10073
▁styres	-10074
▁tidiga	-10075
▁titled	-10076
▁trilog	-10077
▁utøver	-10078
▁övriga	-10079
adelphia	-10080
agnitude	-10081
forening	-10082
ingeniør	-10083
stemning	-10084
ærlighed	-10085
▁Aukland	-10086
▁Bernard	-10087
▁Claudia	-10088
▁Donaghy	-10089
▁Ferrari	-10090
▁Granger	-10091
▁Islands	-10092
▁Italian	-10093
▁Jelling	-10094
▁Juliana	-10095
▁Jönsson	-10096
▁Leopold	-10097
▁Lundell	-10098
▁Malmsjö	-10099
▁Mission	-10100
▁Mohamed	-10101
▁Norfolk	-10102
▁Pommern	-10103
▁Serbien	-10104
▁Sprogøe	-10105
▁Stanley	-10106
▁advokat	-10107
▁afslutt	-10108
▁ansatte	-10109
▁arbeidd	-10110
▁bandets	-10111
▁baseret	-10112
▁bestemt	-10113
▁bildade	-10114
▁ceremon	-10115
▁dottern	-10116
▁eigedom	-10117
▁ekstrem	-10118
▁fjellet	-10119
▁fortsat	-10120
▁gestalt	-10121
▁longest	-10122
▁længere	-10123
▁nærings	-10124
▁opgaver	-10125
▁oppstod	-10126
▁partier	-10127
▁primært	-10128
▁prosent	-10129
▁registr	-10130
▁running	-10131
▁statist	-10132
▁sørlege	-10133
▁tekster	-10134
▁tjenest	-10135
▁videreg	-10136
▁Øystein	-10137
forsvaret	-10138
▁Atlantic	-10139
▁Birgitte	-10140
▁Dramaten	-10141
▁Einstein	-10142
▁Erichsen	-10143
▁Familjen	-10144
▁Frafjord	-10145
▁Ingrosso	-10146
▁Jyllands	-10147
▁Lawrence	-10148
▁Schwerin	-10149
▁Travolta	-10150
▁anställd	-10151
▁arbeider	-10152
▁arkitekt	-10153
▁artikkel	-10154
▁arverett	-10155
▁astronom	-10156
▁backhopp	-10157
▁bakgrund	-10158
▁commonly	-10159
▁competed	-10160
▁contract	-10161
▁framträd	-10162
▁følgende	-10163
▁grevskap	-10164
▁grunnlov	-10165
▁handling	-10166
▁imperiet	-10167
▁jubileum	-10168
▁kinesisk	-10169
▁kongelig	-10170
▁kulturar	-10171
▁luftskip	-10172
▁oppretta	-10173
▁populært	-10174
▁regissør	-10175
▁sentralt	-10176
▁soundtra	-10177
▁spørsmål	-10178
▁startade	-10179
▁wrestler	-10180
▁Østerbro	-10181
▁österrik	-10182
▁østerrik	-10183
debuterade	-10184
▁Antarktis	-10185
▁Friedrich	-10186
▁Gregorian	-10187
▁Hendingar	-10188
▁Jerusalem	-10189
▁Nationale	-10190
▁arveprins	-10191
▁barnebarn	-10192
▁beskriver	-10193
▁continued	-10194
▁currently	-10195
▁filmmaker	-10196
▁forveksle	-10197
▁interesse	-10198
▁kontinent	-10199
▁nasjonale	-10200
▁nasjonals	-10201
▁republikk	-10202
▁småningom	-10203
▁studerede	-10204
▁sångerska	-10205
▁tillbring	-10206
▁tävlingen	-10207
▁återvände	-10208
▁Journalist	-10209
▁Vestlandet	-10210
▁abdikation	-10211
▁biopremiär	-10212
▁dramatiker	-10213
▁efterfulgt	-10214
▁exempelvis	-10215
▁government	-10216
▁kompositör	-10217
▁kongeriket	-10218
▁overgangen	-10219
▁popularity	-10220
▁portraying	-10221
▁produktion	-10222
▁regjeringa	-10223
▁verdscupen	-10224
▁Hammarström	-10225
▁Jugoslavien	-10226
▁Republikken	-10227
▁geografiske	-10228
▁grandfather	-10229
▁inspiration	-10230
▁installment	-10231
▁regisserade	-10232
▁statsborger	-10233
▁tilldelades	-10234
▁pornographic	-10235
▁radioprogram	-10236
▁universitets	-10237
▁pronunciation	-10238
▁fotballspiller	-10239
▁statsoverhoved	-10240
▁underholdnings	-10241
DO	-10242
EW	-10243
TC	-10244
rd	-10245
adu	-10246
akh	-10247
ams	-10248
arr	-10249
auk	-10250
bon	-10251
cen	-10252
cho	-10253
cia	-10254
cke	-10255
eie	-10256
eli	-10257
fal	-10258
gem	-10259
hub	-10260
kor	-10261
lam	-10262
lat	-10263
låt	-10264
mes	-10265
oly	-10266
ple	-10267
ppe	-10268
rah	-10269
rej	-10270
räd	-10271
sjø	-10272
täl	-10273
uez	-10274
uke	-10275
ump	-10276
urb	-10277
vey	-10278
ynt	-10279
älj	-10280
öse	-10281
▁AF	-10282
▁CD	-10283
▁Dy	-10284
▁Ev	-10285
▁Fi	-10286
▁If	-10287
▁MC	-10288
▁Ru	-10289
▁Tu	-10290
▁Tv	-10291
▁fø	-10292
▁gi	-10293
▁if	-10294
▁ja	-10295
▁kö	-10296
▁um	-10297
▁yt	-10298
abad	-10299
aded	-10300
ancy	-10301
anic	-10302
atom	-10303
ause	-10304
aver	-10305
avis	-10306
bane	-10307
bell	-10308
blod	-10309
botn	-10310
come	-10311
dorf	-10312
edyr	-10313
ends	-10314
erty	-10315
halv	-10316
iami	-10317
iano	-10318
ilyn	-10319
imov	-10320
jobb	-10321
kkel	-10322
lock	-10323
lyck	-10324
lägg	-10325
mina	-10326
odor	-10327
okko	-10328
olds	-10329
olis	-10330
onna	-10331
ours	-10332
ragt	-10333
reds	-10334
rock	-10335
seln	-10336
sene	-10337
står	-10338
unga	-10339
vice	-10340
ways	-10341
yria	-10342
åten	-10343
över	-10344
▁110	-10345
▁166	-10346
▁700	-10347
▁CET	-10348
▁Cat	-10349
▁Clo	-10350
▁DNB	-10351
▁Dor	-10352
▁Fon	-10353
▁Fox	-10354
▁Jol	-10355
▁Kas	-10356
▁Ler	-10357
▁Lof	-10358
▁Lon	-10359
▁Mun	-10360
▁Mål	-10361
▁Nes	-10362
▁Ray	-10363
▁Sax	-10364
▁Sot	-10365
▁UFC	-10366
▁UTC	-10367
▁Våg	-10368
▁Wol	-10369
▁Zia	-10370
▁bog	-10371
▁did	-10372
▁duo	-10373
▁föl	-10374
▁gul	-10375
▁ins	-10376
▁lei	-10377
▁lod	-10378
▁næv	-10379
▁opk	-10380
▁ple	-10381
▁sax	-10382
▁tev	-10383
▁tip	-10384
▁ult	-10385
▁ære	-10386
allas	-10387
antag	-10388
asakh	-10389
athan	-10390
brans	-10391
crona	-10392
danna	-10393
datab	-10394
ellef	-10395
ences	-10396
ertal	-10397
esjon	-10398
esson	-10399
fødde	-10400
hovud	-10401
iblio	-10402
ikale	-10403
inert	-10404
ische	-10405
jamin	-10406
kvart	-10407
lehem	-10408
neren	-10409
nskap	-10410
ollum	-10411
olmen	-10412
polit	-10413
rafik	-10414
riple	-10415
sjekt	-10416
smann	-10417
stead	-10418
tälje	-10419
usion	-10420
viste	-10421
▁1842	-10422
▁1849	-10423
▁1888	-10424
▁1911	-10425
▁Anim	-10426
▁Aven	-10427
▁Beha	-10428
▁Book	-10429
▁Buls	-10430
▁Chal	-10431
▁Chap	-10432
▁Dean	-10433
▁Doug	-10434
▁Egyp	-10435
▁Ekst	-10436
▁Elsa	-10437
▁Fern	-10438
▁Gard	-10439
▁Gill	-10440
▁Giro	-10441
▁Hart	-10442
▁Haus	-10443
▁Idol	-10444
▁Lost	-10445
▁Luke	-10446
▁Main	-10447
▁Male	-10448
▁Mort	-10449
▁Most	-10450
▁Navy	-10451
▁Nina	-10452
▁Nytt	-10453
▁Osen	-10454
▁Robb	-10455
▁Shar	-10456
▁Some	-10457
▁Soul	-10458
▁Stør	-10459
▁Tett	-10460
▁Tore	-10461
▁Törn	-10462
▁Ulla	-10463
▁anne	-10464
▁belä	-10465
▁city	-10466
▁dags	-10467
▁domp	-10468
▁drog	-10469
▁epic	-10470
▁felt	-10471
▁fril	-10472
▁frit	-10473
▁fund	-10474
▁gave	-10475
▁give	-10476
▁græn	-10477
▁komt	-10478
▁kore	-10479
▁lost	-10480
▁ober	-10481
▁olde	-10482
▁past	-10483
▁poet	-10484
▁ridd	-10485
▁sand	-10486
▁seie	-10487
▁shot	-10488
▁skad	-10489
▁sons	-10490
▁soul	-10491
▁spil	-10492
▁spre	-10493
▁stav	-10494
▁sund	-10495
▁synd	-10496
▁tema	-10497
▁teor	-10498
▁vand	-10499
▁viet	-10500
▁wiki	-10501
▁wins	-10502
▁Øres	-10503
▁øyer	-10504
allebl	-10505
draget	-10506
espite	-10507
følgje	-10508
gifter	-10509
gruppa	-10510
holdet	-10511
ilding	-10512
imeter	-10513
isborg	-10514
isemit	-10515
kinson	-10516
konkur	-10517
kontor	-10518
leiken	-10519
mother	-10520
orgrad	-10521
regiss	-10522
ruppen	-10523
skaber	-10524
stende	-10525
strong	-10526
terede	-10527
toppen	-10528
vement	-10529
▁Afton	-10530
▁Boine	-10531
▁Britt	-10532
▁Brook	-10533
▁Burns	-10534
▁Chand	-10535
▁Crazy	-10536
▁Crown	-10537
▁Eugen	-10538
▁Fanny	-10539
▁Films	-10540
▁Først	-10541
▁Grang	-10542
▁Gucci	-10543
▁Herre	-10544
▁Hjelm	-10545
▁Hovud	-10546
▁Inden	-10547
▁Islam	-10548
▁Jerry	-10549
▁Jimmy	-10550
▁Kring	-10551
▁Leeds	-10552
▁Lucas	-10553
▁Marsh	-10554
▁Mason	-10555
▁Miami	-10556
▁Money	-10557
▁Opera	-10558
▁Other	-10559
▁Putin	-10560
▁Rocky	-10561
▁Satur	-10562
▁Steph	-10563
▁Sweet	-10564
▁Three	-10565
▁anmel	-10566
▁bakke	-10567
▁benäm	-10568
▁bidra	-10569
▁black	-10570
▁bröll	-10571
▁byens	-10572
▁colle	-10573
▁conte	-10574
▁draft	-10575
▁drift	-10576
▁ektem	-10577
▁exist	-10578
▁finne	-10579
▁fored	-10580
▁funkt	-10581
▁goals	-10582
▁græsk	-10583
▁heter	-10584
▁hører	-10585
▁innsp	-10586
▁invit	-10587
▁krets	-10588
▁local	-10589
▁lyser	-10590
▁länge	-10591
▁masse	-10592
▁medie	-10593
▁mulig	-10594
▁north	-10595
▁parts	-10596
▁reign	-10597
▁retur	-10598
▁royal	-10599
▁salat	-10600
▁sidst	-10601
▁skatt	-10602
▁skikk	-10603
▁skjer	-10604
▁slett	-10605
▁slike	-10606
▁spele	-10607
▁stein	-10608
▁såvel	-10609
▁såväl	-10610
▁teikn	-10611
▁torsk	-10612
▁traff	-10613
▁turné	-10614
▁typar	-10615
▁water	-10616
▁zodia	-10617
andemic	-10618
biograf	-10619
bottens	-10620
eksamen	-10621
elserne	-10622
issippi	-10623
istrikt	-10624
kommere	-10625
legaste	-10626
områder	-10627
onessen	-10628
semedal	-10629
sångare	-10630
teatern	-10631
tenberg	-10632
▁Amalie	-10633
▁Austin	-10634
▁Boston	-10635
▁Butler	-10636
▁Gazast	-10637
▁Gerwen	-10638
▁Grevin	-10639
▁Helena	-10640
▁Hirosh	-10641
▁Morris	-10642
▁Nilsen	-10643
▁Nordir	-10644
▁Noregs	-10645
▁Norway	-10646
▁Ousdal	-10647
▁Parret	-10648
▁Ravens	-10649
▁Silver	-10650
▁Sommar	-10651
▁Sorgen	-10652
▁Spider	-10653
▁Staten	-10654
▁Stefan	-10655
▁Tellef	-10656
▁Triple	-10657
▁Valent	-10658
▁Vladim	-10659
▁adress	-10660
▁adskil	-10661
▁amatør	-10662
▁angive	-10663
▁anvend	-10664
▁arbets	-10665
▁awards	-10666
▁billed	-10667
▁degree	-10668
▁effekt	-10669
▁elleve	-10670
▁europæ	-10671
▁flesta	-10672
▁foster	-10673
▁följde	-10674
▁genres	-10675
▁gården	-10676
▁høsten	-10677
▁kaldes	-10678
▁konfir	-10679
▁konges	-10680
▁konkur	-10681
▁kontor	-10682
▁kvinna	-10683
▁ledare	-10684
▁lengst	-10685
▁liksom	-10686
▁lokalt	-10687
▁lyssna	-10688
▁metall	-10689
▁midler	-10690
▁morfar	-10691
▁norges	-10692
▁nyttar	-10693
▁panter	-10694
▁parall	-10695
▁peaked	-10696
▁produc	-10697
▁promot	-10698
▁påverk	-10699
▁ranger	-10700
▁regler	-10701
▁regnet	-10702
▁reiste	-10703
▁senest	-10704
▁skapte	-10705
▁skilsm	-10706
▁skriva	-10707
▁socken	-10708
▁starte	-10709
▁storby	-10710
▁sviger	-10711
▁taking	-10712
▁tsjekk	-10713
▁typisk	-10714
▁udsend	-10715
▁unions	-10716
▁Øyvind	-10717
historie	-10718
mesteren	-10719
overande	-10720
residens	-10721
▁Beckham	-10722
▁Branden	-10723
▁Carsten	-10724
▁Epstein	-10725
▁Fischer	-10726
▁Hermine	-10727
▁Holland	-10728
▁Hoppuka	-10729
▁Indiana	-10730
▁Liberty	-10731
▁Nicolas	-10732
▁Sandvik	-10733
▁Skolmen	-10734
▁Tolkien	-10735
▁Walther	-10736
▁arveret	-10737
▁attempt	-10738
▁avgrens	-10739
▁avslutt	-10740
▁betrakt	-10741
▁biograf	-10742
▁centrum	-10743
▁decades	-10744
▁entrepr	-10745
▁etniske	-10746
▁faderen	-10747
▁fjorden	-10748
▁friends	-10749
▁fylkene	-10750
▁företag	-10751
▁gjenopp	-10752
▁hvordan	-10753
▁høgaste	-10754
▁høyeste	-10755
▁initial	-10756
▁innehål	-10757
▁innflyt	-10758
▁innsats	-10759
▁innspel	-10760
▁intress	-10761
▁jordbäv	-10762
▁jødiske	-10763
▁kaptein	-10764
▁klockan	-10765
▁kristen	-10766
▁landene	-10767
▁lansert	-10768
▁medlems	-10769
▁morbror	-10770
▁navnene	-10771
▁nyttårs	-10772
▁offiser	-10773
▁omfatta	-10774
▁overall	-10775
▁populär	-10776
▁reklame	-10777
▁spilles	-10778
▁stjerne	-10779
▁studied	-10780
▁stykket	-10781
▁tillige	-10782
▁tituler	-10783
▁tsunami	-10784
▁tävling	-10785
▁visades	-10786
▁visited	-10787
assistent	-10788
▁Benjamin	-10789
▁Bernhard	-10790
▁Grönland	-10791
▁Hermione	-10792
▁Historik	-10793
▁Johansen	-10794
▁Lindgren	-10795
▁Rasputin	-10796
▁Rollista	-10797
▁Simonsen	-10798
▁Utlandet	-10799
▁Värmland	-10800
▁Westling	-10801
▁allereie	-10802
▁although	-10803
▁användes	-10804
▁bestemte	-10805
▁diplomat	-10806
▁document	-10807
▁domestic	-10808
▁ettersom	-10809
▁forlovet	-10810
▁founding	-10811
▁handball	-10812
▁kildehen	-10813
▁konflikt	-10814
▁kritiker	-10815
▁lykkedes	-10816
▁minutter	-10817
▁mytologi	-10818
▁palestin	-10819
▁pandemic	-10820
▁programm	-10821
▁påstande	-10822
▁religion	-10823
▁skildrar	-10824
▁stiftamt	-10825
▁stjerner	-10826
▁særskild	-10827
▁teateret	-10828
▁transfer	-10829
▁vestlege	-10830
▁vestlige	-10831
journalist	-10832
▁Cambridge	-10833
▁Christmas	-10834
▁Dramatens	-10835
▁Etymologi	-10836
▁Guldbagge	-10837
▁Gårdinger	-10838
▁Göteborgs	-10839
▁Politiken	-10840
▁Principal	-10841
▁Slovenien	-10842
▁abdiserte	-10843
▁anledning	-10844
▁australsk	-10845
▁beskrevet	-10846
▁demokrati	-10847
▁elevskola	-10848
▁fjernsyns	-10849
▁fremføres	-10850
▁generally	-10851
▁germanske	-10852
▁grunnlegg	-10853
▁initiativ	-10854
▁klassiske	-10855
▁lillebror	-10856
▁sammenslå	-10857
▁tidningen	-10858
▁transport	-10859
▁uavhengig	-10860
▁vitenskap	-10861
▁Foreldrene	-10862
▁Impossible	-10863
▁Oberstdorf	-10864
▁Referanser	-10865
▁Rossington	-10866
▁adskillige	-10867
▁betegnelse	-10868
▁dramatikar	-10869
▁dronningen	-10870
▁filmroller	-10871
▁generation	-10872
▁influenced	-10873
▁inneholder	-10874
▁låtskrivar	-10875
▁offentlige	-10876
▁regisserad	-10877
▁regjerende	-10878
▁revyartist	-10879
▁troværdige	-10880
▁Mississippi	-10881
▁Oslofjorden	-10882
▁arrangement	-10883
▁businessman	-10884
▁folkemusikk	-10885
▁hovudstaden	-10886
▁kammerherre	-10887
▁kontinentet	-10888
▁meisterskap	-10889
▁oprindeligt	-10890
▁samarbeidet	-10891
▁Philadelphia	-10892
▁austerrikske	-10893
▁forretningsm	-10894
▁organization	-10895
▁størstedelen	-10896
▁trommeslager	-10897
▁videregående	-10898
▁återkommande	-10899
▁Meteorologisk	-10900
▁framgångsrika	-10901
▁huvudrollerna	-10902
▁tradisjonelle	-10903
▁offentliggjort	-10904
▁utgangspunktet	-10905
▁Teaterhögskolan	-10906
▁statsministeren	-10907
AN	-10908
CC	-10909
GP	-10910
MS	-10911
RI	-10912
SS	-10913
ST	-10914
VP	-10915
ep	-10916
ex	-10917
ji	-10918
jo	-10919
ór	-10920
▁ə	-10921
CAA	-10922
aer	-10923
aps	-10924
byr	-10925
cis	-10926
din	-10927
esc	-10928
eta	-10929
gon	-10930
gör	-10931
hip	-10932
iko	-10933
ité	-10934
izu	-10935
jes	-10936
juk	-10937
jän	-10938
kår	-10939
lex	-10940
lyg	-10941
lös	-10942
oon	-10943
peg	-10944
ryd	-10945
sle	-10946
täv	-10947
uda	-10948
vre	-10949
väg	-10950
yns	-10951
åre	-10952
ærd	-10953
øyr	-10954
▁61	-10955
▁65	-10956
▁74	-10957
▁77	-10958
▁DO	-10959
▁GO	-10960
▁GP	-10961
▁Hv	-10962
▁IL	-10963
▁Ku	-10964
▁LO	-10965
▁Lj	-10966
▁SJ	-10967
▁XL	-10968
▁XX	-10969
▁il	-10970
▁kæ	-10971
▁mi	-10972
▁zo	-10973
▁ød	-10974
▁ال	-10975
Wiki	-10976
aleg	-10977
amas	-10978
andy	-10979
bein	-10980
bilt	-10981
brug	-10982
bygd	-10983
eare	-10984
ecca	-10985
eded	-10986
eley	-10987
ello	-10988
fald	-10989
fant	-10990
felt	-10991
fest	-10992
gata	-10993
grad	-10994
gået	-10995
iast	-10996
icts	-10997
ides	-10998
idit	-10999
iene	-11000
iets	-11001
ifrå	-11002
ikal	-11003
ique	-11004
iten	-11005
kvar	-11006
lara	-11007
mere	-11008
moen	-11009
nene	-11010
ogue	-11011
oney	-11012
oser	-11013
owbo	-11014
rets	-11015
rind	-11016
seud	-11017
toft	-11018
uron	-11019
usch	-11020
vens	-11021
vise	-11022
ware	-11023
yska	-11024
ytte	-11025
zona	-11026
▁156	-11027
▁Akt	-11028
▁Alm	-11029
▁Bos	-11030
▁Dog	-11031
▁FIS	-11032
▁Gig	-11033
▁Gil	-11034
▁Its	-11035
▁Jar	-11036
▁Jen	-11037
▁Lim	-11038
▁Lyd	-11039
▁Moe	-11040
▁Nev	-11041
▁Nix	-11042
▁Nær	-11043
▁Pia	-11044
▁Pyr	-11045
▁Raw	-11046
▁Rey	-11047
▁Rhe	-11048
▁Six	-11049
▁Ske	-11050
▁Sri	-11051
▁Sub	-11052
▁Ton	-11053
▁Vad	-11054
▁Web	-11055
▁bot	-11056
▁bøl	-11057
▁bøn	-11058
▁dræ	-11059
▁ess	-11060
▁fel	-11061
▁fol	-11062
▁hal	-11063
▁kam	-11064
▁kin	-11065
▁kro	-11066
▁lat	-11067
▁lej	-11068
▁møb	-11069
▁nob	-11070
▁ott	-11071
▁pat	-11072
▁pay	-11073
▁rak	-11074
▁spy	-11075
▁tän	-11076
▁tät	-11077
▁Åke	-11078
▁øer	-11079
adsen	-11080
afton	-11081
alifa	-11082
avdel	-11083
aware	-11084
bjerg	-11085
bolig	-11086
break	-11087
bruck	-11088
debut	-11089
dende	-11090
emang	-11091
endet	-11092
enser	-11093
ersom	-11094
foren	-11095
heden	-11096
house	-11097
iring	-11098
kkede	-11099
larna	-11100
linje	-11101
melig	-11102
nerte	-11103
ocrat	-11104
otisk	-11105
oukal	-11106
polen	-11107
remål	-11108
ronic	-11109
siden	-11110
skaff	-11111
skans	-11112
sling	-11113
sprin	-11114
stres	-11115
upert	-11116
uropa	-11117
urope	-11118
ussen	-11119
varen	-11120
verdi	-11121
väten	-11122
wards	-11123
worth	-11124
ytter	-11125
årige	-11126
ængst	-11127
▁1200	-11128
▁1448	-11129
▁1648	-11130
▁1707	-11131
▁1804	-11132
▁1837	-11133
▁1853	-11134
▁1860	-11135
▁1902	-11136
▁Avis	-11137
▁Baby	-11138
▁Bonn	-11139
▁Boss	-11140
▁Brow	-11141
▁Cann	-11142
▁Cath	-11143
▁Clem	-11144
▁Clin	-11145
▁Cool	-11146
▁Copp	-11147
▁Cost	-11148
▁Crow	-11149
▁Dals	-11150
▁Frin	-11151
▁Gamm	-11152
▁Gord	-11153
▁Haga	-11154
▁Hjem	-11155
▁Hoff	-11156
▁Hord	-11157
▁Inde	-11158
▁Inns	-11159
▁Jama	-11160
▁Jevn	-11161
▁Kaas	-11162
▁Kara	-11163
▁Kash	-11164
▁Kenn	-11165
▁Mest	-11166
▁Meta	-11167
▁More	-11168
▁Mosk	-11169
▁NCAA	-11170
▁Noen	-11171
▁Olga	-11172
▁Olle	-11173
▁Pitt	-11174
▁Siob	-11175
▁Skov	-11176
▁Sony	-11177
▁Spel	-11178
▁Spot	-11179
▁Ther	-11180
▁Town	-11181
▁USAs	-11182
▁Vind	-11183
▁Weng	-11184
▁aged	-11185
▁anal	-11186
▁auld	-11187
▁belg	-11188
▁expl	-11189
▁feil	-11190
▁fuld	-11191
▁gard	-11192
▁graf	-11193
▁gøre	-11194
▁hosp	-11195
▁isol	-11196
▁kass	-11197
▁klub	-11198
▁kome	-11199
▁kors	-11200
▁krog	-11201
▁leap	-11202
▁mekt	-11203
▁oppd	-11204
▁otte	-11205
▁papp	-11206
▁prøv	-11207
▁pund	-11208
▁reve	-11209
▁site	-11210
▁skat	-11211
▁skur	-11212
▁stra	-11213
▁stry	-11214
▁særs	-11215
▁tage	-11216
▁thre	-11217
▁tjug	-11218
▁type	-11219
▁tyrk	-11220
▁uker	-11221
▁vass	-11222
▁what	-11223
▁Även	-11224
▁Åker	-11225
adesel	-11226
agtens	-11227
aktige	-11228
botten	-11229
dommer	-11230
eledes	-11231
elskap	-11232
elsson	-11233
enneth	-11234
enomen	-11235
erades	-11236
garden	-11237
gjande	-11238
ighets	-11239
istrer	-11240
ivelse	-11241
kkende	-11242
kkerup	-11243
kshire	-11244
nesota	-11245
områda	-11246
orpset	-11247
priset	-11248
ration	-11249
stiden	-11250
strump	-11251
uation	-11252
ushing	-11253
ædende	-11254
önades	-11255
▁Bowes	-11256
▁Buena	-11257
▁Celeb	-11258
▁Claes	-11259
▁Crist	-11260
▁Cross	-11261
▁Denna	-11262
▁Deres	-11263
▁Ellen	-11264
▁Flere	-11265
▁Gamle	-11266
▁Glass	-11267
▁Gypsy	-11268
▁Heath	-11269
▁Indre	-11270
▁Innan	-11271
▁Klubb	-11272
▁Kosov	-11273
▁Linux	-11274
▁Medan	-11275
▁Natal	-11276
▁Paula	-11277
▁Penny	-11278
▁Romer	-11279
▁Runde	-11280
▁Saudi	-11281
▁Stift	-11282
▁Stjer	-11283
▁While	-11284
▁Winge	-11285
▁absol	-11286
▁appro	-11287
▁bakom	-11288
▁barnd	-11289
▁baron	-11290
▁bogen	-11291
▁brats	-11292
▁budde	-11293
▁crash	-11294
▁delte	-11295
▁drive	-11296
▁drums	-11297
▁eksil	-11298
▁elder	-11299
▁elles	-11300
▁funne	-11301
▁fysik	-11302
▁gerne	-11303
▁helse	-11304
▁holds	-11305
▁homof	-11306
▁incre	-11307
▁julen	-11308
▁jurid	-11309
▁krigs	-11310
▁legal	-11311
▁långt	-11312
▁medic	-11313
▁metal	-11314
▁multi	-11315
▁månen	-11316
▁måste	-11317
▁møter	-11318
▁noget	-11319
▁nyårs	-11320
▁pilot	-11321
▁pseud	-11322
▁recru	-11323
▁sjeld	-11324
▁skete	-11325
▁slået	-11326
▁sound	-11327
▁stark	-11328
▁stren	-11329
▁ställ	-11330
▁succé	-11331
▁those	-11332
▁track	-11333
▁trakk	-11334
▁udgør	-11335
▁udtry	-11336
▁utmer	-11337
▁utnev	-11338
▁valet	-11339
▁vesle	-11340
▁villa	-11341
▁white	-11342
▁Åberg	-11343
ademien	-11344
allenge	-11345
amester	-11346
aprisen	-11347
ementer	-11348
estrand	-11349
irkende	-11350
ittelen	-11351
musiker	-11352
ningane	-11353
oretisk	-11354
present	-11355
shistor	-11356
stammar	-11357
stander	-11358
unnskap	-11359
ættelse	-11360
▁Africa	-11361
▁Amerik	-11362
▁Artist	-11363
▁Befolk	-11364
▁Bowles	-11365
▁Dagmar	-11366
▁Dermed	-11367
▁Dersom	-11368
▁Eduard	-11369
▁Ekstra	-11370
▁Felipe	-11371
▁Fleire	-11372
▁Forbes	-11373
▁Gunder	-11374
▁Hawaii	-11375
▁Hunger	-11376
▁Jeremy	-11377
▁Jorden	-11378
▁Kasakh	-11379
▁Krigen	-11380
▁Larvik	-11381
▁Madsen	-11382
▁Mikkel	-11383
▁Nassau	-11384
▁Nobile	-11385
▁Norman	-11386
▁Reidar	-11387
▁Roland	-11388
▁Series	-11389
▁Sports	-11390
▁Sunday	-11391
▁Tidleg	-11392
▁Vander	-11393
▁Wenche	-11394
▁Wigert	-11395
▁allier	-11396
▁assist	-11397
▁banden	-11398
▁besteg	-11399
▁bestyr	-11400
▁bestäm	-11401
▁broder	-11402
▁broren	-11403
▁bröder	-11404
▁cultur	-11405
▁danser	-11406
▁deltak	-11407
▁dersom	-11408
▁domain	-11409
▁elsker	-11410
▁erobra	-11411
▁expans	-11412
▁fantas	-11413
▁floden	-11414
▁forårs	-11415
▁friend	-11416
▁fysisk	-11417
▁fætter	-11418
▁förste	-11419
▁grense	-11420
▁heiter	-11421
▁hellig	-11422
▁hemmel	-11423
▁hentet	-11424
▁hidtil	-11425
▁import	-11426
▁island	-11427
▁jurist	-11428
▁keisar	-11429
▁kendte	-11430
▁killed	-11431
▁kusine	-11432
▁längre	-11433
▁lärare	-11434
▁market	-11435
▁mistet	-11436
▁oppføl	-11437
▁opptak	-11438
▁reform	-11439
▁scener	-11440
▁sikker	-11441
▁snabbt	-11442
▁spelas	-11443
▁stille	-11444
▁talang	-11445
▁talets	-11446
▁travel	-11447
▁udgave	-11448
▁vedtok	-11449
▁verket	-11450
▁viking	-11451
▁within	-11452
▁yngsta	-11453
▁østrig	-11454
bjørnsen	-11455
ological	-11456
personen	-11457
standing	-11458
stendige	-11459
stilling	-11460
▁Agnetha	-11461
▁Aquaman	-11462
▁Arizona	-11463
▁Bergens	-11464
▁Brigade	-11465
▁Bulsara	-11466
▁Commons	-11467
▁Dagblad	-11468
▁Desuden	-11469
▁Douglas	-11470
▁Egypten	-11471
▁Foreman	-11472
▁Forsvar	-11473
▁Fotball	-11474
▁Frinton	-11475
▁Gunilla	-11476
▁Halland	-11477
▁Harding	-11478
▁Henning	-11479
▁Highway	-11480
▁Hjalmar	-11481
▁Jacques	-11482
▁Johnsen	-11483
▁Kenneth	-11484
▁Kolding	-11485
▁Marokko	-11486
▁Moldova	-11487
▁Olympia	-11488
▁Olympic	-11489
▁Pornhub	-11490
▁Ptolema	-11491
▁Rebecca	-11492
▁Romania	-11493
▁Russell	-11494
▁Slottet	-11495
▁Sumatra	-11496
▁Through	-11497
▁Titanic	-11498
▁Verdens	-11499
▁Western	-11500
▁another	-11501
▁awarded	-11502
▁because	-11503
▁betragt	-11504
▁bosatte	-11505
▁bryllup	-11506
▁debuted	-11507
▁edition	-11508
▁ekspert	-11509
▁episode	-11510
▁faddere	-11511
▁flottan	-11512
▁fordelt	-11513
▁foregår	-11514
▁forvent	-11515
▁fylkest	-11516
▁förutom	-11517
▁gränsar	-11518
▁hertugd	-11519
▁innslag	-11520
▁knyttet	-11521
▁kollekt	-11522
▁kongens	-11523
▁konsent	-11524
▁konstru	-11525
▁kretsar	-11526
▁kæreste	-11527
▁located	-11528
▁lämnade	-11529
▁medisin	-11530
▁nordisk	-11531
▁nærmest	-11532
▁oppdrag	-11533
▁oppkalt	-11534
▁oppløst	-11535
▁platene	-11536
▁primary	-11537
▁relativ	-11538
▁romersk	-11539
▁segment	-11540
▁seremon	-11541
▁singler	-11542
▁sponsor	-11543
▁standup	-11544
▁stipend	-11545
▁studiet	-11546
▁styrkar	-11547
▁teacher	-11548
▁tidenes	-11549
▁utnemnd	-11550
▁western	-11551
▁without	-11552
▁ønskede	-11553
▁Betlehem	-11554
▁Brooklyn	-11555
▁Brothers	-11556
▁Brygmann	-11557
▁Delaware	-11558
▁Grekland	-11559
▁Hongkong	-11560
▁Hækkerup	-11561
▁Jennifer	-11562
▁Katarina	-11563
▁Lundgren	-11564
▁Musikken	-11565
▁Nagasaki	-11566
▁Philippe	-11567
▁Ryssland	-11568
▁Venstres	-11569
▁annekter	-11570
▁användas	-11571
▁bortsett	-11572
▁böckerna	-11573
▁computer	-11574
▁designer	-11575
▁determin	-11576
▁discover	-11577
▁educated	-11578
▁episoder	-11579
▁extended	-11580
▁foredrag	-11581
▁generell	-11582
▁halvbror	-11583
▁herefter	-11584
▁hovedsag	-11585
▁innførte	-11586
▁karaktär	-11587
▁kolväten	-11588
▁kommunal	-11589
▁kortfilm	-11590
▁lyserøde	-11591
▁medverka	-11592
▁naturleg	-11593
▁nordmann	-11594
▁nordväst	-11595
▁occurred	-11596
▁oppslags	-11597
▁overtage	-11598
▁personen	-11599
▁plassert	-11600
▁reformer	-11601
▁reported	-11602
▁reporter	-11603
▁romartal	-11604
▁sekretær	-11605
▁teenager	-11606
▁tettsted	-11607
▁turnerte	-11608
▁ungarske	-11609
▁varierer	-11610
▁Armstrong	-11611
▁Arveprins	-11612
▁Bandicoot	-11613
▁Cardinale	-11614
▁Ellingsen	-11615
▁Filmdatab	-11616
▁Hiroshima	-11617
▁Hordaland	-11618
▁Indonesia	-11619
▁Kongsberg	-11620
▁Lindgrens	-11621
▁Luxemburg	-11622
▁MediaWiki	-11623
▁Minnesota	-11624
▁Musikvere	-11625
▁Sorgenfri	-11626
▁Tellefsen	-11627
▁Wrestling	-11628
▁described	-11629
▁däribland	-11630
▁entertain	-11631
▁estimated	-11632
▁grunnlagd	-11633
▁internett	-11634
▁koncernen	-11635
▁landsbyen	-11636
▁magnitude	-11637
▁noverande	-11638
▁omhandler	-11639
▁personlig	-11640
▁presenter	-11641
▁profesjon	-11642
▁recording	-11643
▁samansett	-11644
▁skuespill	-11645
▁tillhörde	-11646
▁underlagt	-11647
itsminister	-11648
▁Grundloven	-11649
▁Handlingen	-11650
▁Kasakhstan	-11651
▁Nordirland	-11652
▁Prefecture	-11653
▁Republiken	-11654
▁Uddannelse	-11655
▁Vanderbilt	-11656
▁andreplass	-11657
▁behandling	-11658
▁centimeter	-11659
▁characters	-11660
▁eventually	-11661
▁hertiginna	-11662
▁italienska	-11663
▁kontroller	-11664
▁officiella	-11665
▁opphavlege	-11666
▁politician	-11667
▁prinsessen	-11668
▁samstundes	-11669
rigsminister	-11670
▁Brandenburg	-11671
▁Corporation	-11672
▁Nordamerika	-11673
▁Shakespeare	-11674
▁Shelbyville	-11675
▁Teaterskole	-11676
▁forfatteren	-11677
▁information	-11678
▁nederlandsk	-11679
▁nytårsaften	-11680
▁omdirigeres	-11681
▁popularitet	-11682
▁portugisisk	-11683
▁sjølvstende	-11684
▁territorier	-11685
▁titelrollen	-11686
▁Folketeatret	-11687
▁gjennombrudd	-11688
▁gregorianska	-11689
▁kringkasting	-11690
▁nederlandske	-11691
▁solokarriere	-11692
▁subsequently	-11693
▁Kalmarunionen	-11694
▁platekontrakt	-11695
▁professionell	-11696
▁Administrasjon	-11697
▁filminstruktør	-11698
▁tronfølgeloven	-11699
▁Arbeiderpartiet	-11700
RL	-11701
SA	-11702
bb	-11703
fj	-11704
gu	-11705
hl	-11706
lö	-11707
rh	-11708
za	-11709
▁م	-11710
aki	-11711
anw	-11712
arm	-11713
blå	-11714
bod	-11715
col	-11716
dle	-11717
ema	-11718
gik	-11719
gré	-11720
hal	-11721
hon	-11722
hum	-11723
itu	-11724
kis	-11725
kol	-11726
mær	-11727
oin	-11728
pin	-11729
ppa	-11730
rol	-11731
run	-11732
ryt	-11733
sep	-11734
ses	-11735
ski	-11736
tel	-11737
tro	-11738
tta	-11739
uen	-11740
uge	-11741
uta	-11742
ädd	-11743
ådd	-11744
éer	-11745
éon	-11746
öda	-11747
▁92	-11748
▁Ca	-11749
▁DJ	-11750
▁Eb	-11751
▁IT	-11752
▁Sr	-11753
▁Zu	-11754
▁dk	-11755
▁hå	-11756
▁sw	-11757
▁tå	-11758
abar	-11759
addy	-11760
amar	-11761
anel	-11762
anol	-11763
aure	-11764
bakk	-11765
bord	-11766
corn	-11767
dals	-11768
derk	-11769
dire	-11770
egro	-11771
eliv	-11772
ener	-11773
enne	-11774
eror	-11775
eton	-11776
fair	-11777
fare	-11778
fugl	-11779
gary	-11780
gdom	-11781
hjär	-11782
hren	-11783
iert	-11784
ijay	-11785
ikum	-11786
ippa	-11787
irds	-11788
itel	-11789
knar	-11790
kons	-11791
kost	-11792
känn	-11793
lats	-11794
nivå	-11795
ofte	-11796
okus	-11797
olar	-11798
omoa	-11799
park	-11800
rars	-11801
reis	-11802
rekt	-11803
renn	-11804
repp	-11805
rina	-11806
rino	-11807
rity	-11808
rund	-11809
sdag	-11810
sför	-11811
sked	-11812
stin	-11813
teen	-11814
thus	-11815
uart	-11816
uben	-11817
uber	-11818
ungt	-11819
usik	-11820
vedt	-11821
vekt	-11822
vida	-11823
viks	-11824
vort	-11825
väld	-11826
west	-11827
ydro	-11828
yret	-11829
ända	-11830
ängd	-11831
øyet	-11832
▁164	-11833
▁600	-11834
▁AFI	-11835
▁Ald	-11836
▁Amy	-11837
▁Aur	-11838
▁BDO	-11839
▁Ban	-11840
▁DOI	-11841
▁Did	-11842
▁Dif	-11843
▁Din	-11844
▁FBS	-11845
▁Fat	-11846
▁Fir	-11847
▁Frø	-11848
▁Gib	-11849
▁Gur	-11850
▁Gör	-11851
▁Hål	-11852
▁Jön	-11853
▁Lod	-11854
▁Mig	-11855
▁Mut	-11856
▁Ple	-11857
▁RCA	-11858
▁Rio	-11859
▁Seb	-11860
▁Siv	-11861
▁Søl	-11862
▁Tai	-11863
▁Tar	-11864
▁Ten	-11865
▁Tri	-11866
▁Tår	-11867
▁Ulf	-11868
▁WWE	-11869
▁XII	-11870
▁adv	-11871
▁bad	-11872
▁big	-11873
▁byn	-11874
▁dik	-11875
▁dåb	-11876
▁ear	-11877
▁enc	-11878
▁ent	-11879
▁equ	-11880
▁fig	-11881
▁fry	-11882
▁gar	-11883
▁hev	-11884
▁hop	-11885
▁høn	-11886
▁iss	-11887
▁kul	-11888
▁køb	-11889
▁lau	-11890
▁läk	-11891
▁mør	-11892
▁nar	-11893
▁nød	-11894
▁omg	-11895
▁ort	-11896
▁pak	-11897
▁pur	-11898
▁ras	-11899
▁see	-11900
▁tam	-11901
▁tje	-11902
▁tom	-11903
▁uaf	-11904
▁vig	-11905
▁Öst	-11906
acken	-11907
akten	-11908
aldte	-11909
angst	-11910
anned	-11911
asjer	-11912
atory	-11913
atsen	-11914
aving	-11915
azine	-11916
baugh	-11917
björn	-11918
borgs	-11919
brand	-11920
chiar	-11921
edish	-11922
ekter	-11923
fulde	-11924
fulle	-11925
gatan	-11926
gtysk	-11927
haver	-11928
iated	-11929
idens	-11930
iener	-11931
igede	-11932
ikens	-11933
ilder	-11934
ilmar	-11935
ingsø	-11936
irken	-11937
ittee	-11938
knipp	-11939
makta	-11940
melse	-11941
oenix	-11942
ordin	-11943
overs	-11944
postm	-11945
redet	-11946
renes	-11947
rifta	-11948
ringa	-11949
ruten	-11950
saker	-11951
sikke	-11952
skins	-11953
skomm	-11954
skule	-11955
ulent	-11956
unget	-11957
vegen	-11958
vokst	-11959
yrkje	-11960
änare	-11961
åande	-11962
öster	-11963
▁1400	-11964
▁1481	-11965
▁1658	-11966
▁1844	-11967
▁1877	-11968
▁1880	-11969
▁1894	-11970
▁Alma	-11971
▁Bank	-11972
▁Beau	-11973
▁Bigg	-11974
▁Blom	-11975
▁Bröm	-11976
▁Clay	-11977
▁Conf	-11978
▁Dame	-11979
▁Dick	-11980
▁Duke	-11981
▁Elle	-11982
▁Fest	-11983
▁Fjer	-11984
▁Four	-11985
▁Født	-11986
▁Gain	-11987
▁Greg	-11988
▁Helv	-11989
▁Herc	-11990
▁Hold	-11991
▁Hunt	-11992
▁Hvis	-11993
▁Høne	-11994
▁Kont	-11995
▁Kval	-11996
▁Kvar	-11997
▁Lake	-11998
▁NRKs	-11999
▁Natt	-12000
▁Nazi	-12001
▁News	-12002
▁Noah	-12003
▁Ohio	-12004
▁Olaf	-12005
▁Pont	-12006
▁Rapp	-12007
▁Rica	-12008
▁Roth	-12009
▁Samu	-12010
▁Shop	-12011
▁Vanc	-12012
▁Ving	-12013
▁XIII	-12014
▁acts	-12015
▁anth	-12016
▁aver	-12017
▁avis	-12018
▁away	-12019
▁base	-12020
▁bigg	-12021
▁bill	-12022
▁blom	-12023
▁case	-12024
▁comb	-12025
▁dens	-12026
▁east	-12027
▁edel	-12028
▁eier	-12029
▁fact	-12030
▁fore	-12031
▁foto	-12032
▁fäng	-12033
▁förl	-12034
▁gold	-12035
▁grov	-12036
▁hend	-12037
▁husk	-12038
▁høge	-12039
▁indu	-12040
▁kejs	-12041
▁kino	-12042
▁krev	-12043
▁kult	-12044
▁kurs	-12045
▁kven	-12046
▁lage	-12047
▁lege	-12048
▁lill	-12049
▁mart	-12050
▁mode	-12051
▁mora	-12052
▁muse	-12053
▁mørk	-12054
▁nærm	-12055
▁nært	-12056
▁race	-12057
▁raki	-12058
▁redu	-12059
▁rund	-12060
▁salg	-12061
▁salt	-12062
▁skib	-12063
▁soon	-12064
▁spin	-12065
▁stig	-12066
▁sykl	-12067
▁syne	-12068
▁talk	-12069
▁tall	-12070
▁unga	-12071
▁vent	-12072
▁vigt	-12073
▁viss	-12074
▁weap	-12075
▁ägde	-12076
▁øyar	-12077
afrika	-12078
aksjon	-12079
ampton	-12080
apsody	-12081
atlant	-12082
certen	-12083
dotter	-12084
ession	-12085
gelsen	-12086
ipient	-12087
itched	-12088
jektet	-12089
legget	-12090
linjen	-12091
linois	-12092
ologen	-12093
ordbok	-12094
orsese	-12095
otiske	-12096
rekord	-12097
sattes	-12098
seende	-12099
sleder	-12100
spring	-12101
ulykke	-12102
videre	-12103
▁Agnes	-12104
▁Andra	-12105
▁Atter	-12106
▁Bates	-12107
▁Beach	-12108
▁Beste	-12109
▁Board	-12110
▁Bohus	-12111
▁Bruno	-12112
▁Chief	-12113
▁Deras	-12114
▁Elekt	-12115
▁Frida	-12116
▁Fritt	-12117
▁Girls	-12118
▁Greve	-12119
▁Kirst	-12120
▁Klaus	-12121
▁Kvart	-12122
▁Linde	-12123
▁Major	-12124
▁Manus	-12125
▁Memor	-12126
▁Momoa	-12127
▁Moren	-12128
▁Nancy	-12129
▁Nørby	-12130
▁Organ	-12131
▁Randi	-12132
▁Schlü	-12133
▁Serge	-12134
▁Space	-12135
▁Spiel	-12136
▁Språk	-12137
▁Stjär	-12138
▁Sture	-12139
▁Sunde	-12140
▁Susan	-12141
▁Syria	-12142
▁Tirol	-12143
▁Tokyo	-12144
▁Vijay	-12145
▁Vågan	-12146
▁Våren	-12147
▁Woman	-12148
▁Yemen	-12149
▁adult	-12150
▁affär	-12151
▁anten	-12152
▁appar	-12153
▁basis	-12154
▁block	-12155
▁blues	-12156
▁broke	-12157
▁brott	-12158
▁bruke	-12159
▁chair	-12160
▁court	-12161
▁endre	-12162
▁ensam	-12163
▁fjern	-12164
▁fören	-12165
▁föräl	-12166
▁føres	-12167
▁henta	-12168
▁hette	-12169
▁holde	-12170
▁inaug	-12171
▁ingår	-12172
▁irske	-12173
▁kapit	-12174
▁klipp	-12175
▁kunna	-12176
▁least	-12177
▁liber	-12178
▁mochi	-12179
▁motiv	-12180
▁nedre	-12181
▁omgiv	-12182
▁oppos	-12183
▁overh	-12184
▁parod	-12185
▁plata	-12186
▁point	-12187
▁prior	-12188
▁range	-12189
▁salut	-12190
▁selde	-12191
▁skapt	-12192
▁sover	-12193
▁stadf	-12194
▁stamm	-12195
▁stjär	-12196
▁styre	-12197
▁södra	-12198
▁tagit	-12199
▁tegne	-12200
▁toget	-12201
▁treng	-12202
▁trots	-12203
▁trykk	-12204
▁udpeg	-12205
▁utrop	-12206
▁verka	-12207
▁vinde	-12208
▁women	-12209
▁wrapp	-12210
▁Østre	-12211
▁årlig	-12212
farande	-12213
figuren	-12214
grammer	-12215
ication	-12216
iecrona	-12217
karriär	-12218
klubben	-12219
köpings	-12220
ocratic	-12221
starten	-12222
sterdam	-12223
svinger	-12224
talande	-12225
tenegro	-12226
utionen	-12227
virksom	-12228
ättning	-12229
▁Alaska	-12230
▁Andrés	-12231
▁Berdal	-12232
▁Brundt	-12233
▁Cannes	-12234
▁Castle	-12235
▁Cobain	-12236
▁Colomb	-12237
▁Excell	-12238
▁Familj	-12239
▁Flames	-12240
▁Garden	-12241
▁Heller	-12242
▁Howard	-12243
▁Høyhet	-12244
▁Junior	-12245
▁Juster	-12246
▁Knight	-12247
▁Korean	-12248
▁Korrid	-12249
▁Kosovo	-12250
▁Lionel	-12251
▁Livgar	-12252
▁Manley	-12253
▁Markus	-12254
▁Olivia	-12255
▁Pilger	-12256
▁Rachel	-12257
▁Radios	-12258
▁Renate	-12259
▁Rhinen	-12260
▁Ringen	-12261
▁Robbie	-12262
▁Ronnie	-12263
▁Sebast	-12264
▁Secret	-12265
▁Skjern	-12266
▁Square	-12267
▁Stuart	-12268
▁Tidiga	-12269
▁Totalt	-12270
▁Viking	-12271
▁Wonder	-12272
▁aktive	-12273
▁allmän	-12274
▁anerkj	-12275
▁atmosf	-12276
▁attack	-12277
▁benytt	-12278
▁better	-12279
▁confir	-12280
▁debatt	-12281
▁deltäv	-12282
▁design	-12283
▁dollar	-12284
▁eksper	-12285
▁enroll	-12286
▁erklær	-12287
▁figure	-12288
▁forstå	-12289
▁fortel	-12290
▁færdig	-12291
▁födels	-12292
▁gemens	-12293
▁gitarr	-12294
▁halvøy	-12295
▁holder	-12296
▁inspel	-12297
▁kjønns	-12298
▁källor	-12299
▁levede	-12300
▁makten	-12301
▁minste	-12302
▁mobile	-12303
▁mogleg	-12304
▁morgen	-12305
▁næsten	-12306
▁omgang	-12307
▁oppløy	-12308
▁placed	-12309
▁påbörj	-12310
▁qualif	-12311
▁racing	-12312
▁reknar	-12313
▁rockeb	-12314
▁secret	-12315
▁shared	-12316
▁skrevs	-12317
▁slekta	-12318
▁statsk	-12319
▁straff	-12320
▁sukker	-12321
▁summer	-12322
▁sveits	-12323
▁tecken	-12324
▁turned	-12325
▁tyding	-12326
▁utover	-12327
▁wealth	-12328
▁wiener	-12329
amfunnet	-12330
chiarini	-12331
historia	-12332
oukalová	-12333
regering	-12334
sfjorden	-12335
slutning	-12336
språkiga	-12337
systemet	-12338
▁Balling	-12339
▁Biester	-12340
▁Bonnier	-12341
▁Bradley	-12342
▁Coppola	-12343
▁Dalarna	-12344
▁Estland	-12345
▁Fantino	-12346
▁Fleming	-12347
▁Freeman	-12348
▁Gabriel	-12349
▁Galilei	-12350
▁Garfors	-12351
▁General	-12352
▁Isaksen	-12353
▁Iversen	-12354
▁Johanna	-12355
▁Kamprad	-12356
▁Kennedy	-12357
▁Khalifa	-12358
▁Landgré	-12359
▁Marilyn	-12360
▁Matthew	-12361
▁Monster	-12362
▁Musical	-12363
▁Natasha	-12364
▁Olivier	-12365
▁Phoenix	-12366
▁Richter	-12367
▁Rodgers	-12368
▁Rolling	-12369
▁Sigvard	-12370
▁Singers	-12371
▁Skansen	-12372
▁Svenskt	-12373
▁Swedish	-12374
▁Verrett	-12375
▁Wayback	-12376
▁afholdt	-12377
▁arbeids	-12378
▁backing	-12379
▁barndom	-12380
▁biggest	-12381
▁byggjer	-12382
▁decided	-12383
▁descent	-12384
▁entered	-12385
▁filmane	-12386
▁forente	-12387
▁forsvar	-12388
▁forvalt	-12389
▁fotboll	-12390
▁fremste	-12391
▁fysiker	-12392
▁herself	-12393
▁himself	-12394
▁inntekt	-12395
▁joining	-12396
▁kommerc	-12397
▁ledelse	-12398
▁matches	-12399
▁moderna	-12400
▁naturen	-12401
▁omtales	-12402
▁optrådt	-12403
▁playoff	-12404
▁punktet	-12405
▁påverka	-12406
▁regions	-12407
▁riksdag	-12408
▁selling	-12409
▁serving	-12410
▁singlar	-12411
▁skalaen	-12412
▁sluttet	-12413
▁släppte	-12414
▁studera	-12415
▁systrar	-12416
▁såkalla	-12417
▁uafhæng	-12418
▁usually	-12419
▁variert	-12420
arkarriär	-12421
dannelsen	-12422
entexamen	-12423
iorkester	-12424
itteratur	-12425
ropolitan	-12426
vitenskap	-12427
▁Baptiste	-12428
▁Berkeley	-12429
▁Brömssen	-12430
▁Bulgaria	-12431
▁Children	-12432
▁Elisabet	-12433
▁Færøyene	-12434
▁Gabriela	-12435
▁Gazastri	-12436
▁Gentofte	-12437
▁Greatest	-12438
▁Hallberg	-12439
▁Hannover	-12440
▁Harbaugh	-12441
▁Håkonsen	-12442
▁Illinois	-12443
▁Jennings	-12444
▁Jevnaker	-12445
▁Kausland	-12446
▁Marshall	-12447
▁Patricia	-12448
▁Preussen	-12449
▁Radikale	-12450
▁Rederiet	-12451
▁Rhapsody	-12452
▁Scorsese	-12453
▁Scottish	-12454
▁Sesongen	-12455
▁Slovakia	-12456
▁Stallone	-12457
▁Tsjekkia	-12458
▁Viktoria	-12459
▁Vladimir	-12460
▁ansvaret	-12461
▁artistar	-12462
▁arvprins	-12463
▁atombomb	-12464
▁audience	-12465
▁diskuter	-12466
▁features	-12467
▁fleirtal	-12468
▁funksjon	-12469
▁förknipp	-12470
▁governor	-12471
▁grekiska	-12472
▁grensene	-12473
▁grevinne	-12474
▁hebraisk	-12475
▁hoppveka	-12476
▁indenfor	-12477
▁innspilt	-12478
▁inspired	-12479
▁introdus	-12480
▁investig	-12481
▁jordbruk	-12482
▁kommunes	-12483
▁komtesse	-12484
▁lingvist	-12485
▁messages	-12486
▁musikern	-12487
▁normalår	-12488
▁olympisk	-12489
▁oppvokst	-12490
▁passager	-12491
▁sameinte	-12492
▁singelen	-12493
▁skribent	-12494
▁students	-12495
▁sælgende	-12496
▁undantag	-12497
▁varandra	-12498
ådespelare	-12499
▁Amsterdam	-12500
▁Animation	-12501
▁Berkshire	-12502
▁Biography	-12503
▁Innsbruck	-12504
▁Kongerige	-12505
▁Nordström	-12506
▁Skovgaard	-12507
▁Sylvester	-12508
▁Tysklands	-12509
▁Wilkinson	-12510
▁arvefølge	-12511
▁childhood	-12512
▁convicted	-12513
▁deltagere	-12514
▁egyptiske	-12515
▁erstattet	-12516
▁finansier	-12517
▁folkerike	-12518
▁fungerede	-12519
▁helligdag	-12520
▁huvudstad	-12521
▁illustrat	-12522
▁important	-12523
▁innhaldet	-12524
▁koncerter	-12525
▁konserter	-12526
▁kulturelt	-12527
▁medverkan	-12528
▁offentleg	-12529
▁opprettet	-12530
▁opptrådte	-12531
▁organiser	-12532
▁politiska	-12533
▁primarily	-12534
▁problemer	-12535
▁præsident	-12536
▁recipient	-12537
▁samanheng	-12538
▁studentar	-12539
▁størrelse	-12540
▁utvikling	-12541
▁världscup	-12542
▁ægtefælle	-12543
estillinger	-12544
▁Brundtland	-12545
▁Charlotten	-12546
▁Conference	-12547
▁Fyrverkeri	-12548
▁Långstrump	-12549
▁Montenegro	-12550
▁Petersburg	-12551
▁Södertälje	-12552
▁dokumenter	-12553
▁dokumentär	-12554
▁experiment	-12555
▁filmregiss	-12556
▁gjennombro	-12557
▁innehåller	-12558
▁kneippbrød	-12559
▁konstnären	-12560
▁kontrovers	-12561
▁långfilmen	-12562
▁medlemmene	-12563
▁miniseries	-12564
▁nominering	-12565
▁nordamerik	-12566
▁officiellt	-12567
▁ordförande	-12568
▁population	-12569
▁university	-12570
▁virksomhet	-12571
▁Aftonbladet	-12572
▁Anthonessen	-12573
▁Biesterfeld	-12574
▁Kongsvinger	-12575
▁Lilliecrona	-12576
▁Macchiarini	-12577
▁Springsteen	-12578
▁bronsemedal	-12579
▁föräldrarna	-12580
▁hovedroller	-12581
▁indspillede	-12582
▁kronprinsen	-12583
▁opphavsrett	-12584
▁opprinnelse	-12585
▁skådespeler	-12586
▁storesøster	-12587
▁traditionen	-12588
▁Västerbotten	-12589
▁Västtyskland	-12590
▁hovedrollene	-12591
▁kongefamilie	-12592
▁organisation	-12593
▁sjølvstendig	-12594
▁theatrically	-12595
▁tillbringade	-12596
▁fotballspelar	-12597
▁skuespillerne	-12598
▁studentexamen	-12599
▁uppmärksamhet	-12600
▁folketingsvalg	-12601
▁filmskuespiller	-12602
▁konstitusjonelt	-12603
97	-12604
BU	-12605
NP	-12606
hv	-12607
sæ	-12608
uh	-12609
ws	-12610
zo	-12611
ía	-12612
ín	-12613
afé	-12614
aud	-12615
bed	-12616
bur	-12617
bye	-12618
bär	-12619
bær	-12620
bør	-12621
cam	-12622
cil	-12623
ego	-12624
egs	-12625
ffe	-12626
geb	-12627
gra	-12628
gud	-12629
how	-12630
ija	-12631
ikl	-12632
jun	-12633
jur	-12634
kyl	-12635
køb	-12636
lak	-12637
lan	-12638
luf	-12639
lær	-12640
mot	-12641
oes	-12642
onn	-12643
sed	-12644
sji	-12645
stø	-12646
uds	-12647
våg	-12648
war	-12649
yll	-12650
yre	-12651
zel	-12652
ärt	-12653
örd	-12654
▁CF	-12655
▁Cy	-12656
▁IK	-12657
▁IO	-12658
▁Iv	-12659
▁LP	-12660
▁Um	-12661
▁bå	-12662
▁dæ	-12663
▁fa	-12664
▁ju	-12665
▁ok	-12666
▁væ	-12667
▁ét	-12668
▁ør	-12669
ably	-12670
adas	-12671
agan	-12672
agne	-12673
aldi	-12674
ants	-12675
ased	-12676
athi	-12677
atic	-12678
bels	-12679
bler	-12680
born	-12681
clud	-12682
ctic	-12683
ebok	-12684
elte	-12685
eløb	-12686
enda	-12687
enen	-12688
frid	-12689
ften	-12690
ftet	-12691
færd	-12692
förd	-12693
følg	-12694
gert	-12695
hang	-12696
here	-12697
htar	-12698
icil	-12699
iesk	-12700
ikop	-12701
iler	-12702
itor	-12703
izon	-12704
ligg	-12705
mart	-12706
misk	-12707
ollo	-12708
omes	-12709
omet	-12710
omme	-12711
omod	-12712
onen	-12713
oner	-12714
osen	-12715
ratt	-12716
reng	-12717
skal	-12718
song	-12719
stag	-12720
stol	-12721
thos	-12722
ugsp	-12723
ules	-12724
ulla	-12725
uras	-12726
utes	-12727
yget	-12728
ylan	-12729
älva	-12730
ätte	-12731
ømet	-12732
▁125	-12733
▁130	-12734
▁137	-12735
▁140	-12736
▁144	-12737
▁151	-12738
▁171	-12739
▁173	-12740
▁Ahl	-12741
▁Ali	-12742
▁Any	-12743
▁BNP	-12744
▁BRI	-12745
▁Blo	-12746
▁Blå	-12747
▁Bom	-12748
▁Bou	-12749
▁CBS	-12750
▁Cul	-12751
▁Dar	-12752
▁Eck	-12753
▁Eth	-12754
▁Ext	-12755
▁Fuk	-12756
▁Fär	-12757
▁Föd	-12758
▁Guy	-12759
▁Hob	-12760
▁Hof	-12761
▁Häl	-12762
▁Hår	-12763
▁Hør	-12764
▁Ian	-12765
▁Ill	-12766
▁Jud	-12767
▁Jut	-12768
▁Kam	-12769
▁Klø	-12770
▁Kre	-12771
▁Lum	-12772
▁MTV	-12773
▁MVP	-12774
▁Map	-12775
▁Møg	-12776
▁Nar	-12777
▁Ned	-12778
▁Nød	-12779
▁Pul	-12780
▁Pål	-12781
▁Sex	-12782
▁Suz	-12783
▁Sym	-12784
▁Søn	-12785
▁Tam	-12786
▁Via	-12787
▁Vær	-12788
▁Yng	-12789
▁Zah	-12790
▁bab	-12791
▁boy	-12792
▁dam	-12793
▁div	-12794
▁don	-12795
▁dop	-12796
▁dos	-12797
▁dry	-12798
▁dvs	-12799
▁egg	-12800
▁era	-12801
▁fej	-12802
▁fäl	-12803
▁gal	-12804
▁gru	-12805
▁gæl	-12806
▁häl	-12807
▁igj	-12808
▁ild	-12809
▁kla	-12810
▁kok	-12811
▁kra	-12812
▁kræ	-12813
▁kår	-12814
▁lun	-12815
▁läg	-12816
▁mär	-12817
▁ner	-12818
▁oms	-12819
▁osm	-12820
▁pyr	-12821
▁rem	-12822
▁sau	-12823
▁sus	-12824
▁syk	-12825
▁Øya	-12826
aftan	-12827
agten	-12828
ahren	-12829
antum	-12830
anzib	-12831
asion	-12832
berto	-12833
bring	-12834
bunds	-12835
ceret	-12836
delen	-12837
eback	-12838
edlem	-12839
eline	-12840
ellan	-12841
essem	-12842
esset	-12843
eteik	-12844
fonso	-12845
fullt	-12846
gency	-12847
icist	-12848
iegel	-12849
iffen	-12850
iform	-12851
igare	-12852
ikawa	-12853
iktet	-12854
illes	-12855
imate	-12856
imore	-12857
inder	-12858
ionde	-12859
iopia	-12860
istre	-12861
itted	-12862
ivind	-12863
klass	-12864
knikk	-12865
ksemd	-12866
kveld	-12867
kvist	-12868
leker	-12869
letic	-12870
lever	-12871
light	-12872
marna	-12873
named	-12874
names	-12875
nende	-12876
nsdag	-12877
okken	-12878
oléon	-12879
onden	-12880
oppar	-12881
ornas	-12882
ously	-12883
ouver	-12884
ovina	-12885
plate	-12886
pligt	-12887
repet	-12888
række	-12889
sende	-12890
shopp	-12891
skjer	-12892
spect	-12893
spris	-12894
steik	-12895
stift	-12896
taler	-12897
talte	-12898
teren	-12899
thing	-12900
träde	-12901
ublic	-12902
ukken	-12903
ulmin	-12904
urder	-12905
vedal	-12906
ylven	-12907
äcker	-12908
äller	-12909
älven	-12910
årene	-12911
ægten	-12912
ælles	-12913
öarna	-12914
örest	-12915
ømmet	-12916
øylen	-12917
▁1412	-12918
▁1523	-12919
▁1730	-12920
▁1825	-12921
▁1843	-12922
▁1867	-12923
▁1871	-12924
▁1876	-12925
▁1890	-12926
▁1897	-12927
▁Acer	-12928
▁Aske	-12929
▁Bakk	-12930
▁Bard	-12931
▁Behn	-12932
▁Bing	-12933
▁Björ	-12934
▁Bosn	-12935
▁Bred	-12936
▁Bruk	-12937
▁Buff	-12938
▁Care	-12939
▁Cart	-12940
▁Cour	-12941
▁Cups	-12942
▁Curt	-12943
▁Delt	-12944
▁Drag	-12945
▁Drew	-12946
▁Dust	-12947
▁Edel	-12948
▁Epis	-12949
▁Fiil	-12950
▁Fisk	-12951
▁Flag	-12952
▁Fält	-12953
▁Gere	-12954
▁Guds	-12955
▁Hass	-12956
▁Head	-12957
▁Husk	-12958
▁Hvid	-12959
▁Isak	-12960
▁José	-12961
▁Kort	-12962
▁Litt	-12963
▁Medv	-12964
▁Mens	-12965
▁Nike	-12966
▁Nitt	-12967
▁Nott	-12968
▁Odal	-12969
▁Orkn	-12970
▁Pack	-12971
▁Pert	-12972
▁Rome	-12973
▁Rune	-12974
▁Röse	-12975
▁Saga	-12976
▁Samm	-12977
▁Sang	-12978
▁Sapp	-12979
▁Seac	-12980
▁Shah	-12981
▁Siss	-12982
▁Skar	-12983
▁Slik	-12984
▁Sold	-12985
▁Spes	-12986
▁Stab	-12987
▁Stry	-12988
▁Styx	-12989
▁Torp	-12990
▁Tysk	-12991
▁Ural	-12992
▁Valg	-12993
▁Vart	-12994
▁Yout	-12995
▁avle	-12996
▁avsl	-12997
▁bevæ	-12998
▁brug	-12999
▁byar	-13000
▁cost	-13001
▁dest	-13002
▁dygn	-13003
▁døpt	-13004
▁døtr	-13005
▁emir	-13006
▁empl	-13007
▁fans	-13008
▁flod	-13009
▁fork	-13010
▁ført	-13011
▁gate	-13012
▁glad	-13013
▁gået	-13014
▁herr	-13015
▁häst	-13016
▁högt	-13017
▁icon	-13018
▁ihop	-13019
▁kalk	-13020
▁kläd	-13021
▁lauv	-13022
▁leir	-13023
▁lens	-13024
▁myst	-13025
▁regn	-13026
▁rest	-13027
▁rike	-13028
▁rädd	-13029
▁röst	-13030
▁samh	-13031
▁skar	-13032
▁slår	-13033
▁soft	-13034
▁sokn	-13035
▁spaw	-13036
▁stri	-13037
▁trum	-13038
▁tsar	-13039
▁uppl	-13040
▁veck	-13041
▁virk	-13042
▁vänt	-13043
▁våld	-13044
▁want	-13045
▁webb	-13046
▁word	-13047
alegre	-13048
allier	-13049
ammens	-13050
asitet	-13051
befolk	-13052
brecht	-13053
edagog	-13054
elberg	-13055
elcome	-13056
elinje	-13057
elsene	-13058
emerke	-13059
enstam	-13060
entleg	-13061
erende	-13062
eringa	-13063
esiden	-13064
estret	-13065
etting	-13066
föräld	-13067
hemian	-13068
hjärta	-13069
iblant	-13070
iction	-13071
ikarar	-13072
istane	-13073
kammer	-13074
keback	-13075
kisson	-13076
ligste	-13077
makten	-13078
marked	-13079
martid	-13080
menter	-13081
middel	-13082
nummer	-13083
ockout	-13084
onment	-13085
opptak	-13086
parret	-13087
pected	-13088
ringar	-13089
smålet	-13090
sprodu	-13091
varsel	-13092
veland	-13093
ymnast	-13094
ytning	-13095
ældste	-13096
ætning	-13097
▁About	-13098
▁Achie	-13099
▁Amand	-13100
▁Based	-13101
▁Belle	-13102
▁Blach	-13103
▁Bolsø	-13104
▁Brock	-13105
▁Chair	-13106
▁Chile	-13107
▁Colin	-13108
▁Davis	-13109
▁Devil	-13110
▁Eldar	-13111
▁Espen	-13112
▁Fjeld	-13113
▁Forsk	-13114
▁Fosse	-13115
▁Fugle	-13116
▁Førde	-13117
▁Hanks	-13118
▁Happy	-13119
▁Haram	-13120
▁Heidi	-13121
▁Helge	-13122
▁Ibsen	-13123
▁Kenya	-13124
▁Kerry	-13125
▁Kulle	-13126
▁Laget	-13127
▁Light	-13128
▁Lunds	-13129
▁Mutya	-13130
▁Mørch	-13131
▁Nolan	-13132
▁Noman	-13133
▁Offic	-13134
▁Percy	-13135
▁Santa	-13136
▁Sarah	-13137
▁Silje	-13138
▁Stars	-13139
▁Staun	-13140
▁Talen	-13141
▁Terje	-13142
▁Thing	-13143
▁Tiger	-13144
▁Toget	-13145
▁Tommy	-13146
▁Trump	-13147
▁Whats	-13148
▁Zandt	-13149
▁Zugsp	-13150
▁activ	-13151
▁afrik	-13152
▁akust	-13153
▁ankom	-13154
▁arkiv	-13155
▁atter	-13156
▁belig	-13157
▁beseg	-13158
▁beteg	-13159
▁bonde	-13160
▁borna	-13161
▁brann	-13162
▁campa	-13163
▁dater	-13164
▁datum	-13165
▁detal	-13166
▁diagn	-13167
▁dirig	-13168
▁drikk	-13169
▁dræbt	-13170
▁egent	-13171
▁ekskl	-13172
▁embed	-13173
▁erfar	-13174
▁evaku	-13175
▁faldt	-13176
▁feder	-13177
▁firas	-13178
▁given	-13179
▁halde	-13180
▁hjemm	-13181
▁image	-13182
▁kjede	-13183
▁komik	-13184
▁korta	-13185
▁kunng	-13186
▁kvite	-13187
▁lavet	-13188
▁makta	-13189
▁mente	-13190
▁mobil	-13191
▁navng	-13192
▁nobel	-13193
▁nogen	-13194
▁obser	-13195
▁occup	-13196
▁oldeb	-13197
▁opdag	-13198
▁polis	-13199
▁promo	-13200
▁påbeg	-13201
▁sales	-13202
▁satsa	-13203
▁score	-13204
▁sixth	-13205
▁slapp	-13206
▁small	-13207
▁snitt	-13208
▁stede	-13209
▁säker	-13210
▁sålde	-13211
▁sökte	-13212
▁tabte	-13213
▁talar	-13214
▁teken	-13215
▁turne	-13216
▁typer	-13217
▁usage	-13218
▁vegen	-13219
▁vidar	-13220
▁volum	-13221
▁Åsnes	-13222
▁åpnet	-13223
▁årige	-13224
agement	-13225
egjorde	-13226
ennende	-13227
ersjøen	-13228
företag	-13229
havende	-13230
helmina	-13231
ination	-13232
kvarter	-13233
ligaste	-13234
løsning	-13235
miljøet	-13236
rediens	-13237
samfunn	-13238
smannen	-13239
ståande	-13240
ømmerne	-13241
▁Akhtar	-13242
▁Amanda	-13243
▁Ammann	-13244
▁Arnulf	-13245
▁Astley	-13246
▁Audrey	-13247
▁Before	-13248
▁Bladet	-13249
▁Brynäs	-13250
▁Bøkene	-13251
▁Carles	-13252
▁Chiefs	-13253
▁Clouse	-13254
▁Comics	-13255
▁Dinner	-13256
▁Edmund	-13257
▁Empire	-13258
▁Ernest	-13259
▁Family	-13260
▁Gordon	-13261
▁Hamsun	-13262
▁Hannah	-13263
▁Herman	-13264
▁Lonely	-13265
▁Macken	-13266
▁Marion	-13267
▁Monroe	-13268
▁Nordic	-13269
▁Passer	-13270
▁Provin	-13271
▁Public	-13272
▁Reuter	-13273
▁Rollen	-13274
▁Sandra	-13275
▁Senare	-13276
▁Staats	-13277
▁Säsong	-13278
▁Taiwan	-13279
▁Talent	-13280
▁Things	-13281
▁Torres	-13282
▁Utover	-13283
▁Vestre	-13284
▁Västra	-13285
▁Weaver	-13286
▁Zanzib	-13287
▁anatom	-13288
▁antall	-13289
▁arvere	-13290
▁arving	-13291
▁ballet	-13292
▁brasil	-13293
▁busett	-13294
▁butikk	-13295
▁byrjar	-13296
▁börjar	-13297
▁cancer	-13298
▁caused	-13299
▁couple	-13300
▁cruise	-13301
▁dagleg	-13302
▁deaths	-13303
▁decade	-13304
▁doktor	-13305
▁drives	-13306
▁effect	-13307
▁eldest	-13308
▁energi	-13309
▁engasj	-13310
▁engine	-13311
▁erstat	-13312
▁fabrik	-13313
▁finale	-13314
▁finner	-13315
▁format	-13316
▁frågor	-13317
▁gravid	-13318
▁guddom	-13319
▁hensyn	-13320
▁hertil	-13321
▁hittar	-13322
▁hjemme	-13323
▁hotell	-13324
▁hoveds	-13325
▁indfly	-13326
▁inntil	-13327
▁kallar	-13328
▁kejsar	-13329
▁kjerne	-13330
▁komedi	-13331
▁konver	-13332
▁kärlek	-13333
▁lavede	-13334
▁lenker	-13335
▁letter	-13336
▁luther	-13337
▁magten	-13338
▁mannen	-13339
▁meinte	-13340
▁middle	-13341
▁noregs	-13342
▁novels	-13343
▁nämnas	-13344
▁nästan	-13345
▁nævnes	-13346
▁observ	-13347
▁operas	-13348
▁opprør	-13349
▁oppset	-13350
▁opstod	-13351
▁overra	-13352
▁oversk	-13353
▁planer	-13354
▁preget	-13355
▁presum	-13356
▁prøvde	-13357
▁rennet	-13358
▁retain	-13359
▁retten	-13360
▁ringen	-13361
▁räknas	-13362
▁satell	-13363
▁search	-13364
▁sekund	-13365
▁serves	-13366
▁silver	-13367
▁sjunde	-13368
▁sjølve	-13369
▁sonson	-13370
▁sovjet	-13371
▁stated	-13372
▁sterke	-13373
▁studie	-13374
▁styret	-13375
▁suffer	-13376
▁søndag	-13377
▁søstre	-13378
▁though	-13379
▁touren	-13380
▁twelve	-13381
▁utform	-13382
▁utgåva	-13383
▁vilkår	-13384
▁visade	-13385
▁zodiac	-13386
bildning	-13387
essansen	-13388
fotograf	-13389
följande	-13390
følgende	-13391
ibliotek	-13392
jenesten	-13393
kebiskop	-13394
ligheder	-13395
otballer	-13396
partment	-13397
radisjon	-13398
sklubben	-13399
tenstein	-13400
trædende	-13401
utepunkt	-13402
▁Albumet	-13403
▁Alfonso	-13404
▁Arendal	-13405
▁Atlanta	-13406
▁Clinton	-13407
▁Critics	-13408
▁Edwards	-13409
▁Filming	-13410
▁Gottorp	-13411
▁Guillou	-13412
▁Higgins	-13413
▁Jamaica	-13414
▁Jeffrey	-13415
▁Jutland	-13416
▁Kerstin	-13417
▁Kjersti	-13418
▁Kroatia	-13419
▁Larsens	-13420
▁Libanon	-13421
▁Magtens	-13422
▁Masters	-13423
▁Matilda	-13424
▁Mattias	-13425
▁Maxwell	-13426
▁Nations	-13427
▁Nyheter	-13428
▁Omkring	-13429
▁Oranien	-13430
▁Picture	-13431
▁Reading	-13432
▁Rickman	-13433
▁Rusland	-13434
▁Sapporo	-13435
▁Spotify	-13436
▁Sørfold	-13437
▁Tjessem	-13438
▁Ukraine	-13439
▁Youtube	-13440
▁absolut	-13441
▁automat	-13442
▁avholdt	-13443
▁begiven	-13444
▁beholdt	-13445
▁beskrev	-13446
▁brukast	-13447
▁capital	-13448
▁culture	-13449
▁earlier	-13450
▁emerged	-13451
▁enevæld	-13452
▁evangel	-13453
▁figuren	-13454
▁figurer	-13455
▁forbund	-13456
▁formann	-13457
▁fremtid	-13458
▁främsta	-13459
▁helikop	-13460
▁hoppuka	-13461
▁humanit	-13462
▁hurtigt	-13463
▁innvand	-13464
▁invader	-13465
▁islands	-13466
▁kjendis	-13467
▁kommand	-13468
▁kroppen	-13469
▁kvinder	-13470
▁ledamot	-13471
▁mission	-13472
▁mistede	-13473
▁moderen	-13474
▁monarch	-13475
▁monster	-13476
▁mottatt	-13477
▁musiken	-13478
▁natural	-13479
▁norrøne	-13480
▁nærmere	-13481
▁områden	-13482
▁opkaldt	-13483
▁opptred	-13484
▁partner	-13485
▁process	-13486
▁ranking	-13487
▁rediger	-13488
▁regular	-13489
▁rigsfor	-13490
▁rushing	-13491
▁samfund	-13492
▁samlede	-13493
▁seneste	-13494
▁seventh	-13495
▁similar	-13496
▁sjanger	-13497
▁skiftet	-13498
▁skotske	-13499
▁skyldes	-13500
▁station	-13501
▁studere	-13502
▁stället	-13503
▁subject	-13504
▁support	-13505
▁såkalte	-13506
▁telefon	-13507
▁theatre	-13508
▁tidlige	-13509
▁undersk	-13510
▁utnevnt	-13511
▁utvidet	-13512
▁variant	-13513
▁venstre	-13514
▁victory	-13515
▁Åkerman	-13516
alistiske	-13517
historisk	-13518
▁Adkisson	-13519
▁Ahlström	-13520
▁Arkansas	-13521
▁Bohemian	-13522
▁Campbell	-13523
▁Chandler	-13524
▁Cornwall	-13525
▁Dalsland	-13526
▁Derefter	-13527
▁Filmfare	-13528
▁Fältskog	-13529
▁Grundlov	-13530
▁Hønefoss	-13531
▁Institut	-13532
▁Ishikawa	-13533
▁Livgarde	-13534
▁Malmöhus	-13535
▁Napoléon	-13536
▁Northern	-13537
▁Orkester	-13538
▁Pernilla	-13539
▁Ringenes	-13540
▁Robinson	-13541
▁Schlüter	-13542
▁Seacrest	-13543
▁Skotland	-13544
▁Thriller	-13545
▁Zugspitz	-13546
▁accident	-13547
▁allierte	-13548
▁baggrund	-13549
▁benyttes	-13550
▁benyttet	-13551
▁blivande	-13552
▁bystatus	-13553
▁comeback	-13554
▁conflict	-13555
▁deltaget	-13556
▁dessutom	-13557
▁egyptisk	-13558
▁eksister	-13559
▁filosofi	-13560
▁føderale	-13561
▁generelt	-13562
▁grevinde	-13563
▁huvudsak	-13564
▁högskola	-13565
▁inleddes	-13566
▁innspill	-13567
▁internet	-13568
▁intresse	-13569
▁involved	-13570
▁kandidat	-13571
▁kjøpstad	-13572
▁kunnskap	-13573
▁lyckades	-13574
▁meddelte	-13575
▁midnight	-13576
▁ministre	-13577
▁modstand	-13578
▁movement	-13579
▁nederlag	-13580
▁negative	-13581
▁nettverk	-13582
▁osmanske	-13583
▁partiets	-13584
▁pladesel	-13585
▁powerful	-13586
▁rekorden	-13587
▁software	-13588
▁struktur	-13589
▁subpostm	-13590
▁udsendte	-13591
▁varefter	-13592
presentant	-13593
sättningar	-13594
▁Baltimore	-13595
▁Bokstaven	-13596
▁Brasilien	-13597
▁Cavallier	-13598
▁Celebrity	-13599
▁Challenge	-13600
▁Cleveland	-13601
▁Gullruten	-13602
▁Haraldsen	-13603
▁Henrietta	-13604
▁Hjelmeset	-13605
▁Härenstam	-13606
▁Kleopatra	-13607
▁Sebastian	-13608
▁Skildring	-13609
▁Sydafrika	-13610
▁Trondhjem	-13611
▁Vancouver	-13612
▁anthology	-13613
▁antisemit	-13614
▁användare	-13615
▁avsnittet	-13616
▁belönades	-13617
▁betydelse	-13618
▁completed	-13619
▁confirmed	-13620
▁defending	-13621
▁diskusjon	-13622
▁engagerad	-13623
▁expansion	-13624
▁fictional	-13625
▁folkedans	-13626
▁fyrstehus	-13627
▁inspirert	-13628
▁kvindelig	-13629
▁meddelade	-13630
▁musicians	-13631
▁originale	-13632
▁rapporter	-13633
▁registrer	-13634
▁samarbete	-13635
▁sammenlig	-13636
▁stafetten	-13637
▁strekkjer	-13638
▁tegnefilm	-13639
▁teoretisk	-13640
▁touchdown	-13641
▁turnerede	-13642
▁turnering	-13643
▁tvillings	-13644
▁typically	-13645
▁utländska	-13646
▁versjonar	-13647
▁wikipedia	-13648
▁Christians	-13649
▁Geografisk	-13650
▁Indonesien	-13651
▁Kristallen	-13652
▁Romarriket	-13653
▁Wilhelmina	-13654
▁ambassadør	-13655
▁dirigenten	-13656
▁europeiska	-13657
▁framgångar	-13658
▁historiker	-13659
▁indspillet	-13660
▁nordvästra	-13661
▁prosjektet	-13662
▁protestant	-13663
▁regissören	-13664
▁regjerande	-13665
▁sammenheng	-13666
▁skiskyting	-13667
▁stadsdelen	-13668
▁upptäcktes	-13669
▁utdannelse	-13670
▁århundrede	-13671
organisation	-13672
▁Achievement	-13673
▁Aftenposten	-13674
▁Austersjøen	-13675
▁Fredriksson	-13676
▁Gazastripen	-13677
▁Internation	-13678
▁Lejonhjärta	-13679
▁Montealegre	-13680
▁Outstanding	-13681
▁Stoltenberg	-13682
▁Verdenskrig	-13683
▁competition	-13684
▁efterfulgte	-13685
▁efterträdde	-13686
▁fellesstart	-13687
▁forretnings	-13688
▁gennemførte	-13689
▁grandmother	-13690
▁individuelt	-13691
▁innbyggerne	-13692
▁innflytelse	-13693
▁intelligens	-13694
▁rättigheter	-13695
▁storkrossen	-13696
▁studioalbum	-13697
▁traditional	-13698
▁tredjeplass	-13699
▁tronföljare	-13700
▁vitskaplege	-13701
▁Amandaprisen	-13702
▁Springsteens	-13703
▁Svensktoppen	-13704
▁chefredaktør	-13705
▁elektroniske	-13706
▁framträdande	-13707
▁professionel	-13708
▁revolusjonen	-13709
▁entertainment	-13710
▁fylkeskommune	-13711
▁hovedsageligt	-13712
▁innbyggjarane	-13713
▁noregsmeister	-13714
▁Charlottenlund	-13715
▁Christianshavn	-13716
▁Philharmoniker	-13717
▁verdenscuprenn	-13718
▁generalsekretær	-13719
99	-13720
AI	-13721
DE	-13722
DF	-13723
EC	-13724
HF	-13725
ML	-13726
St	-13727
VD	-13728
gy	-13729
no	-13730
oh	-13731
pi	-13732
si	-13733
tz	-13734
yk	-13735
äk	-13736
öö	-13737
üh	-13738
на	-13739
App	-13740
ahr	-13741
amo	-13742
cco	-13743
dre	-13744
edo	-13745
emb	-13746
emo	-13747
enc	-13748
eri	-13749
gat	-13750
hør	-13751
iao	-13752
idt	-13753
ieu	-13754
imi	-13755
ims	-13756
ipa	-13757
jle	-13758
kab	-13759
kok	-13760
kwe	-13761
lod	-13762
mal	-13763
nde	-13764
oda	-13765
odi	-13766
ogt	-13767
okl	-13768
pal	-13769
pes	-13770
pon	-13771
pts	-13772
rel	-13773
shu	-13774
slå	-13775
tag	-13776
thm	-13777
tis	-13778
tok	-13779
ucc	-13780
utg	-13781
vat	-13782
vna	-13783
ygg	-13784
yte	-13785
zia	-13786
äkt	-13787
äss	-13788
æne	-13789
öjd	-13790
øme	-13791
øsk	-13792
▁76	-13793
▁BY	-13794
▁Bh	-13795
▁Kw	-13796
▁MS	-13797
▁Nu	-13798
▁Ok	-13799
▁SK	-13800
▁UN	-13801
▁Vo	-13802
▁cr	-13803
▁gy	-13804
▁Äl	-13805
0000	-13806
Mond	-13807
abin	-13808
afer	-13809
akim	-13810
aled	-13811
allt	-13812
alta	-13813
ambo	-13814
anks	-13815
arer	-13816
aria	-13817
aris	-13818
aset	-13819
aves	-13820
avet	-13821
bara	-13822
bare	-13823
bill	-13824
coln	-13825
dans	-13826
elda	-13827
elie	-13828
eney	-13829
ense	-13830
fast	-13831
fost	-13832
født	-13833
gate	-13834
germ	-13835
gern	-13836
gjev	-13837
heds	-13838
hero	-13839
hmen	-13840
htos	-13841
iane	-13842
iard	-13843
iest	-13844
imar	-13845
ints	-13846
irit	-13847
issl	-13848
iøse	-13849
jing	-13850
kend	-13851
kkja	-13852
klin	-13853
laft	-13854
lært	-13855
mack	-13856
mass	-13857
mede	-13858
meld	-13859
mera	-13860
mægt	-13861
mænd	-13862
ndal	-13863
nord	-13864
obby	-13865
ocol	-13866
oler	-13867
onto	-13868
ored	-13869
orff	-13870
osom	-13871
ouri	-13872
pipe	-13873
pler	-13874
pott	-13875
rabb	-13876
rane	-13877
reme	-13878
rigt	-13879
rilj	-13880
sahl	-13881
sjön	-13882
spor	-13883
tekn	-13884
tene	-13885
tsam	-13886
ttes	-13887
uman	-13888
urer	-13889
utch	-13890
vart	-13891
writ	-13892
ying	-13893
zman	-13894
äste	-13895
årsk	-13896
érab	-13897
▁114	-13898
▁143	-13899
▁146	-13900
▁147	-13901
▁157	-13902
▁162	-13903
▁240	-13904
▁242	-13905
▁360	-13906
▁364	-13907
▁Aff	-13908
▁Alt	-13909
▁Bot	-13910
▁Bøl	-13911
▁DVD	-13912
▁Dig	-13913
▁Eag	-13914
▁Fag	-13915
▁Fau	-13916
▁Flo	-13917
▁Gus	-13918
▁Hog	-13919
▁Hær	-13920
▁IOK	-13921
▁IPA	-13922
▁Iam	-13923
▁Ira	-13924
▁Isa	-13925
▁Kin	-13926
▁Klo	-13927
▁Klæ	-13928
▁Lad	-13929
▁Lev	-13930
▁Lys	-13931
▁MCU	-13932
▁MMA	-13933
▁Mai	-13934
▁Mul	-13935
▁NAS	-13936
▁Nut	-13937
▁Paa	-13938
▁Pow	-13939
▁RSS	-13940
▁Raj	-13941
▁Rap	-13942
▁Rid	-13943
▁Rön	-13944
▁Sjö	-13945
▁Soc	-13946
▁Tod	-13947
▁URL	-13948
▁Vis	-13949
▁Viv	-13950
▁Vor	-13951
▁Vår	-13952
▁Was	-13953
▁Wed	-13954
▁Wer	-13955
▁XIV	-13956
▁XXL	-13957
▁ank	-13958
▁bef	-13959
▁bem	-13960
▁bio	-13961
▁bul	-13962
▁båe	-13963
▁dan	-13964
▁ded	-13965
▁esc	-13966
▁grå	-13967
▁hæd	-13968
▁hæv	-13969
▁ion	-13970
▁kav	-13971
▁kne	-13972
▁kos	-13973
▁kør	-13974
▁las	-13975
▁løn	-13976
▁myr	-13977
▁nat	-13978
▁obo	-13979
▁poj	-13980
▁rac	-13981
▁ros	-13982
▁ryt	-13983
▁sej	-13984
▁sug	-13985
▁syr	-13986
▁tju	-13987
▁tæt	-13988
▁uly	-13989
▁utf	-13990
▁utn	-13991
▁vux	-13992
▁Øye	-13993
▁ätt	-13994
afilm	-13995
alane	-13996
alism	-13997
amund	-13998
andal	-13999
anker	-14000
arbet	-14001
ardom	-14002
arter	-14003
asten	-14004
atene	-14005
ators	-14006
aysir	-14007
azaki	-14008
buter	-14009
crant	-14010
dered	-14011
deren	-14012
egori	-14013
eldig	-14014
engen	-14015
ensin	-14016
estad	-14017
estre	-14018
esund	-14019
fader	-14020
falls	-14021
gtede	-14022
hythm	-14023
iansk	-14024
ibati	-14025
icken	-14026
ideos	-14027
iflyg	-14028
ighth	-14029
igned	-14030
igurd	-14031
immer	-14032
imovi	-14033
innen	-14034
ittar	-14035
kehus	-14036
lagte	-14037
linja	-14038
mates	-14039
medel	-14040
miral	-14041
nades	-14042
oende	-14043
offet	-14044
oking	-14045
oning	-14046
ottet	-14047
redit	-14048
skaps	-14049
skvin	-14050
släpp	-14051
spart	-14052
stats	-14053
styrt	-14054
synet	-14055
terna	-14056
trätt	-14057
ttere	-14058
uland	-14059
uller	-14060
ultet	-14061
unnel	-14062
urity	-14063
uston	-14064
utvik	-14065
varna	-14066
vised	-14067
värld	-14068
works	-14069
ägare	-14070
ämnda	-14071
ätter	-14072
▁1559	-14073
▁1799	-14074
▁1801	-14075
▁1810	-14076
▁1815	-14077
▁1820	-14078
▁1821	-14079
▁1854	-14080
▁1856	-14081
▁1865	-14082
▁1868	-14083
▁1878	-14084
▁1883	-14085
▁2025	-14086
▁Alto	-14087
▁Amin	-14088
▁Aqua	-14089
▁Bell	-14090
▁Beng	-14091
▁Blad	-14092
▁Bråk	-14093
▁Budd	-14094
▁Bund	-14095
▁Call	-14096
▁Cash	-14097
▁Cato	-14098
▁Cold	-14099
▁Coun	-14100
▁Days	-14101
▁Deut	-14102
▁Fler	-14103
▁Fyra	-14104
▁Gene	-14105
▁Goth	-14106
▁Grac	-14107
▁Gray	-14108
▁Grig	-14109
▁Harr	-14110
▁Horn	-14111
▁Jung	-14112
▁Kapp	-14113
▁Keys	-14114
▁Know	-14115
▁Krog	-14116
▁Luck	-14117
▁MMXX	-14118
▁Many	-14119
▁Marl	-14120
▁Meek	-14121
▁Mira	-14122
▁Mitt	-14123
▁Muse	-14124
▁Nile	-14125
▁Once	-14126
▁Palæ	-14127
▁Parl	-14128
▁Rein	-14129
▁Rema	-14130
▁Rena	-14131
▁Rund	-14132
▁Ryde	-14133
▁Sarp	-14134
▁Scen	-14135
▁Sean	-14136
▁Sill	-14137
▁Slut	-14138
▁Strü	-14139
▁Suss	-14140
▁Talk	-14141
▁Tall	-14142
▁Tedd	-14143
▁Tine	-14144
▁Toft	-14145
▁Upon	-14146
▁Vang	-14147
▁Vasa	-14148
▁Vene	-14149
▁Venn	-14150
▁allm	-14151
▁appl	-14152
▁arbe	-14153
▁arkt	-14154
▁bisp	-14155
▁bist	-14156
▁blad	-14157
▁cart	-14158
▁dark	-14159
▁dead	-14160
▁decl	-14161
▁disc	-14162
▁dokt	-14163
▁domk	-14164
▁drap	-14165
▁dubb	-14166
▁dyra	-14167
▁dømt	-14168
▁ejer	-14169
▁emot	-14170
▁face	-14171
▁fasc	-14172
▁frie	-14173
▁frig	-14174
▁förm	-14175
▁føde	-14176
▁gavs	-14177
▁gjær	-14178
▁godk	-14179
▁hels	-14180
▁hind	-14181
▁hypp	-14182
▁höll	-14183
▁kick	-14184
▁känt	-14185
▁kärn	-14186
▁less	-14187
▁mole	-14188
▁once	-14189
▁onde	-14190
▁pave	-14191
▁rene	-14192
▁rent	-14193
▁repl	-14194
▁rige	-14195
▁rune	-14196
▁selt	-14197
▁size	-14198
▁sjøm	-14199
▁sleg	-14200
▁stro	-14201
▁stöd	-14202
▁tegn	-14203
▁teke	-14204
▁tone	-14205
▁tons	-14206
▁trib	-14207
▁träd	-14208
▁træk	-14209
▁tung	-14210
▁tårn	-14211
▁ulik	-14212
▁undt	-14213
▁uppe	-14214
▁util	-14215
▁vakt	-14216
▁vice	-14217
▁visa	-14218
▁wide	-14219
▁årre	-14220
abaddi	-14221
addrar	-14222
adrilj	-14223
afamil	-14224
aleava	-14225
amfunn	-14226
asiaat	-14227
bygget	-14228
chanan	-14229
crantz	-14230
dernes	-14231
eboard	-14232
fadern	-14233
forval	-14234
fundet	-14235
givare	-14236
gänget	-14237
hammar	-14238
handel	-14239
hestra	-14240
holmen	-14241
igelse	-14242
klasse	-14243
kongen	-14244
ligvis	-14245
ländsk	-14246
naught	-14247
nerhet	-14248
netegn	-14249
regent	-14250
retter	-14251
ricket	-14252
ringøy	-14253
sanger	-14254
sbjerg	-14255
sburgh	-14256
skiner	-14257
skulen	-14258
spired	-14259
uperte	-14260
utions	-14261
veldet	-14262
vesvis	-14263
værker	-14264
åkning	-14265
▁Aaron	-14266
▁Abdel	-14267
▁Abdul	-14268
▁Again	-14269
▁Arten	-14270
▁Asian	-14271
▁Asien	-14272
▁Begge	-14273
▁Bente	-14274
▁Billy	-14275
▁Blair	-14276
▁Blake	-14277
▁Blich	-14278
▁Brats	-14279
▁Brett	-14280
▁Bøker	-14281
▁Calle	-14282
▁Carey	-14283
▁Corps	-14284
▁Dirch	-14285
▁Dutch	-14286
▁Eddie	-14287
▁Elton	-14288
▁Fight	-14289
▁Fjols	-14290
▁Fjord	-14291
▁Forss	-14292
▁Frans	-14293
▁Frost	-14294
▁Gärde	-14295
▁Gösta	-14296
▁Hills	-14297
▁Ibrah	-14298
▁Jamie	-14299
▁Jæger	-14300
▁Karen	-14301
▁Kelly	-14302
▁Kjeld	-14303
▁Kvamm	-14304
▁Laura	-14305
▁Liech	-14306
▁Løren	-14307
▁Magic	-14308
▁Malek	-14309
▁Malou	-14310
▁Miles	-14311
▁Minik	-14312
▁Mølby	-14313
▁Neill	-14314
▁Obama	-14315
▁Oprin	-14316
▁Order	-14317
▁Papua	-14318
▁Pelle	-14319
▁Perth	-14320
▁Piero	-14321
▁Quest	-14322
▁River	-14323
▁Sally	-14324
▁Sanne	-14325
▁Schøn	-14326
▁Shand	-14327
▁Sicil	-14328
▁Siste	-14329
▁Spain	-14330
▁Steel	-14331
▁Svahn	-14332
▁Sydow	-14333
▁Södra	-14334
▁Techn	-14335
▁Tenny	-14336
▁Thyra	-14337
▁Torsk	-14338
▁Tourn	-14339
▁Vasal	-14340
▁Vejle	-14341
▁Venus	-14342
▁Villa	-14343
▁Wayne	-14344
▁Willy	-14345
▁Witch	-14346
▁alleg	-14347
▁allow	-14348
▁autor	-14349
▁avdel	-14350
▁bebyg	-14351
▁bekre	-14352
▁besid	-14353
▁besto	-14354
▁bestå	-14355
▁bilen	-14356
▁board	-14357
▁bredt	-14358
▁byene	-14359
▁bygge	-14360
▁bytes	-14361
▁cross	-14362
▁digit	-14363
▁drept	-14364
▁døypt	-14365
▁ekspl	-14366
▁ender	-14367
▁facto	-14368
▁false	-14369
▁fokus	-14370
▁frequ	-14371
▁fylte	-14372
▁följd	-14373
▁galan	-14374
▁heavy	-14375
▁heder	-14376
▁herad	-14377
▁heraf	-14378
▁herre	-14379
▁heste	-14380
▁hjælp	-14381
▁innom	-14382
▁islam	-14383
▁julet	-14384
▁kanad	-14385
▁katal	-14386
▁kjemp	-14387
▁knapp	-14388
▁knusk	-14389
▁legge	-14390
▁lærar	-14391
▁majon	-14392
▁mekan	-14393
▁mänsk	-14394
▁naken	-14395
▁neigh	-14396
▁never	-14397
▁næste	-14398
▁ocean	-14399
▁opmær	-14400
▁paret	-14401
▁patri	-14402
▁plads	-14403
▁plant	-14404
▁reser	-14405
▁rival	-14406
▁seder	-14407
▁siger	-14408
▁sigra	-14409
▁skapa	-14410
▁sorte	-14411
▁spark	-14412
▁taket	-14413
▁teori	-14414
▁tilst	-14415
▁timer	-14416
▁topps	-14417
▁trods	-14418
▁trygg	-14419
▁tungt	-14420
▁udvid	-14421
▁utgiv	-14422
▁utgör	-14423
▁varer	-14424
▁varet	-14425
▁varte	-14426
▁vocal	-14427
agelsen	-14428
agerrak	-14429
atedral	-14430
avenius	-14431
ception	-14432
egionen	-14433
egories	-14434
egovina	-14435
etabler	-14436
etesild	-14437
htosalo	-14438
ificant	-14439
imenter	-14440
inental	-14441
iserade	-14442
iserien	-14443
itioner	-14444
ksessen	-14445
ksomhed	-14446
maktene	-14447
ritiker	-14448
sdotter	-14449
selskap	-14450
shandel	-14451
sholder	-14452
skyrkan	-14453
speriod	-14454
sprisen	-14455
ssystem	-14456
station	-14457
studier	-14458
talende	-14459
usjonen	-14460
veksten	-14461
verande	-14462
vitskap	-14463
våpenet	-14464
ydrogen	-14465
érables	-14466
øjtnant	-14467
▁Alanis	-14468
▁Alison	-14469
▁Always	-14470
▁Arktis	-14471
▁Atomic	-14472
▁Avisen	-14473
▁Batten	-14474
▁Battle	-14475
▁Birger	-14476
▁Bromma	-14477
▁Casper	-14478
▁Dallas	-14479
▁Denver	-14480
▁Derfor	-14481
▁Eagles	-14482
▁Edwall	-14483
▁Engell	-14484
▁Fauske	-14485
▁Fredag	-14486
▁Gaysir	-14487
▁Govern	-14488
▁Graham	-14489
▁Hamlet	-14490
▁Hockey	-14491
▁Holste	-14492
▁Honshu	-14493
▁Hooten	-14494
▁Jackie	-14495
▁Joakim	-14496
▁Joanna	-14497
▁Justin	-14498
▁Keegan	-14499
▁Keisha	-14500
▁Kepler	-14501
▁Labour	-14502
▁LeMond	-14503
▁Legend	-14504
▁Mahler	-14505
▁Mattel	-14506
▁Milano	-14507
▁Morgen	-14508
▁Moritz	-14509
▁Møgelt	-14510
▁Niklas	-14511
▁Nordli	-14512
▁Nordre	-14513
▁Opsahl	-14514
▁Pretty	-14515
▁Prisen	-14516
▁Priser	-14517
▁Queens	-14518
▁Result	-14519
▁Ridder	-14520
▁Roller	-14521
▁Rowena	-14522
▁Rudolf	-14523
▁Rumble	-14524
▁Rådhus	-14525
▁Sanger	-14526
▁Schack	-14527
▁Scient	-14528
▁Serbia	-14529
▁Sigurd	-14530
▁Sixtus	-14531
▁Sotsji	-14532
▁Strind	-14533
▁Summer	-14534
▁Svarta	-14535
▁Sylvia	-14536
▁Tidlig	-14537
▁Troels	-14538
▁Trophy	-14539
▁Unmack	-14540
▁Viktor	-14541
▁Wallis	-14542
▁access	-14543
▁afdøde	-14544
▁alltså	-14545
▁angreb	-14546
▁arbeta	-14547
▁argent	-14548
▁begrav	-14549
▁bratsj	-14550
▁brugte	-14551
▁cities	-14552
▁coming	-14553
▁copies	-14554
▁culmin	-14555
▁dansar	-14556
▁drevet	-14557
▁faster	-14558
▁fetter	-14559
▁fiktiv	-14560
▁finske	-14561
▁fjells	-14562
▁folkem	-14563
▁forfat	-14564
▁forsøk	-14565
▁framåt	-14566
▁fredag	-14567
▁gather	-14568
▁grader	-14569
▁guvern	-14570
▁handel	-14571
▁høyere	-14572
▁intens	-14573
▁judisk	-14574
▁kallat	-14575
▁kamper	-14576
▁kanske	-14577
▁kanten	-14578
▁kommet	-14579
▁kronet	-14580
▁kronor	-14581
▁kungar	-14582
▁lengre	-14583
▁listed	-14584
▁losing	-14585
▁master	-14586
▁medier	-14587
▁meteor	-14588
▁moment	-14589
▁morgon	-14590
▁mormor	-14591
▁myster	-14592
▁norrøn	-14593
▁opnået	-14594
▁opplys	-14595
▁parade	-14596
▁passes	-14597
▁pengar	-14598
▁plates	-14599
▁points	-14600
▁prepar	-14601
▁pursue	-14602
▁radios	-14603
▁radiov	-14604
▁sjunga	-14605
▁själva	-14606
▁skivor	-14607
▁skoleg	-14608
▁skudår	-14609
▁sorter	-14610
▁states	-14611
▁streng	-14612
▁strugg	-14613
▁svarte	-14614
▁sykkel	-14615
▁sønnes	-14616
▁tennis	-14617
▁texter	-14618
▁tildel	-14619
▁titlar	-14620
▁totale	-14621
▁ukjent	-14622
▁utgåve	-14623
▁utmerk	-14624
▁utvand	-14625
▁utvida	-14626
▁valget	-14627
▁verdas	-14628
▁verdsc	-14629
▁vinner	-14630
▁værter	-14631
▁ägnade	-14632
▁ønsket	-14633
arbejder	-14634
elskapet	-14635
espiller	-14636
inematic	-14637
iserings	-14638
kommunen	-14639
kulturen	-14640
liggande	-14641
liggende	-14642
ningarna	-14643
pression	-14644
redaktör	-14645
samlinga	-14646
senteret	-14647
singland	-14648
skansler	-14649
sområdet	-14650
ändelser	-14651
ættelsen	-14652
▁Aasiaat	-14653
▁Aukrust	-14654
▁Bahamas	-14655
▁Baptist	-14656
▁Bullock	-14657
▁Calgary	-14658
▁Caprino	-14659
▁Captain	-14660
▁Costner	-14661
▁Diggins	-14662
▁Emperor	-14663
▁Friends	-14664
▁Gasolin	-14665
▁Gerhard	-14666
▁Gjersem	-14667
▁Handler	-14668
▁Hedmark	-14669
▁Horizon	-14670
▁Hundvin	-14671
▁Janeiro	-14672
▁Jenssen	-14673
▁Jessica	-14674
▁Kashmir	-14675
▁Killing	-14676
▁Kjelder	-14677
▁Kjukken	-14678
▁Knutsen	-14679
▁Korleis	-14680
▁Kunglig	-14681
▁Lincoln	-14682
▁Madekwe	-14683
▁Manfred	-14684
▁Nordens	-14685
▁Nystrøm	-14686
▁Paulsen	-14687
▁Prinsen	-14688
▁Runcorn	-14689
▁Seriens	-14690
▁Service	-14691
▁Spillet	-14692
▁Stellan	-14693
▁Suzanne	-14694
▁Sweeney	-14695
▁Søltoft	-14696
▁Therese	-14697
▁Tronføl	-14698
▁Umberto	-14699
▁använde	-14700
▁autonom	-14701
▁betyder	-14702
▁busette	-14703
▁changed	-14704
▁claimed	-14705
▁constit	-14706
▁dengang	-14707
▁dommere	-14708
▁earning	-14709
▁ejendom	-14710
▁fiktive	-14711
▁filming	-14712
▁forfatt	-14713
▁formell	-14714
▁formelt	-14715
▁fotomod	-14716
▁frilans	-14717
▁följdes	-14718
▁gradvis	-14719
▁grænser	-14720
▁however	-14721
▁instead	-14722
▁intelle	-14723
▁kallats	-14724
▁killing	-14725
▁komiske	-14726
▁kvinnan	-14727
▁kvinnor	-14728
▁markeds	-14729
▁moderns	-14730
▁notable	-14731
▁nødvend	-14732
▁oldefar	-14733
▁omstrid	-14734
▁oppdaga	-14735
▁oppfatt	-14736
▁overvej	-14737
▁passing	-14738
▁sannsyn	-14739
▁sjeldan	-14740
▁skiflyg	-14741
▁skildes	-14742
▁skildra	-14743
▁slekten	-14744
▁släkten	-14745
▁songane	-14746
▁sosialt	-14747
▁spawned	-14748
▁stiftet	-14749
▁sydlige	-14750
▁syndrom	-14751
▁teatern	-14752
▁teknikk	-14753
▁teknisk	-14754
▁tekstar	-14755
▁tilgang	-14756
▁tonåren	-14757
▁utdanna	-14758
▁vanligt	-14759
▁vedtatt	-14760
▁Øresund	-14761
▁återkom	-14762
▁åttonde	-14763
ahrenheit	-14764
alfabetet	-14765
arpartiet	-14766
branschen	-14767
forbundet	-14768
ification	-14769
landshold	-14770
president	-14771
produsent	-14772
rigspolit	-14773
styrelsen	-14774
uropeiske	-14775
versjonen	-14776
vetenskap	-14777
▁Albrecht	-14778
▁Anderson	-14779
▁Arkivert	-14780
▁Askepott	-14781
▁Bohuslän	-14782
▁Buchanan	-14783
▁Clouseau	-14784
▁Colombia	-14785
▁Deutsche	-14786
▁Drammens	-14787
▁Eastwood	-14788
▁Eftersom	-14789
▁Ekteskap	-14790
▁Ellemann	-14791
▁Ettersom	-14792
▁Fredriks	-14793
▁Grandios	-14794
▁Granlund	-14795
▁Hellerup	-14796
▁Jakobsen	-14797
▁Kiribati	-14798
▁Kløvedal	-14799
▁McCollum	-14800
▁Missouri	-14801
▁Nittedal	-14802
▁Presleys	-14803
▁Saturday	-14804
▁Sjælland	-14805
▁Stanford	-14806
▁Stauning	-14807
▁Säsongen	-14808
▁Söderman	-14809
▁Thorning	-14810
▁Torbjørn	-14811
▁Törnblom	-14812
▁Vendland	-14813
▁WhatsApp	-14814
▁Zanzibar	-14815
▁artisten	-14816
▁austlege	-14817
▁bachelor	-14818
▁bidragsy	-14819
▁blanding	-14820
▁byområde	-14821
▁centrala	-14822
▁centrale	-14823
▁coverage	-14824
▁datteren	-14825
▁dessuten	-14826
▁division	-14827
▁dramatic	-14828
▁election	-14829
▁episodes	-14830
▁erfaring	-14831
▁etterful	-14832
▁exemplar	-14833
▁faderens	-14834
▁festival	-14835
▁festning	-14836
▁finished	-14837
▁foreldra	-14838
▁forening	-14839
▁forkorta	-14840
▁forsøgte	-14841
▁framført	-14842
▁fremstår	-14843
▁fungerer	-14844
▁försöker	-14845
▁grevinna	-14846
▁gruppens	-14847
▁hertugen	-14848
▁høvesvis	-14849
▁igjennom	-14850
▁infanter	-14851
▁insatser	-14852
▁kategori	-14853
▁komedier	-14854
▁kommende	-14855
▁krogshow	-14856
▁kulturer	-14857
▁mandater	-14858
▁militära	-14859
▁opphavet	-14860
▁oppnådde	-14861
▁oprettet	-14862
▁organist	-14863
▁passerer	-14864
▁passerte	-14865
▁platinum	-14866
▁populära	-14867
▁påbegynd	-14868
▁rankings	-14869
▁revealed	-14870
▁rollerna	-14871
▁romerska	-14872
▁rådgiver	-14873
▁siddende	-14874
▁signerte	-14875
▁sluttede	-14876
▁solsikke	-14877
▁såkaldte	-14878
▁together	-14879
▁trettond	-14880
▁undertry	-14881
▁utbildad	-14882
▁velferds	-14883
▁vintersp	-14884
▁århundre	-14885
▁återigen	-14886
▁övergång	-14887
arlamentet	-14888
bataljonen	-14889
plassering	-14890
skarringen	-14891
österreich	-14892
▁Blanchett	-14893
▁Brokeback	-14894
▁Cinematic	-14895
▁Committee	-14896
▁Connaught	-14897
▁Cristiano	-14898
▁Fjeldstad	-14899
▁Graceland	-14900
▁Gärdestad	-14901
▁Hausgaard	-14902
▁Hillingsø	-14903
▁Historikk	-14904
▁Iamaleava	-14905
▁Kirkegård	-14906
▁Lancaster	-14907
▁Lehtosalo	-14908
▁Lørenskog	-14909
▁Magnusson	-14910
▁Moderater	-14911
▁Mortensen	-14912
▁Nordpolen	-14913
▁Recording	-14914
▁Sarpsborg	-14915
▁Scavenius	-14916
▁Skagerrak	-14917
▁Skådespel	-14918
▁Soukalová	-14919
▁Spielberg	-14920
▁Valentine	-14921
▁Värmlands	-14922
▁aktivitet	-14923
▁astronaut	-14924
▁avslutade	-14925
▁betragtes	-14926
▁betydelig	-14927
▁conflicts	-14928
▁contribut	-14929
▁deriblant	-14930
▁different	-14931
▁dronninga	-14932
▁folketall	-14933
▁forkortet	-14934
▁forskning	-14935
▁fremdeles	-14936
▁friidrett	-14937
▁förlorade	-14938
▁genomgick	-14939
▁giftermål	-14940
▁grundlagt	-14941
▁gymnasium	-14942
▁inaugural	-14943
▁indelning	-14944
▁kinesiske	-14945
▁klassiska	-14946
▁konsernet	-14947
▁kulturell	-14948
▁kærlighed	-14949
▁languages	-14950
▁ligeledes	-14951
▁materiale	-14952
▁nationale	-14953
▁nominerad	-14954
▁organised	-14955
▁producers	-14956
▁promotion	-14957
▁publisert	-14958
▁redaktion	-14959
▁regionale	-14960
▁regularly	-14961
▁repræsent	-14962
▁sedermera	-14963
▁skihoppar	-14964
▁synnerhet	-14965
▁tiltrådte	-14966
▁trollmann	-14967
▁tsjekkisk	-14968
▁uppgifter	-14969
▁vietnames	-14970
▁wrestlers	-14971
▁øygruppen	-14972
konkurranse	-14973
shopprennet	-14974
▁Aleksander	-14975
▁Battenberg	-14976
▁Democratic	-14977
▁Europeiska	-14978
▁Excellence	-14979
▁Heidelberg	-14980
▁Holmenkoll	-14981
▁Hootenanny	-14982
▁Ibrahimovi	-14983
▁Kjerringøy	-14984
▁Korridorer	-14985
▁Kristopher	-14986
▁Misérables	-14987
▁Nottingham	-14988
▁Pittsburgh	-14989
▁Production	-14990
▁Produksjon	-14991
▁Ptolemaios	-14992
▁Referencer	-14993
▁Salomonsen	-14994
▁Samuelsson	-14995
▁Tournament	-14996
▁Vasaloppet	-14997
▁abdicerede	-14998
▁avslutades	-14999
▁beliggende	-15000
▁categories	-15001
▁delstatene	-15002
▁elektriske	-15003
▁engagemang	-15004
▁erstatning	-15005
▁forsknings	-15006
▁föräldrars	-15007
▁føderasjon	-15008
▁grunnlaget	-15009
▁historical	-15010
▁ingrediens	-15011
▁komponeret	-15012
▁konstruert	-15013
▁kortfilmen	-15014
▁kungafamil	-15015
▁kungariket	-15016
▁kunngjorde	-15017
▁kvaliteter	-15018
▁kvinnelege	-15019
▁næstældste	-15020
▁omfattande	-15021
▁prædikater	-15022
▁rockbandet	-15023
▁soundtrack	-15024
▁säsongerna	-15025
▁technology	-15026
▁tettsteder	-15027
▁theatrical	-15028
▁tilhørende	-15029
▁utbildades	-15030
▁videreført	-15031
konkurransen	-15032
mesterskapet	-15033
plasseringar	-15034
riksminister	-15035
skådespelare	-15036
▁Dronningens	-15037
▁Hercegovina	-15038
▁Hovedstaden	-15039
▁Hälsingland	-15040
▁Musikverein	-15041
▁Møgeltønder	-15042
▁Norrbottens	-15043
▁Tramteatret	-15044
▁administrer	-15045
▁directorial	-15046
▁documentary	-15047
▁folkeskolen	-15048
▁institusjon	-15049
▁kommersiell	-15050
▁lillesøster	-15051
▁medlemmarna	-15052
▁oprindelige	-15053
▁produktions	-15054
▁sangerinden	-15055
▁significant	-15056
▁tilsvarende	-15057
▁Bjørnstjerne	-15058
▁Universitets	-15059
▁artistnavnet	-15060
▁befolkningst	-15061
▁folkegrupper	-15062
▁fremtrædende	-15063
▁humoristiske	-15064
▁julekalender	-15065
▁konkurransen	-15066
▁normalbakken	-15067
▁opprinnelige	-15068
▁presidential	-15069
▁produksjoner	-15070
▁tilgjengelig	-15071
▁tittelrollen	-15072
▁tradisjonell	-15073
organisationen	-15074
▁Liechtenstein	-15075
▁Napoleonskrig	-15076
▁championships	-15077
▁collaboration	-15078
▁debutalbummet	-15079
▁meisterskapen	-15080
▁underhållning	-15081
▁Drottningholms	-15082
▁Rikshospitalet	-15083
▁fylkeskommunen	-15084
▁kronprinsparet	-15085
▁originaltittel	-15086
▁sammenslåingen	-15087
▁subpostmasters	-15088
▁foredragsholder	-15089
89	-15090
AA	-15091
AR	-15092
CN	-15093
DL	-15094
ES	-15095
GC	-15096
OH	-15097
bn	-15098
bs	-15099
dt	-15100
ii	-15101
jö	-15102
oa	-15103
oi	-15104
ár	-15105
åm	-15106
æm	-15107
λλ	-15108
ENY	-15109
VII	-15110
agh	-15111
aid	-15112
asg	-15113
aux	-15114
bit	-15115
bli	-15116
boa	-15117
cal	-15118
cts	-15119
dyr	-15120
eig	-15121
emi	-15122
fik	-15123
frø	-15124
fun	-15125
fys	-15126
gie	-15127
gve	-15128
has	-15129
hof	-15130
häl	-15131
høy	-15132
icy	-15133
ieb	-15134
igs	-15135
inc	-15136
iot	-15137
irt	-15138
jed	-15139
kse	-15140
lee	-15141
lei	-15142
meå	-15143
mpe	-15144
nær	-15145
oni	-15146
ote	-15147
oui	-15148
pos	-15149
rot	-15150
ræt	-15151
san	-15152
sch	-15153
sut	-15154
sår	-15155
udt	-15156
ugg	-15157
ugu	-15158
uma	-15159
umm	-15160
von	-15161
væl	-15162
wed	-15163
weg	-15164
ärd	-15165
ælp	-15166
ère	-15167
öre	-15168
ösa	-15169
▁02	-15170
▁AM	-15171
▁Dü	-15172
▁GT	-15173
▁JP	-15174
▁PP	-15175
▁Rø	-15176
▁SF	-15177
▁Sæ	-15178
▁Sü	-15179
▁Vy	-15180
▁Yr	-15181
▁ts	-15182
▁ug	-15183
▁uk	-15184
▁zu	-15185
acon	-15186
aide	-15187
ands	-15188
arks	-15189
arus	-15190
asus	-15191
atha	-15192
aude	-15193
baud	-15194
brav	-15195
brev	-15196
cern	-15197
cest	-15198
dame	-15199
eger	-15200
eler	-15201
elev	-15202
elsm	-15203
elta	-15204
empo	-15205
ensv	-15206
eper	-15207
erba	-15208
erek	-15209
faye	-15210
feir	-15211
fett	-15212
fuld	-15213
gget	-15214
ghan	-15215
hind	-15216
hoff	-15217
hånd	-15218
iant	-15219
ibal	-15220
ibia	-15221
icks	-15222
idan	-15223
iday	-15224
iere	-15225
iern	-15226
igon	-15227
ikan	-15228
ikro	-15229
imil	-15230
inda	-15231
iona	-15232
ipet	-15233
irol	-15234
iset	-15235
itan	-15236
ites	-15237
ivit	-15238
jale	-15239
jarl	-15240
kest	-15241
king	-15242
kurs	-15243
kyst	-15244
laus	-15245
oble	-15246
oggi	-15247
ogie	-15248
olia	-15249
omed	-15250
oons	-15251
pher	-15252
pret	-15253
rama	-15254
room	-15255
räns	-15256
röst	-15257
saka	-15258
selv	-15259
skov	-15260
slav	-15261
slet	-15262
stri	-15263
ståg	-15264
stør	-15265
svik	-15266
teau	-15267
tier	-15268
tsch	-15269
type	-15270
tysk	-15271
uted	-15272
uton	-15273
vaag	-15274
vall	-15275
vass	-15276
vatn	-15277
veen	-15278
vitt	-15279
vold	-15280
ässa	-15281
ätta	-15282
åkan	-15283
ödin	-15284
øpar	-15285
øvar	-15286
øyen	-15287
▁007	-15288
▁113	-15289
▁135	-15290
▁149	-15291
▁159	-15292
▁280	-15293
▁366	-15294
▁450	-15295
▁860	-15296
▁AEW	-15297
▁AIK	-15298
▁Ask	-15299
▁Aub	-15300
▁Bai	-15301
▁Brü	-15302
▁Byg	-15303
▁CFP	-15304
▁Ced	-15305
[...]
